<PAD>	0
<UNK>	0
<BOS>	0
<EOS>	0
.	-2.68046
▁the	-3.14169
,	-3.7247
▁to	-3.77574
▁of	-3.8215
▁is	-3.96584
▁and	-4.08502
▁in	-4.10505
▁a	-4.22405
s	-4.44858
▁was	-4.65158
▁I	-4.66354
▁are	-4.71388
▁for	-4.71867
▁you	-4.78415
▁that	-4.81982
▁not	-4.89232
▁He	-4.96428
▁The	-4.97002
'	-4.97002
▁it	-5.02753
▁this	-5.03364
▁be	-5.05982
▁have	-5.06238
▁	-5.11686
▁has	-5.2243
▁also	-5.24683
▁It	-5.29133
▁This	-5.34111
▁on	-5.34359
▁with	-5.37465
▁will	-5.43379
▁he	-5.52323
▁from	-5.59753
▁"	-5.60731
?	-5.62359
▁all	-5.65082
t	-5.68172
▁as	-5.70129
▁his	-5.70288
▁been	-5.73244
▁they	-5.73318
▁at	-5.81172
▁They	-5.8251
▁We	-5.84171
▁your	-5.84459
:	-5.84578
▁by	-5.86354
▁were	-5.88534
▁can	-5.90153
▁my	-5.92962
▁them	-5.96776
▁said	-5.97216
▁we	-6.0186
▁me	-6.03121
▁There	-6.03469
▁know	-6.03902
▁one	-6.06145
▁people	-6.09976
▁had	-6.11652
▁time	-6.126
-	-6.12751
▁him	-6.13996
▁or	-6.16252
▁years	-6.19219
▁do	-6.21428
▁there	-6.21593
▁an	-6.2251
▁their	-6.23511
▁who	-6.2623
▁two	-6.27883
▁But	-6.33099
▁other	-6.34241
▁no	-6.34571
▁about	-6.35309
▁You	-6.37569
▁what	-6.40042
▁now	-6.40094
▁but	-6.41569
▁which	-6.49423
▁first	-6.49785
▁,	-6.54206
▁year	-6.55082
▁She	-6.55694
;	-6.56124
▁did	-6.56473
▁work	-6.57024
▁very	-6.59326
ing	-6.61762
▁many	-6.63007
▁more	-6.6445
▁day	-6.67873
▁only	-6.68596
▁out	-6.69316
▁us	-6.69442
▁life	-6.73237
ed	-6.7537
▁well	-6.75459
▁In	-6.76515
▁up	-6.76571
▁our	-6.79955
▁some	-6.8015
▁made	-6.80299
▁when	-6.82129
▁so	-6.85167
▁A	-6.86094
."	-6.88529
▁any	-6.88813
!	-6.89439
▁new	-6.90038
▁world	-6.90181
▁here	-6.9098
▁her	-6.9098
▁like	-6.92219
▁than	-6.92365
▁want	-6.93454
▁after	-6.94365
▁may	-6.94617
d	-6.94904
▁good	-6.96571
▁these	-6.98562
▁If	-7.00395
▁too	-7.00575
▁need	-7.00911
▁God	-7.01394
▁how	-7.0171
▁'	-7.0203
▁family	-7.02256
▁shall	-7.02837
▁if	-7.03364
▁-	-7.04305
▁going	-7.04689
▁That	-7.04768
▁into	-7.05204
▁should	-7.05371
▁lot	-7.06391
▁days	-7.08825
▁would	-7.10146
▁name	-7.11466
▁house	-7.1158
▁And	-7.13246
▁children	-7.13383
▁home	-7.15289
▁three	-7.15321
▁used	-7.15933
I	-7.16687
▁see	-7.17318
▁country	-7.17886
▁(	-7.2076
▁Yahweh	-7.2214
m	-7.22909
▁same	-7.24133
▁government	-7.24677
▁use	-7.25379
▁because	-7.25651
▁she	-7.26254
▁before	-7.2643
▁its	-7.27523
▁where	-7.28337
▁get	-7.29015
▁India	-7.29327
▁both	-7.29823
▁things	-7.30627
▁make	-7.30733
▁What	-7.31442
▁last	-7.33362
▁then	-7.33393
)	-7.33605
▁does	-7.36078
▁game	-7.36314
▁man	-7.36447
▁over	-7.36507
▁between	-7.36729
re	-7.38006
▁place	-7.385
▁much	-7.38504
▁come	-7.38803
▁My	-7.40736
▁could	-7.42869
▁way	-7.43441
▁different	-7.44056
▁own	-7.4447
▁just	-7.44988
▁such	-7.45338
▁am	-7.45685
▁being	-7.45976
▁So	-7.46265
▁No	-7.47714
▁file	-7.479
▁old	-7.47954
▁never	-7.48568
▁go	-7.48717
▁number	-7.50002
▁came	-7.5003
▁mother	-7.50281
▁right	-7.5033
▁For	-7.51123
▁another	-7.51432
▁film	-7.51948
▁say	-7.5276
▁father	-7.53258
▁long	-7.53803
▁take	-7.53994
▁those	-7.54165
▁called	-7.55203
▁school	-7.55841
▁son	-7.56489
▁help	-7.57932
▁His	-7.58264
▁Nepal	-7.5839
▁Now	-7.58796
▁today	-7.58889
▁why	-7.59115
er	-7.59446
▁died	-7.59923
▁great	-7.60209
▁company	-7.60477
ly	-7.60905
...	-7.60972
▁book	-7.61314
▁against	-7.61783
▁most	-7.62421
▁since	-7.63778
▁even	-7.64632
▁don	-7.65254
▁every	-7.65682
▁women	-7.66207
▁All	-7.66914
▁Do	-7.67636
▁development	-7.67799
▁water	-7.69061
▁given	-7.69089
▁each	-7.69163
▁few	-7.69805
▁started	-7.70152
▁found	-7.7028
▁must	-7.70448
▁working	-7.70858
▁went	-7.71201
▁again	-7.71412
▁four	-7.71604
▁didn	-7.7176
▁during	-7.72209
▁land	-7.72371
▁still	-7.73228
ve	-7.73996
▁think	-7.74724
▁born	-7.75034
▁problem	-7.7515
▁These	-7.75498
▁How	-7.75686
▁seen	-7.76067
▁part	-7.77349
,"	-7.78024
▁through	-7.78621
▁done	-7.7933
▁China	-7.79881
▁ago	-7.80099
▁city	-7.80314
e	-7.80505
▁age	-7.80624
▁men	-7.81554
▁read	-7.81751
▁money	-7.81807
▁However	-7.84439
▁2	-7.84531
▁important	-7.84925
▁got	-7.85643
▁king	-7.85808
▁play	-7.86054
▁Israel	-7.86228
▁When	-7.87038
▁yet	-7.87089
▁set	-7.87437
▁months	-7.87835
▁known	-7.8784
▁while	-7.88054
▁left	-7.88095
▁back	-7.88827
▁child	-7.89254
▁says	-7.89781
th	-7.89958
▁five	-7.90181
▁down	-7.90665
▁video	-7.90727
▁second	-7.90798
▁hand	-7.91947
▁away	-7.92005
▁10	-7.9224
▁took	-7.92312
▁something	-7.92394
/	-7.9273
▁thing	-7.94178
▁area	-7.94362
▁5	-7.94503
▁friends	-7.94727
n	-7.95467
▁list	-7.95576
▁married	-7.9558
▁played	-7.95832
▁period	-7.96704
▁love	-7.96806
▁hospital	-7.96933
▁body	-7.97257
▁health	-7.97618
▁countries	-7.97649
▁3	-7.98173
▁1	-7.98185
▁end	-7.98376
▁under	-7.9867
▁worked	-7.99238
▁already	-7.99535
▁business	-8.00095
▁give	-8.00273
▁heard	-8.00456
▁doing	-8.0129
▁information	-8.01312
▁4	-8.01446
y	-8.01601
"	-8.01897
▁Then	-8.02473
▁Why	-8.03107
in	-8.0423
▁open	-8.04722
▁market	-8.04738
▁written	-8.04913
▁others	-8.04958
▁easy	-8.05043
▁change	-8.05192
r	-8.05301
▁past	-8.0534
▁power	-8.05695
▁thought	-8.05865
We	-8.05912
▁together	-8.06747
▁happy	-8.079
▁able	-8.08115
▁happened	-8.08206
▁After	-8.08538
▁system	-8.0923
▁future	-8.09323
▁reason	-8.09345
▁saw	-8.10024
▁hope	-8.10035
▁following	-8.10192
▁asked	-8.10608
▁Lord	-8.10719
▁food	-8.10878
▁told	-8.11791
▁group	-8.12209
▁around	-8.12302
▁&	-8.12358
▁movie	-8.12383
▁selected	-8.12418
▁start	-8.12518
▁case	-8.13401
▁As	-8.13634
▁One	-8.13991
▁write	-8.1409
▁find	-8.14744
▁won	-8.14914
▁high	-8.15202
▁nothing	-8.15226
▁means	-8.16974
▁Jesus	-8.17206
▁become	-8.1758
▁available	-8.18437
▁woman	-8.1852
▁really	-8.18941
▁third	-8.19262
▁data	-8.19698
?"	-8.19944
▁6	-8.20014
▁put	-8.20046
▁possible	-8.20139
▁death	-8.20403
▁20	-8.20558
▁best	-8.2071
▁service	-8.21787
▁story	-8.21872
▁current	-8.21874
▁state	-8.21892
▁tell	-8.22032
▁look	-8.22423
▁later	-8.22719
▁next	-8.22794
▁experience	-8.23002
▁sent	-8.23088
▁problems	-8.23498
▁car	-8.23505
▁person	-8.24189
▁within	-8.24288
▁Select	-8.24542
▁saying	-8.2562
▁Plan	-8.26088
▁ready	-8.2644
▁off	-8.26602
▁live	-8.27048
▁question	-8.27465
▁heart	-8.27652
al	-8.2787
▁project	-8.28361
▁public	-8.28435
es	-8.28486
▁might	-8.28604
▁games	-8.28785
▁increase	-8.29157
▁Some	-8.29239
▁plan	-8.29267
▁Many	-8.29459
▁wife	-8.2968
▁answer	-8.29958
▁law	-8.29963
▁level	-8.30113
▁among	-8.30199
▁looking	-8.30715
▁situation	-8.30776
ll	-8.30841
▁process	-8.31336
▁several	-8.31532
▁party	-8.31661
▁local	-8.317
▁various	-8.31853
▁times	-8.31888
▁image	-8.32287
▁At	-8.32459
▁decision	-8.32573
▁works	-8.32592
▁million	-8.32955
▁writing	-8.3316
▁news	-8.33421
▁earth	-8.33576
▁village	-8.33652
▁without	-8.33868
▁war	-8.34033
▁eyes	-8.34053
▁whole	-8.34561
S	-8.34731
▁knew	-8.34938
▁wanted	-8.35361
▁percent	-8.35363
▁media	-8.36029
▁members	-8.36541
▁issue	-8.36542
▁fire	-8.36584
▁everyone	-8.36769
▁field	-8.37551
▁%1	-8.37644
▁wrong	-8.37926
▁To	-8.38285
a	-8.38439
▁show	-8.38447
▁daughter	-8.38906
▁word	-8.39015
▁song	-8.39304
▁police	-8.39493
▁18	-8.3969
▁taken	-8.4018
▁program	-8.40362
▁released	-8.40537
i	-8.40822
▁order	-8.40917
▁close	-8.41129
▁night	-8.41163
▁young	-8.41258
▁due	-8.41366
▁far	-8.41459
▁color	-8.41695
▁became	-8.41765
▁hear	-8.41785
▁true	-8.42223
▁words	-8.42228
▁big	-8.43146
▁sons	-8.43193
▁let	-8.43275
▁anything	-8.43301
▁brought	-8.43353
▁wrote	-8.43767
▁living	-8.44131
▁killed	-8.44755
▁15	-8.45107
c	-8.45162
▁necessary	-8.45282
▁understand	-8.45302
▁month	-8.45707
▁using	-8.45804
▁areas	-8.4597
▁cannot	-8.46098
▁feel	-8.46741
▁always	-8.46821
▁save	-8.47002
▁week	-8.47153
▁type	-8.47201
▁gave	-8.47303
▁wasn	-8.47495
▁small	-8.47575
▁12	-8.47632
or	-8.47783
▁text	-8.48618
▁free	-8.48641
▁support	-8.48698
▁speak	-8.48924
▁doesn	-8.49105
▁currently	-8.49266
▁sector	-8.49309
▁meeting	-8.49339
▁eat	-8.49666
▁lives	-8.49696
▁Could	-8.49717
▁court	-8.49793
▁Both	-8.49867
▁New	-8.49931
▁8	-8.50221
▁until	-8.50524
▁window	-8.50665
▁hard	-8.50694
▁side	-8.51104
▁social	-8.51462
▁playing	-8.51499
▁keep	-8.51699
▁main	-8.52044
▁job	-8.52366
▁Please	-8.52517
▁team	-8.52546
▁language	-8.52881
▁services	-8.52962
▁US	-8.53042
▁himself	-8.53057
▁hours	-8.53424
▁key	-8.53611
▁folder	-8.53809
▁7	-8.54082
▁changed	-8.54122
▁office	-8.54241
▁according	-8.54326
▁create	-8.54386
▁needs	-8.54442
▁point	-8.54464
▁reasons	-8.55181
▁outside	-8.55548
▁coming	-8.55646
▁example	-8.55677
▁present	-8.5587
▁value	-8.55889
▁9	-8.56772
▁learn	-8.56887
▁message	-8.57109
▁11	-8.57272
It	-8.57389
▁19	-8.57486
▁knows	-8.57573
▁football	-8.57587
’	-8.57711
▁move	-8.57735
▁beginning	-8.5831
▁mean	-8.58421
▁trying	-8.5878
▁increased	-8.58856
▁Our	-8.58966
▁line	-8.59147
▁music	-8.59209
▁education	-8.59289
▁books	-8.59375
▁Not	-8.60119
▁large	-8.60213
b	-8.60226
This	-8.6026
▁i	-8.60517
▁phone	-8.60899
▁parents	-8.60963
▁bring	-8.61017
▁six	-8.61311
▁According	-8.61554
▁special	-8.61665
▁matter	-8.61775
▁production	-8.61864
▁expected	-8.62446
▁Here	-8.627
▁created	-8.63265
▁Show	-8.63366
▁clear	-8.63563
▁better	-8.63731
▁changes	-8.63752
▁14	-8.63962
▁policy	-8.64047
▁study	-8.64107
▁road	-8.6421
▁Are	-8.6426
▁Therefore	-8.64573
▁research	-8.64833
▁believe	-8.64939
l	-8.64992
▁building	-8.65437
k	-8.65571
▁having	-8.65842
▁mind	-8.6605
▁files	-8.66094
▁provide	-8.66525
▁seven	-8.66905
▁held	-8.67367
▁provided	-8.6737
▁role	-8.67399
▁treatment	-8.67411
▁view	-8.67857
▁whom	-8.67939
▁sure	-8.67968
▁blood	-8.68263
▁needed	-8.68281
▁Your	-8.68601
▁though	-8.68775
▁human	-8.69339
▁Christ	-8.69811
▁success	-8.69831
▁full	-8.69835
▁everything	-8.70136
▁history	-8.70609
o	-8.7065
▁head	-8.70787
▁Indian	-8.70806
▁disease	-8.70831
▁difficult	-8.71115
▁re	-8.71313
▁political	-8.71383
▁built	-8.71563
▁near	-8.71786
▁meet	-8.71806
▁completed	-8.71823
▁projects	-8.71955
▁Today	-8.71971
▁option	-8.72205
▁ever	-8.72853
▁hands	-8.73039
▁page	-8.7309
▁fact	-8.73321
g	-8.73563
▁established	-8.73593
▁friend	-8.73855
▁began	-8.73866
▁national	-8.73887
▁30	-8.73954
▁13	-8.74116
▁active	-8.7425
▁Who	-8.75127
▁closed	-8.7518
▁little	-8.75402
▁try	-8.75524
▁places	-8.75956
▁article	-8.76125
▁Because	-8.76237
le	-8.76715
▁rules	-8.76757
▁whether	-8.76979
▁error	-8.77003
▁Error	-8.77056
▁based	-8.77118
▁Rs	-8.77294
▁site	-8.77305
A	-8.77373
▁anyone	-8.77449
▁run	-8.77785
▁dead	-8.78232
▁Japan	-8.78366
▁received	-8.78418
▁rest	-8.78746
▁An	-8.78872
▁lost	-8.78877
▁questions	-8.79237
▁common	-8.79418
▁leave	-8.79674
▁alone	-8.79691
▁David	-8.79696
ar	-8.8019
▁visit	-8.80241
ion	-8.80482
▁opportunity	-8.80511
▁companies	-8.8066
▁brother	-8.80795
▁private	-8.8084
▁?	-8.80997
▁face	-8.81113
▁event	-8.81361
▁S	-8.82106
▁per	-8.82228
ers	-8.82358
▁talk	-8.82393
▁students	-8.82691
You	-8.82843
▁yourself	-8.82869
▁report	-8.82871
▁user	-8.83057
▁U	-8.83062
▁control	-8.83671
▁purpose	-8.83823
▁short	-8.83826
▁knowledge	-8.83928
▁)	-8.84151
▁call	-8.8435
▁training	-8.84445
▁weeks	-8.84738
▁17	-8.85458
▁less	-8.85488
▁cause	-8.85687
▁making	-8.85765
▁16	-8.85766
▁considered	-8.85779
▁effect	-8.8578
▁election	-8.86359
▁major	-8.86439
▁stay	-8.86512
▁foreign	-8.86544
▁On	-8.86647
▁happen	-8.87468
▁total	-8.87514
▁ways	-8.87536
▁un	-8.87685
▁themselves	-8.87809
▁half	-8.87904
▁ask	-8.87921
▁size	-8.87946
▁successful	-8.88095
▁difference	-8.88126
▁society	-8.88375
▁die	-8.88549
▁economic	-8.88694
▁light	-8.88761
▁parts	-8.88831
▁interest	-8.88956
▁B	-8.89059
▁room	-8.89089
▁Use	-8.89402
▁nor	-8.89591
▁dream	-8.89826
▁top	-8.89833
▁published	-8.89858
▁comes	-8.89887
▁opened	-8.90029
▁minutes	-8.90031
▁voice	-8.9009
▁simple	-8.90292
▁fear	-8.90493
▁brothers	-8.90603
▁rate	-8.91155
▁safe	-8.91712
▁follow	-8.91778
▁players	-8.91813
▁community	-8.92088
▁products	-8.92193
▁truth	-8.92425
The	-8.92542
▁cities	-8.92596
▁contact	-8.92619
▁C	-8.92669
able	-8.927
▁construction	-8.92774
▁required	-8.9287
▁Their	-8.92977
▁kind	-8.93228
▁added	-8.93264
▁Father	-8.93287
▁lived	-8.93293
▁learned	-8.93436
▁club	-8.935
▁United	-8.93874
▁spoke	-8.94007
▁personal	-8.94117
▁prepared	-8.94261
▁result	-8.94374
▁account	-8.94675
▁often	-8.94914
▁useful	-8.9508
▁pain	-8.95188
▁incident	-8.95686
▁someone	-8.96078
▁therefore	-8.96294
▁table	-8.96308
▁answered	-8.96516
▁People	-8.96588
1	-8.96844
ch	-8.96946
▁share	-8.97022
▁involved	-8.97093
2	-8.97128
on	-8.97156
▁town	-8.9722
an	-8.97473
▁poor	-8.97527
▁Jerusalem	-8.9771
▁bad	-8.97757
▁Where	-8.97841
▁search	-8.97985
▁marriage	-8.98064
B	-8.98655
▁wish	-8.9882
▁thousand	-8.98899
▁above	-8.9896
▁Me	-8.99168
ation	-8.99493
▁fun	-8.99764
el	-8.99801
▁Her	-8.99817
▁competition	-8.99823
▁growth	-8.99881
▁bank	-8.99998
▁date	-9.00051
▁form	-9.002
▁server	-9.00232
▁activities	-9.0032
▁felt	-9.00594
▁afraid	-9.00686
ic	-9.00963
▁failed	-9.01003
▁moment	-9.01021
▁users	-9.01055
▁career	-9.01133
▁document	-9.01283
▁button	-9.01666
▁post	-9.01668
▁Cannot	-9.017
▁...	-9.02017
▁including	-9.02172
▁idea	-9.02201
▁enter	-9.0222
C	-9.02257
▁met	-9.02794
▁25	-9.02905
▁Pakistan	-9.02921
▁default	-9.03118
en	-9.03287
▁remember	-9.03712
▁source	-9.03778
▁real	-9.03956
u	-9.04193
▁amount	-9.04536
▁computer	-9.04815
▁condition	-9.05386
▁enough	-9.0576
▁increasing	-9.05807
▁reading	-9.05925
ri	-9.06039
▁command	-9.06098
▁position	-9.0631
▁basis	-9.0634
▁further	-9.06437
▁district	-9.0646
▁Moses	-9.06534
▁Set	-9.06657
▁Unable	-9.06733
▁forward	-9.06735
▁shown	-9.06794
▁industry	-9.06826
▁Create	-9.06835
▁kids	-9.06882
▁leaders	-9.07302
P	-9.07373
T	-9.07373
▁During	-9.07608
▁fourth	-9.08048
▁care	-9.08227
▁getting	-9.08245
▁English	-9.08303
ur	-9.08398
▁peace	-9.08448
He	-9.08618
▁hour	-9.08693
▁spent	-9.08894
▁member	-9.08969
▁energy	-9.09498
▁population	-9.09792
▁groups	-9.09901
▁songs	-9.09994
▁Let	-9.10317
▁E	-9.10418
▁trade	-9.10495
▁schools	-9.10669
▁stop	-9.10684
▁Nepali	-9.10688
▁developed	-9.10791
▁class	-9.10903
na	-9.11411
▁region	-9.11721
▁Add	-9.11782
▁States	-9.1182
▁style	-9.12052
▁final	-9.12109
▁related	-9.12225
▁send	-9.12566
▁teacher	-9.12571
M	-9.12691
▁looked	-9.1282
▁once	-9.12909
▁aware	-9.12996
▁returned	-9.1317
▁address	-9.13311
▁return	-9.13339
▁risk	-9.1357
▁P	-9.13745
▁sea	-9.13769
▁else	-9.13992
▁decided	-9.14133
▁names	-9.14172
▁goal	-9.14452
▁Re	-9.1467
ment	-9.14679
st	-9.14783
▁allowed	-9.14798
▁nation	-9.14906
▁sign	-9.14983
to	-9.15054
▁oil	-9.15062
▁programmes	-9.15124
▁eight	-9.15246
▁temple	-9.15399
▁step	-9.15453
▁Judah	-9.15469
▁object	-9.15515
▁programme	-9.15516
▁choose	-9.15682
▁build	-9.1641
▁responsibility	-9.16537
▁reached	-9.16833
▁cost	-9.16864
▁wants	-9.1692
▁films	-9.16937
▁longer	-9.17005
▁display	-9.17109
▁File	-9.17134
▁along	-9.17311
il	-9.17434
▁course	-9.17569
▁husband	-9.17577
▁priest	-9.17669
▁connection	-9.17796
▁progress	-9.17821
▁Minister	-9.17903
▁environment	-9.18467
▁win	-9.18502
p	-9.18548
▁deal	-9.18576
▁fight	-9.18671
▁strong	-9.18711
▁abroad	-9.18927
▁previous	-9.19098
▁gold	-9.19146
▁match	-9.19234
▁price	-9.19235
▁teaching	-9.19261
▁running	-9.19262
▁Don	-9.19292
▁capital	-9.1932
▁pay	-9.19343
▁lack	-9.19348
▁application	-9.19556
▁taught	-9.19589
▁inside	-9.19624
▁offering	-9.19671
▁low	-9.1974
3	-9.19811
▁John	-9.19832
▁50	-9.19864
▁continue	-9.19914
it	-9.19936
▁single	-9.20053
▁Kathmandu	-9.20152
▁action	-9.20381
▁largest	-9.20408
▁agreement	-9.2047
ity	-9.20481
▁check	-9.20518
f	-9.20659
lo	-9.2066
▁named	-9.20683
▁hotel	-9.2069
▁F	-9.20798
▁responsible	-9.20814
▁financial	-9.20877
▁player	-9.20891
▁test	-9.21067
▁Open	-9.21156
▁actually	-9.2139
▁Two	-9.21502
▁Save	-9.21725
5	-9.21809
▁gone	-9.21914
▁40	-9.21936
▁Son	-9.22118
▁``	-9.22168
▁Mr	-9.22201
▁resources	-9.22334
▁:	-9.2246
▁types	-9.22538
▁sound	-9.22542
la	-9.22559
▁hundred	-9.22628
▁passed	-9.2269
▁dialog	-9.22849
▁beautiful	-9.22851
▁relationship	-9.22861
▁stage	-9.23204
▁followed	-9.23237
▁houses	-9.23491
▁Egypt	-9.23536
▁Enter	-9.23549
D	-9.23579
▁investment	-9.23686
▁doctor	-9.23805
▁Yes	-9.23847
▁By	-9.23861
▁recently	-9.23923
▁natural	-9.23952
▁21	-9.24075
▁neither	-9.24698
▁prison	-9.2475
▁%	-9.24867
ma	-9.25053
▁birth	-9.2516
▁President	-9.25165
▁facilities	-9.25165
▁worried	-9.25165
▁addition	-9.25255
▁behind	-9.25282
▁Whether	-9.25517
▁thinking	-9.2564
▁quite	-9.25646
▁device	-9.25671
▁isn	-9.2572
▁subject	-9.25797
▁remove	-9.25904
▁app	-9.25992
▁Other	-9.26032
▁M	-9.26419
▁faith	-9.26445
▁rule	-9.26456
▁families	-9.26579
▁girl	-9.26625
▁Government	-9.26698
ti	-9.2675
▁location	-9.26889
▁least	-9.26936
▁mode	-9.27142
▁complete	-9.2718
am	-9.27365
ra	-9.27379
▁kill	-9.27476
▁saved	-9.27505
▁tried	-9.27543
▁America	-9.27668
▁term	-9.27689
▁ten	-9.27751
▁select	-9.27879
▁however	-9.27914
▁kept	-9.28014
▁effective	-9.28117
▁healthy	-9.28133
▁makes	-9.28162
▁Him	-9.28249
▁Click	-9.28262
▁seems	-9.28302
▁ground	-9.28399
▁nature	-9.28618
▁evil	-9.28618
▁Europe	-9.28719
▁politics	-9.28739
▁languages	-9.28748
▁stayed	-9.28792
▁almost	-9.2886
▁taking	-9.28861
▁Most	-9.29022
▁plans	-9.29028
▁workers	-9.2909
▁popular	-9.29093
▁baby	-9.29103
▁South	-9.29233
▁22	-9.29271
▁rights	-9.29295
▁Every	-9.29382
8	-9.29524
▁billion	-9.29849
▁messages	-9.29989
▁options	-9.30028
▁path	-9.30031
▁throughout	-9.30108
▁attack	-9.30171
▁impact	-9.30318
What	-9.30346
▁target	-9.3056
▁early	-9.30593
▁mouth	-9.30699
▁quality	-9.30732
▁entire	-9.30773
▁non	-9.3088
▁Since	-9.31082
▁24	-9.31117
▁K	-9.31151
▁password	-9.31192
▁remain	-9.313
▁shot	-9.31303
▁Thus	-9.31319
▁please	-9.31357
▁''	-9.31444
▁World	-9.31444
▁helped	-9.31467
▁From	-9.3148
▁normal	-9.31545
▁daughters	-9.31702
▁divided	-9.31711
▁sides	-9.31747
▁president	-9.31813
▁receive	-9.31842
▁steps	-9.31871
▁cut	-9.32013
▁reported	-9.3208
▁T	-9.32534
▁meaning	-9.32546
▁nations	-9.32548
▁myself	-9.32587
te	-9.32638
▁issues	-9.32648
▁add	-9.32654
▁Congress	-9.32697
L	-9.3278
z	-9.32794
▁turned	-9.32796
▁led	-9.33429
▁content	-9.33462
▁access	-9.33706
6	-9.33739
▁drink	-9.33852
▁specified	-9.33967
▁teach	-9.3401
▁included	-9.34051
▁function	-9.34108
▁France	-9.34225
▁respect	-9.34293
▁website	-9.3437
▁carried	-9.3448
▁Have	-9.34801
▁benefit	-9.3503
▁interested	-9.35047
▁serious	-9.35075
▁likely	-9.35165
year	-9.35345
▁estimated	-9.35398
▁points	-9.35609
▁offer	-9.35922
7	-9.36024
h	-9.36164
▁river	-9.3655
▁e	-9.36577
▁huge	-9.36688
▁security	-9.36716
▁Even	-9.36761
as	-9.36809
▁teachers	-9.36844
▁pleased	-9.36919
▁moved	-9.37028
ul	-9.37072
▁screen	-9.37126
▁c	-9.37166
▁G	-9.37298
▁nine	-9.3737
▁n	-9.37578
▁chance	-9.37666
▁affected	-9.37839
▁Russia	-9.37847
▁below	-9.38096
▁Although	-9.38291
▁listen	-9.38371
▁waiting	-9.38382
▁holy	-9.38553
▁lead	-9.38683
▁art	-9.38695
▁spend	-9.38755
▁operation	-9.38837
▁100	-9.38924
▁parties	-9.38975
Why	-9.3902
▁online	-9.39389
▁release	-9.39389
▁spoken	-9.39402
▁letter	-9.39443
ness	-9.3949
▁technology	-9.39619
▁youth	-9.3987
▁whose	-9.39935
▁efforts	-9.40021
▁attention	-9.40026
▁economy	-9.40026
▁etc	-9.40026
▁journey	-9.40162
▁immediately	-9.40174
▁concerned	-9.40378
▁connected	-9.40396
▁--	-9.40405
▁animals	-9.40481
▁front	-9.4058
▁mom	-9.40897
▁model	-9.41081
▁R	-9.41088
▁pressure	-9.4112
▁implemented	-9.41157
us	-9.41257
▁weather	-9.41278
▁conducted	-9.41294
▁entered	-9.41424
▁across	-9.41531
▁especially	-9.41669
▁arrested	-9.41697
up	-9.41935
▁shared	-9.42093
▁results	-9.42119
▁trip	-9.4217
▁supported	-9.42513
▁upon	-9.42539
4	-9.42824
0	-9.429
▁certain	-9.43003
▁similar	-9.43006
do	-9.43111
▁forest	-9.43126
▁Also	-9.43209
▁weak	-9.43444
▁improve	-9.43514
▁mentioned	-9.43518
▁D	-9.4356
▁Be	-9.43576
▁stories	-9.4362
▁record	-9.43678
▁committee	-9.43763
!"	-9.43797
ne	-9.43842
▁version	-9.43929
w	-9.43959
▁either	-9.44184
▁income	-9.44187
▁regular	-9.44277
▁caused	-9.44354
▁Color	-9.44424
▁air	-9.44425
%	-9.44649
ro	-9.4465
▁farmers	-9.44719
▁servants	-9.44821
▁talking	-9.44854
▁Police	-9.44895
▁glory	-9.44895
▁selection	-9.44924
E	-9.44951
▁events	-9.45078
▁Everyone	-9.45223
▁proud	-9.45275
▁box	-9.45437
▁Asia	-9.45468
▁Go	-9.45536
▁Only	-9.45555
man	-9.45696
▁space	-9.4572
▁network	-9.45769
▁occurred	-9.46043
li	-9.46131
▁include	-9.46397
▁essential	-9.46425
▁higher	-9.46514
▁Is	-9.4656
▁tree	-9.46639
▁border	-9.46642
▁loss	-9.46802
se	-9.46854
▁With	-9.46916
▁fall	-9.47025
▁National	-9.47057
▁empty	-9.47348
▁busy	-9.47379
▁email	-9.47829
▁fathers	-9.4792
▁turn	-9.47921
▁airport	-9.47972
▁blog	-9.47977
▁stand	-9.47986
▁de	-9.48053
▁college	-9.4827
x	-9.48324
▁gives	-9.48351
▁First	-9.48405
▁writer	-9.48428
▁raised	-9.48456
▁Chinese	-9.48523
▁stood	-9.48524
▁Thank	-9.48598
▁battle	-9.48671
▁soul	-9.48686
▁develop	-9.48696
im	-9.487
▁correct	-9.488
▁organization	-9.48839
▁picture	-9.48864
▁stopped	-9.48973
old	-9.49012
▁served	-9.49062
▁challenge	-9.49068
▁Can	-9.49121
ta	-9.49249
▁goes	-9.49306
▁previously	-9.49332
ter	-9.49375
▁method	-9.49616
▁28	-9.49709
▁serve	-9.49794
▁Man	-9.49799
▁buy	-9.49983
▁sky	-9.50041
▁greater	-9.50043
▁items	-9.50159
▁moving	-9.50163
▁couldn	-9.50172
ah	-9.50303
▁army	-9.5032
ting	-9.50346
▁campaign	-9.50464
▁science	-9.50464
▁democracy	-9.50471
▁interesting	-9.50707
▁general	-9.50716
▁O	-9.50841
▁positive	-9.50867
R	-9.50935
▁sold	-9.50939
ir	-9.50976
▁forth	-9.50978
▁recent	-9.51024
▁physical	-9.51036
▁located	-9.51385
▁treated	-9.51402
▁Those	-9.51409
▁reach	-9.51411
▁Trump	-9.51525
▁strength	-9.51583
▁servant	-9.51755
▁movement	-9.51794
▁customers	-9.51968
▁biggest	-9.51982
▁spread	-9.52004
▁sin	-9.52086
▁cases	-9.5209
▁supply	-9.52157
▁bus	-9.52311
▁directory	-9.52334
▁teams	-9.5277
▁decades	-9.52882
▁mountain	-9.5294
▁growing	-9.53159
▁studies	-9.53214
▁exists	-9.53232
▁self	-9.53251
▁settings	-9.53323
ry	-9.53378
de	-9.53519
▁apply	-9.53613
▁Japanese	-9.53696
▁effects	-9.53749
▁Jews	-9.53763
▁paper	-9.53791
▁clean	-9.53833
▁images	-9.54087
▁heaven	-9.5421
▁eye	-9.54259
▁King	-9.54272
▁removed	-9.54274
▁fish	-9.54332
▁March	-9.54335
▁numbers	-9.544
▁hold	-9.5452
▁season	-9.5471
▁rain	-9.54824
▁districts	-9.54895
▁connect	-9.55017
▁product	-9.55049
▁Development	-9.55091
▁details	-9.55192
▁solution	-9.55214
▁confirmed	-9.55287
▁tool	-9.553
▁web	-9.55367
▁Facebook	-9.55407
▁background	-9.55409
▁protect	-9.55439
▁lines	-9.55535
▁rural	-9.55565
ive	-9.55725
▁committed	-9.55726
▁usually	-9.56063
▁commanded	-9.56071
▁easily	-9.56202
▁programs	-9.56316
▁medical	-9.56375
9	-9.56394
▁Check	-9.56551
▁sun	-9.56582
un	-9.56613
▁appear	-9.5676
▁takes	-9.56916
▁terms	-9.56927
▁b	-9.57038
▁column	-9.57152
▁Failed	-9.57164
▁Life	-9.57196
▁May	-9.57361
▁lots	-9.57554
My	-9.57586
▁thousands	-9.57597
et	-9.57625
▁movies	-9.57809
▁agree	-9.57898
▁capacity	-9.57981
▁task	-9.5813
▁thoughts	-9.58142
▁ahead	-9.58162
▁itself	-9.58184
▁travel	-9.58516
▁culture	-9.58651
rs	-9.58711
ent	-9.58716
▁official	-9.58743
▁While	-9.58815
▁additional	-9.58938
▁effort	-9.58958
N	-9.5896
▁focus	-9.59009
▁completely	-9.5902
▁couple	-9.59312
▁driver	-9.59319
▁values	-9.59357
▁item	-9.59414
ni	-9.59492
If	-9.59785
▁wait	-9.59864
▁specific	-9.59948
▁banks	-9.6003
▁roads	-9.60047
▁ones	-9.60051
▁existing	-9.60224
▁daily	-9.60274
▁shows	-9.60296
▁design	-9.60351
▁speaking	-9.60376
▁26	-9.60439
▁board	-9.6059
at	-9.60634
ate	-9.60796
▁photo	-9.608
▁elections	-9.60836
▁walk	-9.60898
▁states	-9.60989
▁N	-9.6104
▁Edit	-9.61056
▁novel	-9.6112
▁Enable	-9.6128
▁Germany	-9.61307
▁officials	-9.61441
▁database	-9.61447
▁rise	-9.61751
▁leader	-9.6188
▁importance	-9.61954
▁response	-9.62001
▁agriculture	-9.62127
▁produced	-9.62353
▁sell	-9.6236
▁author	-9.62374
▁rich	-9.62598
▁Due	-9.62662
There	-9.62667
▁earlier	-9.62811
▁Bank	-9.62943
mi	-9.63105
▁dangerous	-9.63144
▁middle	-9.63484
▁delete	-9.63581
▁behold	-9.63586
▁fault	-9.63656
▁childhood	-9.63661
▁card	-9.63692
▁fully	-9.63832
▁agricultural	-9.63872
▁accident	-9.63894
▁exactly	-9.64014
▁link	-9.6425
▁ensure	-9.6425
▁internet	-9.6452
▁sitting	-9.64524
▁allow	-9.64605
▁girls	-9.64626
▁employment	-9.64728
▁management	-9.64891
▁July	-9.64914
▁23	-9.6501
▁export	-9.65042
▁trust	-9.65135
ling	-9.6519
▁Change	-9.65204
▁January	-9.65215
▁military	-9.6523
ce	-9.6523
▁raise	-9.65296
▁valid	-9.6538
▁priority	-9.65394
▁0	-9.65409
▁appropriate	-9.65567
▁Name	-9.65677
▁disciples	-9.65736
▁mine	-9.65786
▁answers	-9.65943
▁Of	-9.65952
▁co	-9.66179
▁memory	-9.66271
▁installed	-9.66322
um	-9.66351
▁map	-9.66507
ha	-9.66578
ak	-9.66602
▁Image	-9.66729
ted	-9.66745
▁goods	-9.66773
▁modern	-9.66797
▁soon	-9.66834
▁Move	-9.6684
▁employees	-9.66963
▁violence	-9.6699
▁boy	-9.67089
▁direction	-9.67098
▁conditions	-9.67135
▁signed	-9.6717
hi	-9.67181
▁/	-9.67189
▁jail	-9.67221
▁designed	-9.67278
▁international	-9.67284
▁thank	-9.67309
▁unknown	-9.67337
They	-9.67339
▁1.	-9.67365
▁click	-9.67375
▁believed	-9.67418
▁happening	-9.67447
▁request	-9.67694
▁doctors	-9.67851
▁Delete	-9.67901
▁suffering	-9.68147
▁remained	-9.68215
▁speed	-9.6825
▁accused	-9.68418
▁black	-9.68424
▁format	-9.68431
▁surprised	-9.68437
▁Each	-9.68596
▁finished	-9.68668
▁chief	-9.68771
▁lower	-9.68785
▁industries	-9.68952
▁sub	-9.68954
▁Seventh	-9.68961
▁desire	-9.68989
▁Such	-9.69326
▁none	-9.6934
▁feeling	-9.69346
sh	-9.69368
▁Jacob	-9.69511
▁phase	-9.69635
▁Or	-9.69667
▁staff	-9.6968
▁filled	-9.69743
▁paid	-9.69899
▁affect	-9.69923
▁lose	-9.70231
▁elected	-9.70324
▁helps	-9.70464
▁Africa	-9.70556
▁center	-9.70669
▁suffered	-9.70685
▁De	-9.70761
▁seek	-9.70835
▁highest	-9.70995
▁sister	-9.71122
▁April	-9.71152
▁launched	-9.71203
▁homes	-9.71367
▁primary	-9.71524
▁placed	-9.71563
▁goals	-9.71686
▁seeing	-9.71695
▁Prime	-9.7171
▁giving	-9.71748
ated	-9.71761
▁fine	-9.7179
di	-9.71832
▁instead	-9.71897
▁exist	-9.71945
▁offered	-9.72069
▁charge	-9.72169
▁feet	-9.72191
▁length	-9.72254
▁basic	-9.72268
▁tax	-9.72336
▁range	-9.72375
▁spirit	-9.7252
est	-9.72533
▁menu	-9.72574
▁watch	-9.7259
▁demand	-9.72769
▁equal	-9.72775
▁joy	-9.72789
▁continued	-9.72807
▁Did	-9.72945
▁sex	-9.72955
▁photos	-9.72994
▁policies	-9.73023
id	-9.73105
▁p	-9.73292
ia	-9.73337
▁hasn	-9.73376
▁achieve	-9.73486
▁materials	-9.73512
▁height	-9.73515
▁fields	-9.73657
▁Another	-9.73974
▁Behold	-9.73975
▁sad	-9.7412
▁fruit	-9.7423
▁talked	-9.74258
▁secret	-9.743
▁mountains	-9.74304
▁sight	-9.74381
▁More	-9.74439
▁understanding	-9.7445
▁session	-9.74557
▁happens	-9.74582
▁load	-9.74585
▁twenty	-9.74738
▁videos	-9.74757
▁concern	-9.74891
▁property	-9.74935
▁Well	-9.75085
▁fell	-9.75126
▁configuration	-9.75129
▁character	-9.75131
▁contains	-9.75209
▁enemies	-9.75316
▁kingdom	-9.75337
▁g	-9.75356
▁justice	-9.75526
▁begin	-9.75531
▁improved	-9.7564
▁discussed	-9.75765
▁60	-9.75781
▁accept	-9.75846
G	-9.75953
▁safety	-9.76105
F	-9.76115
▁statement	-9.76173
▁KDE	-9.76307
▁title	-9.76321
ies	-9.76388
▁pass	-9.76423
▁religion	-9.76516
▁door	-9.7665
▁extremely	-9.76684
▁weight	-9.76843
▁Iran	-9.76851
▁forever	-9.77013
is	-9.77018
▁27	-9.77029
▁planning	-9.77084
▁mail	-9.77196
▁entry	-9.77268
▁gift	-9.77309
▁industrial	-9.77349
▁morning	-9.77464
▁destroyed	-9.7756
▁kings	-9.77657
▁Internet	-9.77662
▁%2	-9.77683
▁List	-9.77703
ist	-9.7791
▁dad	-9.77924
▁Spirit	-9.78058
▁reduce	-9.78216
▁studied	-9.78257
▁legal	-9.78413
out	-9.78614
▁import	-9.78865
▁bread	-9.7902
▁status	-9.79255
▁experienced	-9.79306
▁prepare	-9.79343
less	-9.79482
ut	-9.7955
▁practice	-9.79646
▁distribution	-9.7966
▁cancer	-9.79661
▁sometimes	-9.79766
▁award	-9.79821
▁studying	-9.79876
ty	-9.79885
▁aren	-9.79917
▁mistake	-9.79935
▁toward	-9.79965
and	-9.80249
▁worth	-9.80258
▁Maybe	-9.80274
▁grow	-9.80354
▁Nepalese	-9.80481
▁towards	-9.80613
▁presented	-9.80869
▁sword	-9.80879
tic	-9.80929
nd	-9.80932
▁drinking	-9.81089
▁cell	-9.81172
▁formed	-9.81182
▁challenges	-9.81223
▁religious	-9.81288
▁Remove	-9.81314
▁Number	-9.8152
▁80	-9.81579
law	-9.81889
▁white	-9.81929
▁priests	-9.8201
▁Time	-9.82092
▁famous	-9.82112
the	-9.82126
But	-9.82147
▁Search	-9.82217
▁unable	-9.82353
▁minister	-9.82387
▁colors	-9.82394
O	-9.82432
day	-9.82489
▁citizens	-9.8263
▁creation	-9.82734
▁layer	-9.82776
▁stated	-9.82799
▁founded	-9.82857
▁objects	-9.82885
▁filter	-9.82955
▁persons	-9.83073
▁injured	-9.83151
ba	-9.83186
ya	-9.83305
▁poetry	-9.83364
▁base	-9.83437
▁survey	-9.83483
v	-9.83486
▁technical	-9.83532
▁virus	-9.83545
▁hit	-9.83584
co	-9.83672
line	-9.83676
ka	-9.83774
▁Co	-9.83778
▁arrived	-9.83811
▁!	-9.83878
me	-9.83881
▁recorded	-9.83951
▁majority	-9.84017
▁constructed	-9.84032
▁cookies	-9.84117
▁Similarly	-9.84207
ous	-9.84279
▁consider	-9.84351
▁associated	-9.84637
▁sources	-9.8464
▁break	-9.84648
00	-9.84673
▁worry	-9.84705
▁reports	-9.84804
▁probably	-9.84837
▁Saul	-9.84843
▁sleep	-9.84918
▁calendar	-9.8505
▁direct	-9.85138
▁damage	-9.85169
▁artist	-9.85179
▁limited	-9.85372
▁wouldn	-9.85396
▁House	-9.85478
▁Choose	-9.85492
▁store	-9.85572
▁perfect	-9.85641
▁prices	-9.85765
▁hurt	-9.85774
▁windows	-9.85791
▁enemy	-9.85905
▁average	-9.85906
▁brain	-9.85907
▁regard	-9.86022
one	-9.86108
▁Yet	-9.86201
▁solve	-9.86242
gu	-9.86296
▁happiness	-9.86336
▁century	-9.86363
▁American	-9.86508
▁irrigation	-9.86527
▁greatest	-9.86609
▁press	-9.86623
▁bit	-9.8673
▁administration	-9.86768
▁truly	-9.86768
▁Mumbai	-9.86769
▁assistance	-9.86771
▁implementation	-9.86775
sa	-9.86798
▁drive	-9.86861
▁starting	-9.86873
▁pregnant	-9.86985
▁credit	-9.86986
▁suitable	-9.86989
▁affects	-9.87254
▁Australia	-9.87372
▁London	-9.87421
▁cast	-9.87525
20	-9.87573
▁font	-9.87591
▁female	-9.87593
▁loved	-9.87838
▁flesh	-9.88077
▁Sixth	-9.88086
▁topic	-9.88121
ol	-9.88147
▁keys	-9.88199
▁judge	-9.88386
ca	-9.8841
ating	-9.88437
▁benefits	-9.88479
▁Parliament	-9.88512
▁thus	-9.88519
▁gods	-9.88684
▁compared	-9.8877
▁widely	-9.88775
▁opportunities	-9.88959
▁force	-9.88991
▁print	-9.89076
▁multiple	-9.89403
▁manager	-9.89412
▁eating	-9.89498
▁haven	-9.89559
▁potential	-9.89576
▁laid	-9.89628
▁limit	-9.89749
▁2.	-9.89791
▁tradition	-9.89798
▁church	-9.89823
▁laws	-9.89882
▁frame	-9.89924
▁perform	-9.90049
▁directly	-9.90124
And	-9.90221
▁software	-9.90297
▁announced	-9.9031
(	-9.90373
▁plant	-9.90374
▁View	-9.90387
▁beneficial	-9.90522
▁displayed	-9.90535
▁gate	-9.90589
▁Start	-9.91032
▁Ka	-9.91044
▁commercial	-9.91149
ga	-9.91183
▁standard	-9.9121
be	-9.91213
age	-9.91225
▁organizations	-9.91358
em	-9.91366
▁suicide	-9.91426
▁Spain	-9.91426
▁sexual	-9.91463
▁touch	-9.91628
▁French	-9.91653
▁visible	-9.91653
nt	-9.9167
▁Last	-9.91708
wa	-9.91731
pa	-9.91732
ary	-9.91733
▁enjoy	-9.91856
▁bill	-9.91865
▁carry	-9.92016
▁stone	-9.92051
▁radio	-9.92109
▁War	-9.92152
▁honor	-9.9221
▁directed	-9.92232
▁Ra	-9.92288
▁negative	-9.92355
▁sins	-9.92448
ful	-9.92527
▁tourism	-9.92799
▁June	-9.928
▁midst	-9.92805
▁La	-9.92808
▁planet	-9.92859
▁original	-9.93009
▁Delhi	-9.93028
▁alive	-9.93031
▁shut	-9.93031
▁contract	-9.9305
▁concerning	-9.93185
ized	-9.93265
▁crowd	-9.93375
▁nice	-9.93499
▁north	-9.93619
▁wise	-9.93647
▁Joseph	-9.93723
▁authority	-9.93736
▁levels	-9.93745
▁requested	-9.9387
▁deliver	-9.94041
▁35	-9.94128
va	-9.94178
▁remote	-9.94188
▁automatically	-9.94188
▁careful	-9.94194
▁shortage	-9.94203
▁Display	-9.94216
▁numerous	-9.94421
▁jobs	-9.94448
▁sheep	-9.94463
▁gathered	-9.94484
ge	-9.94498
▁round	-9.94507
▁October	-9.94655
▁bodies	-9.94655
▁revenue	-9.94655
▁sense	-9.94656
ac	-9.95093
▁decade	-9.95161
▁package	-9.95163
▁evening	-9.95261
▁tools	-9.9529
▁powerful	-9.95293
▁High	-9.95307
▁destroy	-9.95351
▁drug	-9.95405
▁icon	-9.95466
▁internal	-9.95549
▁tourists	-9.95553
▁wall	-9.95591
▁maximum	-9.95598
▁mouse	-9.95599
▁matches	-9.95652
▁examples	-9.95708
▁fast	-9.95711
▁follows	-9.95736
▁2016.	-9.95746
▁standing	-9.95853
▁expect	-9.95862
▁City	-9.95863
ki	-9.95874
▁sectors	-9.96009
▁facts	-9.96152
▁student	-9.96166
ish	-9.96301
▁worship	-9.96302
▁providing	-9.9631
▁theme	-9.96425
▁deleted	-9.96442
▁accepted	-9.96451
▁collection	-9.96563
▁sports	-9.96652
▁offices	-9.96727
▁proper	-9.96735
▁note	-9.96751
▁Ministry	-9.96788
▁older	-9.96905
▁draw	-9.96927
ism	-9.96982
▁Aaron	-9.97028
▁master	-9.9703
▁sat	-9.97198
▁activity	-9.97269
▁festival	-9.97332
K	-9.97364
▁separate	-9.97365
▁ended	-9.97381
▁beauty	-9.97509
▁impossible	-9.97509
▁appointed	-9.97527
ial	-9.97657
▁significant	-9.97701
▁USA	-9.97818
▁cars	-9.97916
▁nearly	-9.97925
▁preparing	-9.97993
▁leaving	-9.97993
▁remains	-9.98033
▁exchange	-9.9814
▁suffer	-9.98233
▁insurance	-9.98236
▁Print	-9.98289
▁star	-9.98383
▁setting	-9.98401
▁advice	-9.98479
▁series	-9.9848
▁depends	-9.9849
▁god	-9.98523
▁plugin	-9.98562
▁red	-9.98568
▁bar	-9.98584
▁banned	-9.98725
▁output	-9.98753
▁attempt	-9.98802
▁institutions	-9.98859
▁double	-9.98872
▁tab	-9.98884
ph	-9.99002
▁electricity	-9.99034
▁ability	-9.99064
▁visited	-9.99098
▁editor	-9.99254
▁act	-9.99272
▁enabled	-9.99279
▁Mo	-9.99285
▁altar	-9.99302
ke	-9.99356
▁seed	-9.99377
▁chosen	-9.99469
▁described	-9.99505
▁medicine	-9.99547
▁understood	-9.99705
▁desktop	-9.99737
▁staying	-9.99865
▁Na	-10.0004
ton	-10.0006
▁watching	-10.0012
▁illness	-10.0018
▁bottom	-10.0024
▁saving	-10.003
▁opinion	-10.003
▁Group	-10.0049
▁showed	-10.0053
▁camp	-10.0055
vi	-10.0056
▁train	-10.0062
For	-10.0066
tra	-10.0066
▁sick	-10.0069
▁August	-10.007
▁nearby	-10.0071
▁south	-10.0073
▁Project	-10.008
▁Import	-10.0081
▁pre	-10.0091
▁mental	-10.0091
▁script	-10.0093
▁concept	-10.0095
▁hidden	-10.0095
no	-10.0098
▁covered	-10.0105
▁purposes	-10.0112
▁duty	-10.012
▁loan	-10.0131
▁bear	-10.0135
▁St	-10.0138
▁31	-10.0139
▁produce	-10.0143
▁silver	-10.0145
▁Default	-10.0149
mo	-10.0149
▁pictures	-10.0162
▁LORD	-10.017
▁library	-10.017
▁choice	-10.0174
▁sing	-10.0175
go	-10.0182
▁charged	-10.0182
▁context	-10.0195
▁scared	-10.0196
▁broken	-10.0198
▁scheduled	-10.0198
▁stock	-10.0207
ine	-10.0235
▁participate	-10.0236
▁L	-10.0242
▁planned	-10.0247
W	-10.0249
▁sit	-10.0253
▁discussion	-10.0259
led	-10.0289
▁drop	-10.0296
▁television	-10.0296
da	-10.0297
▁reality	-10.0299
▁remembered	-10.0302
▁street	-10.031
▁diseases	-10.0315
▁evidence	-10.0322
▁wonderful	-10.0325
▁dis	-10.0347
▁pages	-10.0357
▁contain	-10.0374
▁regions	-10.0377
▁foot	-10.038
▁Make	-10.0391
▁struck	-10.0399
▁edit	-10.04
ant	-10.0423
ping	-10.043
▁failure	-10.044
▁Korea	-10.0446
▁Text	-10.045
po	-10.0451
▁former	-10.0457
▁3.	-10.0462
bi	-10.0463
▁transport	-10.0464
▁appeared	-10.0469
▁maintain	-10.047
▁J	-10.0475
▁reply	-10.0476
▁constitution	-10.0485
▁delivered	-10.0489
▁domestic	-10.0502
▁Nobody	-10.0507
▁45	-10.0517
▁cards	-10.052
▁ourselves	-10.0528
▁presence	-10.0528
▁feature	-10.0537
▁symptoms	-10.0548
▁"%1"	-10.0554
ize	-10.0555
U	-10.056
he	-10.0566
▁flight	-10.0571
▁York	-10.0581
▁download	-10.0583
▁villages	-10.0586
▁tested	-10.0607
▁wind	-10.0616
▁specify	-10.062
▁animal	-10.0624
▁Women	-10.0633
▁allows	-10.0649
▁aid	-10.0651
▁weakness	-10.0659
▁satisfied	-10.066
▁rather	-10.066
▁seem	-10.0665
lu	-10.0671
▁aged	-10.0676
▁cent	-10.0676
▁investigation	-10.0678
Who	-10.0679
▁developing	-10.0683
▁certainly	-10.0695
▁milk	-10.0712
▁expensive	-10.0715
▁protection	-10.0715
▁29	-10.0717
▁keeping	-10.0723
▁joined	-10.0724
▁causes	-10.0724
▁Does	-10.0735
▁string	-10.0738
▁amazing	-10.0739
▁easier	-10.0739
▁skin	-10.074
▁distance	-10.0741
▁wedding	-10.0743
▁sisters	-10.0743
▁structure	-10.0759
▁December	-10.0766
▁covenant	-10.0766
▁preview	-10.0766
j	-10.0771
▁professional	-10.0779
▁expression	-10.0786
▁minute	-10.0796
if	-10.0796
▁dwell	-10.0799
com	-10.0808
▁spot	-10.0812
▁vehicle	-10.0812
▁Un	-10.0813
▁household	-10.0814
▁Earth	-10.0819
▁twice	-10.0819
▁Court	-10.0819
▁browser	-10.0822
▁code	-10.0828
▁wine	-10.0829
▁performed	-10.0833
▁looks	-10.0846
▁creating	-10.0846
▁UK	-10.0848
ite	-10.0852
ci	-10.0867
▁figure	-10.0885
▁searching	-10.0886
▁signs	-10.0894
▁opposition	-10.09
▁checked	-10.0901
▁informed	-10.0906
▁host	-10.0924
▁section	-10.0926
▁Spanish	-10.0927
▁businesses	-10.0948
▁Folder	-10.0951
mp	-10.0952
▁TV	-10.0955
▁North	-10.0957
▁whatever	-10.0963
▁Dr	-10.0965
▁mistakes	-10.0972
How	-10.098
▁70	-10.1008
▁fought	-10.1009
▁central	-10.1009
▁clothes	-10.1019
▁copy	-10.1023
▁balance	-10.1027
▁row	-10.1028
▁burnt	-10.1031
▁although	-10.1036
▁fifth	-10.1036
▁hospitals	-10.1058
▁ship	-10.1063
▁wisdom	-10.1064
▁join	-10.108
▁firm	-10.1085
▁adopted	-10.1094
ap	-10.11
▁newspaper	-10.1115
▁cover	-10.1119
▁everybody	-10.1119
▁Type	-10.1125
▁Three	-10.1147
▁unique	-10.1147
pe	-10.1147
mon	-10.1153
▁ideas	-10.1154
▁channel	-10.1171
▁Export	-10.1175
▁sort	-10.1178
▁extended	-10.1181
son	-10.1198
▁objective	-10.1201
▁invalid	-10.1202
▁lord	-10.1202
▁Canada	-10.1203
▁translated	-10.1203
▁admitted	-10.1204
▁green	-10.1206
▁track	-10.1221
▁crime	-10.123
▁forced	-10.1243
▁decide	-10.1249
Y	-10.125
▁Sun	-10.1254
▁director	-10.1255
10	-10.1263
▁purchase	-10.1275
▁changing	-10.1286
▁profile	-10.1287
▁width	-10.1291
▁organized	-10.1293
▁traffic	-10.1314
▁cricket	-10.1314
▁fiscal	-10.1315
▁measures	-10.1317
▁H	-10.1319
▁declared	-10.1319
▁Ha	-10.1325
▁thanks	-10.133
▁runs	-10.1332
▁sites	-10.1337
▁permission	-10.1342
▁manpower	-10.1344
▁dance	-10.1346
▁grade	-10.1355
▁Copy	-10.1358
▁deaths	-10.1359
▁costs	-10.1359
▁tough	-10.1361
▁plays	-10.1367
▁regional	-10.1372
▁defined	-10.1375
▁increases	-10.1379
Do	-10.1388
▁Committee	-10.14
▁simply	-10.14
▁unit	-10.1406
▁log	-10.1413
▁participation	-10.1428
▁State	-10.1429
▁male	-10.1429
ites	-10.1442
▁struggle	-10.1447
▁dreams	-10.1452
▁spending	-10.1456
▁occasion	-10.1456
▁Just	-10.1461
▁learning	-10.1463
▁asking	-10.1465
▁Paris	-10.1466
▁cells	-10.1473
▁occur	-10.1485
▁faced	-10.1493
▁shooting	-10.1494
▁freedom	-10.1514
▁32	-10.1528
▁achieved	-10.1528
ig	-10.1531
▁wicked	-10.1537
50	-10.1539
▁humans	-10.1542
▁wilderness	-10.1543
▁conference	-10.1543
▁Under	-10.1554
▁prophets	-10.1567
▁assembly	-10.1572
▁variety	-10.1572
▁budget	-10.1572
▁applies	-10.1572
▁Key	-10.1575
▁portion	-10.1575
▁hide	-10.1576
▁fulfilled	-10.161
▁comments	-10.1622
▁focused	-10.1623
▁audio	-10.1628
▁external	-10.163
▁museum	-10.163
▁Health	-10.163
per	-10.1639
▁wide	-10.1641
▁ill	-10.1643
▁articles	-10.1655
ance	-10.1655
▁righteous	-10.1658
▁90	-10.1658
▁excited	-10.1659
▁yourselves	-10.1659
▁threat	-10.1659
▁Ne	-10.1664
▁scored	-10.1664
▁contents	-10.1687
▁terminal	-10.1688
▁Cup	-10.1692
▁fighting	-10.1694
▁suggestions	-10.1698
▁officers	-10.1708
▁anger	-10.171
▁glad	-10.1713
▁Solomon	-10.1718
▁manner	-10.1723
▁features	-10.1729
▁pieces	-10.1745
▁coffee	-10.1747
),	-10.1763
▁Sometimes	-10.1779
▁claimed	-10.1788
▁forget	-10.1791
▁regarding	-10.1794
▁crisis	-10.1806
▁performance	-10.1807
▁guilty	-10.1807
▁customer	-10.1815
▁fixed	-10.1816
▁Russian	-10.1818
▁methods	-10.1825
▁walked	-10.1826
▁scientific	-10.1835
▁individual	-10.1837
▁System	-10.1837
ana	-10.184
▁certificate	-10.184
▁highly	-10.1844
▁escape	-10.1856
▁El	-10.1856
Behold	-10.1865
▁becoming	-10.1866
▁hair	-10.1866
▁actions	-10.1873
▁root	-10.1877
▁stars	-10.1887
▁opening	-10.1887
▁doubt	-10.1889
▁Switch	-10.1895
▁vision	-10.1895
▁prophet	-10.1901
▁willing	-10.1904
▁reduced	-10.191
▁factors	-10.1914
▁Invalid	-10.1925
▁extension	-10.1925
▁speech	-10.1925
▁influence	-10.1946
▁Twitter	-10.1955
▁facility	-10.1955
▁prevent	-10.1965
▁hearing	-10.1973
▁W	-10.1975
▁Pharaoh	-10.1985
▁expansion	-10.1985
▁pretty	-10.1985
▁Children	-10.1985
▁Mother	-10.1986
.'"	-10.1997
▁camera	-10.2005
▁User	-10.2009
▁traditional	-10.2014
▁poverty	-10.2016
▁denied	-10.2016
▁poem	-10.2023
▁piece	-10.2023
▁Day	-10.2023
▁late	-10.2023
▁stored	-10.2029
▁agreed	-10.2033
▁labor	-10.2034
▁clients	-10.2034
▁separated	-10.2035
▁Sa	-10.204
▁equipment	-10.2046
▁righteousness	-10.2047
▁remaining	-10.2048
▁quickly	-10.2048
▁NOT	-10.2075
▁Configure	-10.2077
▁buildings	-10.2096
▁trees	-10.2103
▁comment	-10.2103
▁broke	-10.2104
▁earthquake	-10.2107
▁Water	-10.2107
ko	-10.2112
▁properly	-10.2113
▁Ja	-10.2115
ang	-10.2127
om	-10.2132
H	-10.2136
▁plants	-10.2143
for	-10.2151
▁starts	-10.216
▁possibility	-10.2168
▁operating	-10.2168
▁Local	-10.2168
▁alarm	-10.2177
▁finally	-10.2183
▁Mark	-10.2196
▁pleasure	-10.2199
▁Babylon	-10.2199
▁murder	-10.2201
▁missing	-10.2203
ver	-10.2206
▁realized	-10.2208
▁album	-10.2208
▁particular	-10.2225
▁surface	-10.223
▁secure	-10.2246
▁custom	-10.2248
▁succeed	-10.2249
▁characters	-10.2258
▁Public	-10.2261
▁species	-10.2261
▁danger	-10.227
▁bridge	-10.2271
▁ears	-10.2272
▁4.	-10.2272
▁ran	-10.2277
▁meant	-10.2279
os	-10.228
▁shares	-10.2288
▁Mar	-10.2291
▁owner	-10.2295
▁collected	-10.2299
▁participated	-10.2303
▁f	-10.2304
▁includes	-10.2319
▁Constitution	-10.2323
▁literature	-10.2323
▁mobile	-10.2323
▁markets	-10.2326
▁celebrated	-10.2326
▁revealed	-10.2328
▁Ro	-10.2351
▁sake	-10.2355
▁k	-10.238
▁Friday	-10.2385
▁Party	-10.2387
▁era	-10.2404
▁flow	-10.2412
▁elements	-10.242
▁Right	-10.2429
▁Message	-10.2431
che	-10.2442
▁promotion	-10.2446
▁folders	-10.2447
▁Brazil	-10.2447
▁leadership	-10.2449
▁fit	-10.2449
▁Find	-10.2453
▁crying	-10.2461
▁commandment	-10.2464
▁annual	-10.2475
▁fair	-10.2475
▁Commission	-10.248
▁caught	-10.248
▁bought	-10.248
▁plane	-10.2486
▁writes	-10.249
▁station	-10.2493
▁imported	-10.2498
ran	-10.25
▁silent	-10.2507
▁stages	-10.2509
ck	-10.2511
rd	-10.2512
▁respond	-10.2519
▁2015.	-10.2533
bu	-10.2534
▁lay	-10.2537
▁hate	-10.2542
▁complex	-10.2543
▁excellent	-10.2544
▁Which	-10.255
▁profit	-10.2559
▁material	-10.2561
▁feed	-10.2562
▁assist	-10.2563
▁Council	-10.2576
▁behavior	-10.2576
▁heavy	-10.2576
ji	-10.258
▁millions	-10.2586
ster	-10.259
▁singing	-10.2592
▁pick	-10.2601
▁issued	-10.2606
▁officer	-10.2607
▁sacrifice	-10.2612
ho	-10.2613
ai	-10.2615
cha	-10.2626
▁Ma	-10.2641
▁Ba	-10.2641
si	-10.2642
▁medium	-10.2643
▁kinds	-10.2652
▁decisions	-10.2653
▁See	-10.2657
▁km	-10.2658
▁2009.	-10.2659
▁experiences	-10.2666
▁seconds	-10.2667
▁helping	-10.267
▁dark	-10.2671
▁cried	-10.2672
▁begun	-10.2672
▁everywhere	-10.2673
▁showing	-10.2694
fi	-10.27
▁harm	-10.2703
▁Education	-10.2704
▁refused	-10.2708
▁pro	-10.2714
▁captain	-10.272
▁explain	-10.2728
▁German	-10.2734
▁Before	-10.2739
▁Union	-10.2739
▁rejected	-10.274
▁Data	-10.274
▁European	-10.2745
▁generation	-10.2753
▁Bar	-10.2754
▁2008.	-10.2767
No	-10.2771
▁inspired	-10.2772
▁citizen	-10.2786
▁review	-10.2791
▁princes	-10.2802
▁Google	-10.2802
▁requirements	-10.2803
▁farming	-10.2811
▁applications	-10.2812
▁Work	-10.2825
ally	-10.2831
▁beyond	-10.2835
▁rose	-10.2835
▁Good	-10.2836
▁becomes	-10.2845
red	-10.2853
▁mighty	-10.2859
▁clearly	-10.2861
▁meal	-10.2861
▁soil	-10.2866
▁moon	-10.2868
▁foundation	-10.2869
▁resource	-10.2886
▁handle	-10.2891
▁manage	-10.2896
▁valley	-10.2901
▁clipboard	-10.2901
▁Peter	-10.2903
term	-10.2906
That	-10.2907
▁lie	-10.291
ator	-10.2918
▁listed	-10.2919
▁Test	-10.2929
ja	-10.2932
▁Hospital	-10.2934
▁skills	-10.2945
▁communication	-10.2953
▁seventh	-10.2953
▁fill	-10.2956
▁park	-10.2966
▁Third	-10.2967
▁ancient	-10.2967
▁twelve	-10.2967
▁labour	-10.2967
ad	-10.2977
▁parliament	-10.3
▁February	-10.3001
▁September	-10.3001
▁minimum	-10.3001
▁Paul	-10.3007
▁cry	-10.3025
▁facing	-10.3034
V	-10.3037
▁objectives	-10.3037
▁awards	-10.3057
▁praise	-10.3058
▁interests	-10.3066
▁urban	-10.3067
▁infected	-10.3069
▁aim	-10.3073
▁classes	-10.3076
▁establish	-10.3078
▁pattern	-10.3088
▁multitude	-10.3088
▁Po	-10.3088
▁stress	-10.309
▁scale	-10.3098
▁Abraham	-10.3101
▁signature	-10.3101
▁telephone	-10.3101
▁managed	-10.3112
▁artists	-10.3114
▁Couldn	-10.3122
▁strike	-10.3123
▁Su	-10.3138
▁introduced	-10.3138
▁opposed	-10.3139
▁fix	-10.3155
▁judgment	-10.3156
time	-10.3164
▁prove	-10.3166
▁except	-10.3167
▁cooperation	-10.3169
▁Airport	-10.3169
▁Monday	-10.3169
▁waters	-10.3187
▁floor	-10.3191
▁boat	-10.3193
▁Mi	-10.3194
way	-10.3196
▁authorities	-10.3204
▁Though	-10.3205
▁ear	-10.3205
▁offerings	-10.3213
▁gas	-10.3221
▁conversation	-10.3225
ned	-10.323
▁fail	-10.3236
▁commission	-10.3237
▁dedicated	-10.3238
▁cultural	-10.3241
▁recommended	-10.3246
▁physically	-10.3248
▁boys	-10.3251
▁URL	-10.3271
▁extent	-10.3271
▁split	-10.3271
▁provides	-10.3286
▁Note	-10.3294
▁improvement	-10.3297
▁throne	-10.3306
▁200	-10.3306
▁approved	-10.331
▁warning	-10.331
▁shadow	-10.3312
▁ordered	-10.3315
▁traveled	-10.333
▁forces	-10.3333
▁civil	-10.334
▁tells	-10.3342
▁blessed	-10.3347
▁2020.	-10.3348
▁fat	-10.3349
▁acted	-10.3356
▁expenditure	-10.3364
▁flowers	-10.3366
▁Department	-10.3375
▁British	-10.3375
▁Filter	-10.3377
▁anywhere	-10.3377
▁patients	-10.3382
▁Khan	-10.3393
▁proposal	-10.3399
▁differences	-10.3412
▁heat	-10.3412
▁hill	-10.3414
▁helpful	-10.3417
▁require	-10.3424
ber	-10.3431
▁Jo	-10.3435
▁Bo	-10.3443
▁Ar	-10.3443
▁2017.	-10.3446
▁count	-10.3448
▁expressed	-10.3451
▁Ram	-10.3467
bar	-10.3472
▁temporary	-10.3479
▁soldiers	-10.3489
When	-10.349
▁expanded	-10.349
▁linked	-10.3502
▁enable	-10.3502
▁achievement	-10.3507
▁Armies	-10.3514
▁description	-10.3514
▁l	-10.3538
ru	-10.354
▁San	-10.3542
▁Second	-10.3544
▁packages	-10.3544
▁con	-10.3548
▁Server	-10.355
▁Sri	-10.3551
▁filename	-10.3553
▁appears	-10.3553
▁Photo	-10.3553
▁tests	-10.3555
▁testing	-10.3556
▁Line	-10.3563
▁east	-10.3563
▁shape	-10.3567
▁scheme	-10.3577
▁trouble	-10.3582
▁wealth	-10.3582
▁units	-10.3585
ten	-10.36
ee	-10.3604
▁walking	-10.3613
▁global	-10.3615
▁tasks	-10.3621
ag	-10.3623
▁grown	-10.3626
▁38	-10.3628
▁determined	-10.3632
▁letters	-10.3636
▁Levites	-10.3642
▁execute	-10.3646
▁experts	-10.3659
▁rupees	-10.3664
▁avoid	-10.3667
▁patient	-10.3685
▁via	-10.3687
▁England	-10.3692
▁thirty	-10.3692
▁Army	-10.3692
▁darkness	-10.3693
▁2012.	-10.3693
▁Perhaps	-10.3693
▁readers	-10.3695
▁initially	-10.3696
▁actor	-10.3701
▁links	-10.3713
ec	-10.3719
▁hearts	-10.3721
▁yes	-10.3723
▁funds	-10.3723
▁records	-10.3723
▁multi	-10.3728
▁wave	-10.3733
▁discuss	-10.3737
▁expand	-10.3739
▁dispute	-10.3748
▁seeds	-10.3754
▁scene	-10.3756
▁soccer	-10.3763
▁sought	-10.3766
▁gain	-10.3769
▁CD	-10.3771
han	-10.3777
ning	-10.378
▁calls	-10.3785
▁department	-10.3794
▁trading	-10.38
▁till	-10.38
▁ate	-10.3805
▁rid	-10.381
▁hated	-10.3815
▁7.	-10.3822
▁port	-10.3827
▁symbol	-10.3828
Where	-10.3849
ities	-10.385
ex	-10.385
▁V	-10.3853
▁drugs	-10.3865
▁fruits	-10.3871
▁confident	-10.3872
▁relevant	-10.3872
▁cold	-10.3875
les	-10.3893
▁operate	-10.39
▁West	-10.3901
▁seeking	-10.3903
▁Law	-10.3904
▁historical	-10.3906
▁Settings	-10.3906
▁receiving	-10.3909
▁ought	-10.3909
▁Draw	-10.3909
▁suspended	-10.391
▁finish	-10.3921
gi	-10.3923
▁Vi	-10.3923
▁seemed	-10.3928
▁identify	-10.3932
▁systems	-10.3934
ron	-10.3935
▁favor	-10.394
▁advantage	-10.3941
▁Everything	-10.3949
▁rare	-10.3949
▁encouraged	-10.3953
▁claim	-10.3953
▁Play	-10.3963
▁streets	-10.3963
▁loans	-10.3966
▁devices	-10.3971
▁2014.	-10.3971
▁surely	-10.3973
▁guard	-10.3978
▁identified	-10.3982
▁disk	-10.3985
ub	-10.3987
▁measure	-10.4005
▁complicated	-10.4019
▁forms	-10.4026
▁greatly	-10.4026
▁posts	-10.4029
▁witness	-10.4042
40	-10.4043
▁passengers	-10.4045
▁d	-10.4046
▁talks	-10.4051
▁element	-10.4052
▁General	-10.4054
▁proposed	-10.4057
▁alternative	-10.4058
▁rivers	-10.4058
30	-10.406
▁net	-10.4062
ner	-10.4078
In	-10.4086
▁hectares	-10.4087
▁consumer	-10.4092
▁index	-10.4092
▁destination	-10.4093
▁ministry	-10.4093
▁pandemic	-10.4093
▁Annas	-10.4093
▁retired	-10.4095
▁awareness	-10.4096
▁scientists	-10.4097
▁knowing	-10.4098
▁disabled	-10.4099
of	-10.4116
▁promote	-10.4121
▁Try	-10.4121
▁deep	-10.4121
▁notice	-10.4126
▁volume	-10.413
▁cash	-10.4131
▁'%1	-10.4132
▁wood	-10.4145
▁depend	-10.4152
▁tea	-10.4156
▁writers	-10.4165
▁tons	-10.4168
▁drawn	-10.4173
▁Nothing	-10.4176
▁1990	-10.4179
▁Philistines	-10.4182
nu	-10.4189
▁centre	-10.4194
▁selling	-10.4197
▁Look	-10.4204
▁wrath	-10.4206
▁particularly	-10.4212
▁fulfill	-10.4218
▁cross	-10.4219
we	-10.4229
▁determine	-10.4233
ach	-10.424
▁leading	-10.4242
▁feast	-10.4243
iv	-10.4245
ab	-10.4249
▁Si	-10.4254
side	-10.4258
ara	-10.426
▁heads	-10.4269
ical	-10.4281
▁capable	-10.4281
▁Toggle	-10.4282
▁Read	-10.4285
▁explained	-10.4294
▁hot	-10.4299
▁acting	-10.4302
▁install	-10.4304
ence	-10.4314
▁indeed	-10.432
▁undertaken	-10.432
▁Home	-10.4327
▁Am	-10.4328
men	-10.4345
▁relations	-10.4351
▁mainly	-10.4353
ization	-10.4354
▁injury	-10.4357
▁stuff	-10.4357
▁School	-10.4358
▁appearance	-10.4358
▁worldwide	-10.436
▁permissions	-10.4361
▁2013.	-10.4364
▁printer	-10.439
▁earn	-10.4391
▁Ni	-10.4394
▁Jordan	-10.4396
▁marry	-10.4396
▁provision	-10.4396
▁sweet	-10.4397
▁sale	-10.4399
▁panel	-10.44
▁2020	-10.443
▁Le	-10.4431
▁transfer	-10.4433
▁gradually	-10.4435
▁breast	-10.4436
▁charges	-10.4438
▁kindness	-10.4438
▁bound	-10.4442
▁Table	-10.4447
▁input	-10.446
▁crash	-10.4461
pi	-10.4462
dy	-10.4464
▁quiet	-10.4468
▁blue	-10.4473
▁urged	-10.4475
▁Would	-10.4475
▁partner	-10.4479
▁startup	-10.4481
▁requires	-10.4484
▁Con	-10.4495
▁fled	-10.451
▁aspects	-10.4511
▁Mexico	-10.4511
▁improving	-10.4511
▁vector	-10.4511
op	-10.4513
▁accounts	-10.4517
▁heavens	-10.4523
▁wear	-10.4527
ors	-10.4528
▁Dad	-10.4533
▁larger	-10.4536
▁rates	-10.4537
▁;	-10.4539
▁pixels	-10.4542
▁Sha	-10.4544
ot	-10.4548
▁worst	-10.455
▁commitment	-10.4551
▁unless	-10.4553
▁Once	-10.4554
▁Page	-10.4555
▁48	-10.4559
▁actual	-10.4559
▁exit	-10.4579
▁Get	-10.4584
▁inheritance	-10.459
▁Moreover	-10.459
▁fallen	-10.4593
▁Fourth	-10.4593
▁approach	-10.4601
▁o	-10.4608
▁arrangements	-10.4614
▁historic	-10.4628
▁Evolution	-10.4629
▁Kingdom	-10.4629
▁agencies	-10.4629
▁supposed	-10.463
▁engaged	-10.4632
▁Holy	-10.4634
▁angel	-10.4635
tal	-10.4646
▁en	-10.4647
▁Thanks	-10.4656
▁guide	-10.4662
▁Family	-10.4668
▁courage	-10.467
▁preparation	-10.4672
15	-10.4674
▁500	-10.4679
▁Will	-10.4684
▁poet	-10.4706
▁waste	-10.4707
▁seat	-10.471
▁mask	-10.4712
cu	-10.4724
▁Take	-10.4732
▁November	-10.4747
▁administrative	-10.4747
▁trend	-10.4747
▁angry	-10.4747
▁Isaiah	-10.4748
▁installation	-10.4749
▁garden	-10.4751
▁posted	-10.4757
▁implement	-10.4761
▁Send	-10.4765
▁dry	-10.4777
ped	-10.4786
▁audience	-10.4787
▁River	-10.4787
▁1980	-10.4789
▁birthday	-10.4789
▁mark	-10.479
▁overall	-10.4791
▁edge	-10.4793
▁officially	-10.4799
▁buttons	-10.4799
▁None	-10.4805
tan	-10.481
▁slow	-10.4817
▁Keep	-10.4818
▁Bangladesh	-10.4827
▁archive	-10.4827
▁loving	-10.4827
▁International	-10.4827
▁mid	-10.4828
▁lies	-10.4829
▁consumers	-10.483
by	-10.4844
▁bike	-10.4867
▁stones	-10.4867
▁Bible	-10.4868
con	-10.4869
▁tribe	-10.4883
ama	-10.4888
▁forty	-10.489
▁2011.	-10.4896
▁realize	-10.49
▁practical	-10.4903
▁block	-10.4904
▁36	-10.4906
▁uses	-10.4907
▁wives	-10.4908
cy	-10.4913
▁Service	-10.4914
▁lifted	-10.4916
▁unity	-10.4917
▁m	-10.492
▁conduct	-10.4921
▁reign	-10.4937
▁begins	-10.4944
▁Information	-10.4948
▁Joshua	-10.4948
▁iniquity	-10.4948
▁ongoing	-10.4957
16	-10.4959
▁west	-10.4965
▁Current	-10.4988
▁familiar	-10.4989
▁existence	-10.4989
▁login	-10.4995
▁tourist	-10.4996
▁platform	-10.4997
▁auto	-10.5001
▁purchased	-10.5002
ep	-10.5005
▁hadn	-10.501
▁initial	-10.5018
▁Ho	-10.5019
Go	-10.502
ow	-10.5028
▁sales	-10.5029
▁applied	-10.503
▁deficit	-10.503
▁identity	-10.503
▁race	-10.5034
▁Hindu	-10.5037
▁recognized	-10.5037
▁disc	-10.5038
au	-10.5047
ian	-10.5052
▁2007.	-10.5066
▁establishment	-10.5072
▁consumed	-10.5076
▁democratic	-10.5076
▁damaged	-10.5089
▁educational	-10.5101
▁elders	-10.5102
pur	-10.5103
▁mention	-10.5104
▁beings	-10.5106
▁Afghanistan	-10.5112
▁Tool	-10.5116
tion	-10.5123
sta	-10.5127
▁ages	-10.514
▁hoping	-10.5153
ng	-10.5153
▁views	-10.516
▁downloaded	-10.5171
▁challenging	-10.5194
▁properties	-10.5195
▁accomplished	-10.5203
▁argument	-10.5205
▁participants	-10.5215
▁operations	-10.5215
▁desired	-10.5216
ring	-10.5217
ham	-10.5218
▁watched	-10.522
▁quit	-10.5232
▁Desktop	-10.5236
▁statistics	-10.5236
▁grew	-10.5236
▁rising	-10.5236
▁Gu	-10.5244
▁layers	-10.5247
▁lifetime	-10.5251
▁murdered	-10.5252
▁farmer	-10.5253
▁enjoyed	-10.5257
▁fans	-10.5258
▁Li	-10.5262
25	-10.5263
▁medicines	-10.5263
▁Four	-10.5275
▁Address	-10.5278
▁University	-10.5278
▁Caiaphas	-10.5278
▁Saudi	-10.5278
▁Allow	-10.5285
end	-10.5287
▁brand	-10.5289
▁Mom	-10.5291
▁launch	-10.5295
sha	-10.5298
tri	-10.5299
▁reward	-10.5309
▁rooms	-10.5317
▁prime	-10.532
▁digital	-10.532
▁aircraft	-10.532
▁respectively	-10.5322
▁disappointed	-10.5322
▁vote	-10.5322
▁owned	-10.5334
▁Pro	-10.5336
▁individuals	-10.5356
▁stable	-10.5363
▁2010.	-10.5367
▁offers	-10.5369
▁gather	-10.538
land	-10.5381
Now	-10.5389
▁flower	-10.5391
▁route	-10.5403
▁perhaps	-10.5405
▁temperature	-10.5405
ns	-10.5408
▁Remember	-10.5413
▁exercise	-10.5418
▁printed	-10.5427
▁burden	-10.5447
▁Close	-10.5447
▁Oh	-10.545
▁burn	-10.5454
ud	-10.5456
▁originally	-10.5457
▁conflict	-10.5461
▁parent	-10.5461
▁metric	-10.5465
▁savings	-10.5473
▁calling	-10.5476
▁Car	-10.5479
▁false	-10.5485
▁teeth	-10.549
▁victory	-10.549
▁harmful	-10.5493
▁reform	-10.5493
▁proof	-10.5499
use	-10.5507
▁successfully	-10.5517
▁Air	-10.5521
▁37	-10.5521
▁illegal	-10.5528
du	-10.5531
▁prior	-10.5531
▁dust	-10.5538
▁regularly	-10.5548
▁Ca	-10.5565
▁replace	-10.5566
▁pure	-10.5575
▁Saturday	-10.5576
▁pride	-10.5576
▁league	-10.5578
▁factory	-10.558
based	-10.5605
shi	-10.5615
▁sheet	-10.5616
▁competitive	-10.5619
▁cycle	-10.5619
▁Date	-10.5623
▁confidence	-10.5625
▁registered	-10.5625
▁blame	-10.5625
▁maintained	-10.564
▁totally	-10.5647
▁News	-10.5648
▁sp	-10.566
▁Buddha	-10.5663
▁keyboard	-10.5664
▁documents	-10.5676
▁client	-10.5679
▁expecting	-10.5687
▁origin	-10.5702
▁chairman	-10.5707
▁Human	-10.5708
▁whenever	-10.5715
▁inhabitants	-10.572
▁machine	-10.5723
▁locations	-10.5731
▁ex	-10.5738
ju	-10.5747
▁Malaysia	-10.575
▁Prasad	-10.575
▁fifty	-10.575
▁Press	-10.5751
▁detailed	-10.5757
▁Book	-10.5758
▁eaten	-10.576
▁painful	-10.5761
▁proved	-10.5762
▁gained	-10.5764
▁Ri	-10.5767
▁ark	-10.5768
▁weren	-10.5772
ding	-10.5784
▁gets	-10.5788
▁strategy	-10.5794
▁Left	-10.5794
▁attended	-10.5804
▁dependent	-10.5804
und	-10.5812
▁trained	-10.5815
▁factor	-10.5822
▁Out	-10.5826
▁Ga	-10.5827
▁resolve	-10.5829
▁unto	-10.5829
▁towns	-10.5831
▁weapons	-10.5833
▁maintenance	-10.5838
▁pollution	-10.5838
▁salvation	-10.5838
▁East	-10.5839
ari	-10.584
▁8.	-10.5851
▁feelings	-10.5852
▁kid	-10.5859
▁loading	-10.5869
▁explosion	-10.5883
▁plenty	-10.5883
▁Terai	-10.5883
▁Unknown	-10.5883
▁sentenced	-10.589
▁influenced	-10.5897
▁Auto	-10.5903
▁anti	-10.5926
▁Music	-10.5927
▁worse	-10.5927
▁Italy	-10.5928
▁Later	-10.5929
▁completion	-10.593
▁institution	-10.5933
▁obtained	-10.5934
▁reader	-10.5936
▁template	-10.5947
▁Di	-10.5948
▁info	-10.5948
▁rock	-10.5953
▁poems	-10.5962
▁District	-10.5972
od	-10.5974
▁unclean	-10.5974
▁hills	-10.5976
▁ha	-10.5977
▁Apply	-10.5979
▁39	-10.5981
▁solutions	-10.5982
▁entering	-10.5991
▁shoot	-10.6004
▁council	-10.6017
▁livestock	-10.6017
▁Besides	-10.6017
▁Dubai	-10.6017
▁Disable	-10.6018
▁controlled	-10.602
▁upper	-10.6036
▁vaccine	-10.6039
▁alcohol	-10.6063
▁consumption	-10.6063
▁widget	-10.6063
▁Greek	-10.6063
fa	-10.6067
▁telling	-10.6069
▁journalist	-10.6087
14	-10.6096
▁Clear	-10.6108
▁nobody	-10.6108
qui	-10.6121
ie	-10.6122
So	-10.6123
▁2015	-10.6126
▁province	-10.6131
que	-10.6135
▁encourage	-10.6143
▁risks	-10.615
▁branch	-10.6151
Don	-10.6153
▁privacy	-10.6154
▁ordinary	-10.6154
▁crops	-10.6158
▁clothing	-10.6162
▁teaches	-10.6163
▁loves	-10.6178
▁listening	-10.6199
▁BBC	-10.62
▁YouTube	-10.62
▁unclear	-10.62
mail	-10.6202
▁corruption	-10.6204
▁operated	-10.6212
▁equally	-10.6212
▁wishes	-10.6213
▁Game	-10.6224
▁cup	-10.6227
▁decline	-10.6237
▁severe	-10.6241
▁fuel	-10.6246
▁guess	-10.6246
▁currency	-10.6246
▁pleasant	-10.6246
▁module	-10.6246
▁2018.	-10.6247
▁Raj	-10.6253
▁educated	-10.6255
vo	-10.6256
▁vehicles	-10.6258
▁Shah	-10.6264
▁Je	-10.6277
▁viewed	-10.628
▁delay	-10.6281
▁royal	-10.6291
file	-10.6292
▁disaster	-10.6292
pl	-10.6297
▁appreciated	-10.6298
▁inter	-10.6307
▁cubits	-10.6313
▁IPL	-10.6317
▁belongs	-10.6324
▁luck	-10.6335
▁Nor	-10.6338
▁Several	-10.6339
▁atmosphere	-10.6339
▁drag	-10.6339
▁claims	-10.6344
▁Hide	-10.6349
▁clubs	-10.6353
▁Inc	-10.6357
▁update	-10.6359
▁onto	-10.6362
▁Asian	-10.6364
▁bore	-10.638
▁actress	-10.6383
▁commit	-10.6383
▁pi	-10.6384
▁cursor	-10.6385
▁Insert	-10.6385
▁winning	-10.6387
▁iron	-10.6388
▁witnesses	-10.6389
▁About	-10.6389
▁lips	-10.6395
▁saints	-10.6405
▁Program	-10.641
▁tongue	-10.6412
▁sport	-10.6413
iah	-10.6414
▁33	-10.6426
▁horses	-10.6432
▁Central	-10.6432
▁Ex	-10.6433
▁2016	-10.6455
80	-10.6466
▁comfort	-10.6467
▁singer	-10.6469
▁Research	-10.6478
▁wild	-10.6479
▁constantly	-10.6484
ard	-10.6496
ram	-10.6502
▁34	-10.6502
▁awarded	-10.6506
▁division	-10.6507
▁component	-10.6507
▁ID	-10.6511
▁confirm	-10.6514
▁Lanka	-10.6527
▁Center	-10.6527
▁extra	-10.6527
▁mission	-10.6529
▁Size	-10.653
▁lucky	-10.653
▁Al	-10.6533
ok	-10.6534
▁critical	-10.6535
hu	-10.6555
▁sixth	-10.6555
ung	-10.6557
▁grain	-10.6563
▁appeal	-10.6563
▁interview	-10.6563
▁warm	-10.6574
▁Singapore	-10.6574
▁debt	-10.6574
▁allocated	-10.6576
▁Like	-10.6579
▁dig	-10.6579
har	-10.658
▁neighbor	-10.659
▁ma	-10.66
point	-10.6608
▁Window	-10.6608
▁Jeremiah	-10.6622
▁lady	-10.6623
▁consent	-10.6623
▁Apart	-10.6626
▁Ko	-10.6638
▁Files	-10.6654
▁errors	-10.6655
▁counsel	-10.6656
▁prayer	-10.6657
ure	-10.6664
▁fly	-10.6667
▁summer	-10.6671
▁Source	-10.6673
▁apart	-10.6674
▁distributed	-10.6674
lic	-10.6675
▁collect	-10.6675
▁secondary	-10.6678
▁burned	-10.6683
ise	-10.6692
▁electric	-10.6693
▁chemical	-10.6701
▁acts	-10.6701
▁Region	-10.6716
▁closely	-10.6717
▁buried	-10.6719
▁modified	-10.6723
▁percentage	-10.6724
gra	-10.6738
▁Mode	-10.6739
▁leads	-10.6743
▁debate	-10.6758
▁evaluation	-10.6767
▁Sunday	-10.6768
▁2008	-10.6774
▁supporting	-10.6787
▁foreigners	-10.679
▁contribution	-10.6799
▁Word	-10.6799
▁imports	-10.6801
▁Options	-10.6802
Let	-10.6808
▁holding	-10.6808
▁environmental	-10.6809
ea	-10.6813
▁moves	-10.6814
▁Video	-10.6816
▁Board	-10.6816
▁promised	-10.6825
▁engine	-10.6826
J	-10.6829
cor	-10.6831
17	-10.6833
bo	-10.6835
▁independent	-10.684
▁spiritual	-10.6841
▁railway	-10.6849
▁wash	-10.6849
▁lawyer	-10.6849
▁strengthen	-10.6849
ium	-10.685
▁Load	-10.6852
▁ban	-10.6862
▁GNOME	-10.6865
▁controversy	-10.6865
▁amazed	-10.6865
▁mercy	-10.6865
▁White	-10.6865
▁lying	-10.6867
▁End	-10.6867
▁efficient	-10.6871
▁mixed	-10.6872
lin	-10.6873
▁cr	-10.6882
der	-10.6885
▁sufficient	-10.6891
▁42	-10.6897
▁Office	-10.6913
▁Control	-10.6914
▁communities	-10.6914
▁precious	-10.6914
▁terrified	-10.6914
▁Mu	-10.6917
▁Currently	-10.692
▁mostly	-10.6921
ble	-10.6932
▁responded	-10.6932
▁ours	-10.694
ix	-10.6949
▁clicking	-10.6951
▁recognize	-10.6954
▁Run	-10.6959
ath	-10.696
▁analysis	-10.6964
▁lakh	-10.6964
▁lifestyle	-10.6967
▁75	-10.6981
▁joint	-10.6985
mer	-10.6985
▁label	-10.6988
▁score	-10.6989
▁loaded	-10.6993
▁Any	-10.6996
▁degree	-10.7004
▁constant	-10.7009
▁sh	-10.701
ual	-10.7013
▁Mount	-10.7013
▁2006.	-10.7016
▁settled	-10.7018
▁Next	-10.7024
▁locked	-10.7024
▁Hence	-10.7027
▁sending	-10.7027
▁attend	-10.7038
▁describe	-10.7039
▁notes	-10.7042
▁apps	-10.7046
▁victims	-10.7049
▁stick	-10.706
▁Chief	-10.7064
▁Font	-10.7064
ina	-10.7066
▁wherever	-10.7074
▁pit	-10.7085
▁carrying	-10.7096
▁pen	-10.7098
▁corner	-10.7101
▁communicate	-10.7104
io	-10.711
▁administrator	-10.7114
▁Exchange	-10.7114
▁attractive	-10.7114
▁centres	-10.7116
11	-10.7116
▁churches	-10.712
ash	-10.7128
▁oldest	-10.7129
▁farm	-10.713
gan	-10.7131
▁depending	-10.7131
▁pray	-10.7135
▁maybe	-10.7135
▁flag	-10.7147
▁toolbar	-10.7152
tro	-10.7152
▁Galilee	-10.7164
▁circle	-10.7164
▁coronavirus	-10.7164
▁inspiration	-10.7164
▁bomb	-10.7164
▁thread	-10.7164
▁dropped	-10.7165
▁branches	-10.7167
ther	-10.7169
ali	-10.7172
▁birds	-10.7173
▁arise	-10.7175
ever	-10.7177
ship	-10.7179
▁peaceful	-10.7183
All	-10.7184
▁Pre	-10.7187
▁protected	-10.7203
▁listened	-10.7208
▁Association	-10.7215
▁exciting	-10.7215
▁Act	-10.7215
▁Everybody	-10.7222
▁otherwise	-10.7224
▁correctly	-10.7232
▁western	-10.7234
▁speaks	-10.7249
ins	-10.7249
▁v	-10.7251
▁commands	-10.7251
▁highway	-10.7258
ny	-10.7263
ability	-10.7266
▁Finally	-10.7268
▁Meeting	-10.7268
▁invited	-10.7269
▁exception	-10.7271
▁golden	-10.7271
▁solar	-10.7275
▁sum	-10.7277
so	-10.7279
▁Give	-10.7286
▁extend	-10.7293
▁rejoice	-10.7308
▁Has	-10.7308
▁organisations	-10.7313
▁attacked	-10.7314
gen	-10.7315
▁Ju	-10.7316
▁Corporation	-10.7317
▁entries	-10.7317
▁welfare	-10.7317
▁flee	-10.7318
▁Money	-10.7318
▁whoever	-10.7336
▁Cha	-10.734
▁Selection	-10.7346
▁po	-10.7357
▁welcome	-10.7359
aka	-10.7361
▁mass	-10.7367
▁Foreign	-10.7369
▁agency	-10.7369
▁referred	-10.7369
▁Free	-10.737
▁attracted	-10.7379
▁Sea	-10.7402
▁Ad	-10.7408
▁cloud	-10.741
▁trial	-10.7411
▁investors	-10.7411
▁Services	-10.7412
▁driving	-10.7421
▁grace	-10.7421
▁initiated	-10.7422
▁anymore	-10.7423
▁ball	-10.7429
▁unusual	-10.7433
▁Se	-10.7437
eg	-10.7444
▁Arabia	-10.7445
port	-10.7448
▁enhance	-10.7462
▁truck	-10.7462
▁returns	-10.7469
▁injuries	-10.7473
▁integrated	-10.7474
▁advised	-10.7476
▁healed	-10.7479
▁marked	-10.7488
▁brings	-10.749
▁raw	-10.7492
▁Pa	-10.7493
--	-10.7507
▁coach	-10.7514
▁functions	-10.752
▁immediate	-10.752
▁Again	-10.7524
▁Red	-10.7525
▁Krishna	-10.7525
▁definition	-10.7525
▁lockdown	-10.7525
000	-10.7529
▁gates	-10.7529
▁intended	-10.753
▁square	-10.7531
▁discovered	-10.7531
▁pe	-10.7534
▁departed	-10.7534
av	-10.7548
▁meat	-10.7549
▁journalists	-10.7552
▁personally	-10.756
▁Men	-10.7564
back	-10.7568
▁winner	-10.757
▁Global	-10.7578
▁ladder	-10.7578
▁opposite	-10.7578
▁ease	-10.7578
▁vital	-10.7578
▁Screen	-10.7582
▁circumstances	-10.7587
ration	-10.7588
▁sharing	-10.7588
ile	-10.759
▁vi	-10.76
▁exports	-10.7605
▁drawing	-10.7607
▁repair	-10.7619
▁YOU	-10.7623
▁Construct	-10.7629
tive	-10.7629
▁custody	-10.7631
▁modify	-10.7631
▁appointment	-10.7631
▁friendship	-10.7632
▁succeeded	-10.765
▁entirely	-10.7652
▁solved	-10.7654
▁promise	-10.7666
▁inform	-10.7675
▁holiday	-10.7676
▁panchayat	-10.7676
▁fired	-10.7683
▁revolution	-10.7683
▁Benjamin	-10.7684
▁Network	-10.7684
▁Sabbath	-10.7684
▁climate	-10.7684
▁Among	-10.7684
▁chat	-10.7686
▁transportation	-10.7686
▁super	-10.7688
▁Pokhara	-10.7688
▁killing	-10.7689
izing	-10.7695
▁smoke	-10.7717
▁accomplish	-10.7725
▁shop	-10.773
▁blind	-10.7736
▁finance	-10.7737
▁Moab	-10.7738
▁merely	-10.7738
▁Port	-10.7738
▁layout	-10.7738
▁Command	-10.7744
▁targets	-10.7748
▁hero	-10.7767
▁Singh	-10.7771
▁Love	-10.7783
ide	-10.7784
▁friendly	-10.7787
▁Koirala	-10.7791
▁anybody	-10.7791
▁entitled	-10.7791
▁yoga	-10.7791
▁postponed	-10.7793
▁Hope	-10.7797
king	-10.7798
type	-10.7798
den	-10.7799
▁lock	-10.7808
▁printing	-10.7823
oc	-10.7838
▁Doctors	-10.7838
▁chapter	-10.7839
▁relief	-10.7845
▁shortcut	-10.7846
▁suddenly	-10.7847
▁la	-10.7847
▁Object	-10.7849
▁somewhere	-10.785
▁Someone	-10.7852
▁moments	-10.7864
▁Bi	-10.7866
▁effectively	-10.7867
▁honour	-10.7888
▁Format	-10.7899
▁Ephraim	-10.79
▁destruction	-10.79
▁silence	-10.79
▁arose	-10.79
▁eighth	-10.7904
list	-10.7905
▁suggested	-10.7906
▁edition	-10.7907
▁Ti	-10.7907
▁bug	-10.7909
▁generally	-10.7917
ists	-10.7918
▁2009	-10.7924
▁vessels	-10.7928
▁subjects	-10.7934
nce	-10.794
▁obey	-10.7943
▁Was	-10.7948
▁crop	-10.795
▁Company	-10.7954
▁Samuel	-10.7954
▁sorrow	-10.7954
▁duration	-10.7954
▁generated	-10.7962
▁earned	-10.7971
▁Bha	-10.7989
she	-10.7993
▁Special	-10.8009
▁Hindi	-10.8009
▁undergoing	-10.8012
▁serving	-10.8014
▁frames	-10.8015
▁Tent	-10.8025
▁visitors	-10.8034
▁attempted	-10.8035
▁adults	-10.805
name	-10.806
▁Various	-10.8064
▁storage	-10.8064
▁tournament	-10.8064
▁Replace	-10.8065
▁differ	-10.8069
▁fellow	-10.8069
▁offline	-10.8071
▁commandments	-10.8098
az	-10.8106
▁angels	-10.8115
▁Tab	-10.8117
▁infection	-10.8117
ory	-10.8119
▁Soviet	-10.812
▁eternal	-10.812
▁diet	-10.8123
▁feels	-10.8125
▁attached	-10.8125
▁matters	-10.8131
▁sections	-10.8132
▁researchers	-10.8133
▁Ya	-10.8138
ions	-10.8153
▁lift	-10.8164
▁arrest	-10.8164
▁zone	-10.8173
▁testimony	-10.8176
▁university	-10.8176
▁yield	-10.8176
▁dying	-10.8176
▁Over	-10.8177
▁residents	-10.8178
▁300	-10.8178
▁permanently	-10.8181
▁Web	-10.8189
▁Va	-10.8197
▁inner	-10.8203
▁generations	-10.8204
As	-10.8208
▁processing	-10.8224
▁ends	-10.8225
▁Schools	-10.8231
responsibilities	-10.8232
▁Assembly	-10.8232
▁examination	-10.8232
▁opt	-10.8232
▁Muslim	-10.8235
▁Tri	-10.8266
▁di	-10.8275
▁configure	-10.8279
▁borders	-10.828
ue	-10.8284
▁concerns	-10.8284
▁Science	-10.8288
▁eventually	-10.8288
▁pregnancy	-10.8288
▁requirement	-10.8289
▁Dan	-10.8295
▁advanced	-10.8297
▁painting	-10.8298
-19	-10.83
▁switch	-10.832
ip	-10.8331
▁cure	-10.834
▁guy	-10.8345
▁emphasis	-10.8345
▁protocol	-10.8345
▁Automatically	-10.8345
▁rice	-10.8345
▁definitely	-10.8346
▁Ask	-10.8347
▁herself	-10.8348
tar	-10.835
▁worthy	-10.8354
",	-10.8362
▁Noah	-10.8367
▁Shiva	-10.8376
▁chances	-10.8379
▁demanded	-10.838
ick	-10.8389
▁tribes	-10.8393
▁smaller	-10.8398
▁Ge	-10.8401
▁executive	-10.8402
▁storm	-10.8402
▁chest	-10.8402
▁Republic	-10.8402
▁prince	-10.8403
▁FY	-10.8404
▁Da	-10.8406
▁winter	-10.8407
▁tour	-10.8407
▁difficulties	-10.8407
▁payment	-10.8408
▁Western	-10.8411
▁horse	-10.8416
▁signal	-10.8417
rate	-10.8418
ible	-10.8419
▁Ta	-10.842
bit	-10.842
▁aspect	-10.8421
▁usage	-10.8434
ay	-10.8441
▁marketing	-10.8444
▁curse	-10.8451
▁Har	-10.8451
▁Bahadur	-10.846
▁Configuration	-10.846
▁Kashmir	-10.846
▁senior	-10.846
▁neck	-10.846
▁accordance	-10.846
▁submitted	-10.846
▁catch	-10.8462
▁tower	-10.8463
▁columns	-10.8464
▁Training	-10.8465
▁bringing	-10.8467
▁foods	-10.847
like	-10.8472
▁noticed	-10.8475
▁banking	-10.8486
▁formal	-10.8489
▁treat	-10.8489
▁construct	-10.8491
▁relatives	-10.8492
▁wa	-10.8494
▁bless	-10.8495
18	-10.8508
▁permanent	-10.8513
▁strange	-10.8514
▁rulers	-10.8516
She	-10.8517
▁smart	-10.8518
▁Despite	-10.8518
▁domain	-10.8518
▁productivity	-10.8518
▁theatre	-10.8519
▁Connection	-10.852
▁picked	-10.8538
▁ra	-10.8546
▁exported	-10.8556
▁license	-10.8566
▁contribute	-10.8566
ces	-10.8567
▁reaching	-10.8568
▁meters	-10.8571
▁Background	-10.8576
▁interface	-10.8576
▁Convert	-10.8576
▁belief	-10.8578
▁instance	-10.8578
▁Job	-10.8579
fer	-10.858
▁prize	-10.8582
▁humanity	-10.8585
▁breath	-10.8585
▁150	-10.8587
▁younger	-10.8591
▁Lu	-10.8619
▁recommend	-10.8622
▁Agriculture	-10.8634
▁Earlier	-10.8634
▁detained	-10.8634
▁zero	-10.8634
▁calm	-10.8634
▁cache	-10.8635
▁determines	-10.8636
▁criminal	-10.8637
van	-10.864
▁workspace	-10.8644
▁Rana	-10.8681
▁sa	-10.8684
▁Level	-10.8693
▁palace	-10.8693
▁coordination	-10.8693
▁vary	-10.8694
▁latest	-10.8696
▁Hu	-10.87
▁canceled	-10.8704
▁centers	-10.8707
▁beat	-10.8718
ft	-10.8719
all	-10.8723
▁bookmarks	-10.8734
▁skill	-10.8736
▁stands	-10.8737
▁compete	-10.8752
▁Possible	-10.8752
▁congregation	-10.8752
▁famine	-10.8752
▁Great	-10.8752
▁bathroom	-10.8752
▁citizenship	-10.8753
▁discharged	-10.8755
▁delighted	-10.8761
▁granted	-10.8762
▁leaves	-10.8766
▁backup	-10.8769
▁regarded	-10.8784
▁laugh	-10.8786
▁enjoying	-10.8787
▁2000.	-10.879
▁flood	-10.8792
▁Selected	-10.8793
cal	-10.8798
▁sentence	-10.8807
▁Communist	-10.8812
▁Secretary	-10.8812
▁Yoga	-10.8815
▁employee	-10.8817
▁organisation	-10.8817
▁shocked	-10.8819
▁updated	-10.8824
▁stream	-10.8826
▁reigned	-10.8829
▁ruler	-10.8833
▁ratio	-10.8851
▁consists	-10.886
▁expenses	-10.8868
▁Specify	-10.8872
▁initiative	-10.8872
▁reliable	-10.8872
▁sanctuary	-10.8872
▁motor	-10.8872
▁plain	-10.8872
▁comfortable	-10.8873
▁versions	-10.8876
▁shame	-10.8878
▁Editor	-10.888
uc	-10.8889
▁2000	-10.8891
▁fee	-10.8893
▁Up	-10.8894
▁pane	-10.8908
▁occurs	-10.8931
▁dictionary	-10.8932
▁universe	-10.8932
▁Daniel	-10.8932
▁gap	-10.8933
▁toilet	-10.8934
tric	-10.8944
▁attacks	-10.8945
▁union	-10.8951
60	-10.8964
gg	-10.897
▁9.	-10.8974
off	-10.8975
▁Social	-10.899
▁2012	-10.8992
▁Wednesday	-10.8993
▁Width	-10.8993
▁overseas	-10.8993
▁stroke	-10.8993
▁testify	-10.8993
ans	-10.8996
▁scattered	-10.8997
▁personality	-10.9
▁weapon	-10.9
▁dealt	-10.9
▁reaction	-10.9001
▁contributed	-10.9002
▁institutional	-10.9003
▁express	-10.9027
▁shortly	-10.9031
▁Pe	-10.9035
▁abuse	-10.9044
▁Barcelona	-10.9054
▁struggling	-10.9054
▁tomorrow	-10.9054
▁beloved	-10.9054
▁northern	-10.9054
▁Elijah	-10.9054
▁Database	-10.9054
▁surrounding	-10.9057
▁flat	-10.9067
▁flying	-10.907
ral	-10.9084
▁editing	-10.9085
):	-10.909
▁bull	-10.909
▁r	-10.9097
chi	-10.9101
▁attract	-10.9104
▁Te	-10.9105
▁2013	-10.9106
▁fund	-10.9109
▁bow	-10.9113
▁Cisco	-10.9115
▁overwrite	-10.9115
▁somebody	-10.9115
▁boost	-10.9115
▁Layer	-10.9115
▁announcement	-10.9115
▁44	-10.9119
▁Black	-10.9122
▁newspapers	-10.9123
kar	-10.9126
▁parse	-10.9126
▁mentally	-10.9127
▁phases	-10.913
▁pa	-10.9135
▁ideal	-10.9136
ious	-10.9142
ey	-10.9144
las	-10.9146
▁Lo	-10.9148
▁invest	-10.9149
▁advance	-10.9166
▁Path	-10.9169
▁smooth	-10.9172
▁tag	-10.9175
▁Meanwhile	-10.9177
▁creative	-10.9177
▁replied	-10.9177
▁womb	-10.9177
▁losing	-10.9177
▁Valley	-10.9177
▁Otherwise	-10.9177
▁consciousness	-10.9177
aj	-10.9181
▁recovered	-10.9184
▁African	-10.9191
▁relation	-10.9193
▁praised	-10.9194
▁difficulty	-10.9206
▁Site	-10.9216
▁Kim	-10.9224
work	-10.9228
not	-10.9229
box	-10.9229
▁applicable	-10.9239
▁cinema	-10.9239
▁matrix	-10.9239
▁Majesty	-10.9239
▁Hopefully	-10.9239
▁exact	-10.924
▁Construction	-10.9241
▁consideration	-10.9242
▁Five	-10.9243
▁profession	-10.9257
cc	-10.9258
▁seriously	-10.9263
▁handled	-10.9266
:18	-10.9267
log	-10.9271
▁Event	-10.9278
▁convert	-10.9282
▁En	-10.9286
▁Reset	-10.9289
▁magazine	-10.9301
▁participating	-10.9301
▁query	-10.9301
▁trash	-10.9301
▁Food	-10.9301
▁Light	-10.9302
level	-10.9303
▁100%	-10.9306
hy	-10.9311
▁infrastructure	-10.9312
▁cooperative	-10.9312
pha	-10.9313
▁everyday	-10.9315
▁Pi	-10.9316
set	-10.9316
▁Sub	-10.9322
lar	-10.933
▁owners	-10.9331
▁statutes	-10.9336
lam	-10.934
45	-10.9342
light	-10.935
▁walls	-10.9353
▁restore	-10.9356
▁terror	-10.9356
▁heading	-10.936
▁hundreds	-10.9361
▁gradient	-10.9364
▁1988	-10.9365
▁backward	-10.9367
▁taxes	-10.9373
▁medication	-10.9376
▁resolved	-10.9378
▁sensitive	-10.9378
ight	-10.9379
▁noise	-10.9387
▁Shi	-10.9389
▁NO	-10.9394
her	-10.9396
▁Apple	-10.9398
▁believes	-10.9402
▁reforms	-10.9406
▁possess	-10.9414
▁icons	-10.9417
▁generate	-10.9425
▁Hezekiah	-10.9427
▁Manasseh	-10.9427
▁stomach	-10.9427
▁mystery	-10.9427
▁pace	-10.9428
▁Rename	-10.9429
▁firstborn	-10.9434
▁observed	-10.9436
▁2007	-10.9436
▁monitoring	-10.9439
▁declined	-10.944
▁paths	-10.9444
▁doors	-10.9449
our	-10.9459
▁finding	-10.9461
▁arms	-10.9468
▁thanked	-10.9474
▁Kar	-10.9479
▁quick	-10.9486
▁Y	-10.9486
▁fees	-10.9486
▁seats	-10.9487
pt	-10.9487
▁Being	-10.9487
▁provisions	-10.949
▁fool	-10.9491
▁grid	-10.9492
▁arrive	-10.9495
▁Che	-10.9502
▁blow	-10.9503
▁pair	-10.9505
▁imp	-10.951
▁improvements	-10.9512
▁wearing	-10.9513
▁flights	-10.9514
▁%1.	-10.9527
rea	-10.9542
▁ruled	-10.9542
ens	-10.9545
▁declare	-10.9546
▁surprise	-10.9546
▁proceed	-10.9555
kin	-10.9555
▁category	-10.9555
▁occurrence	-10.9555
▁disable	-10.9563
▁bed	-10.9579
ler	-10.9597
90	-10.9601
To	-10.9603
▁therein	-10.9606
▁cancel	-10.9608
▁Fa	-10.961
▁bright	-10.962
▁Maximum	-10.962
▁Still	-10.962
▁encoding	-10.962
▁frightened	-10.962
▁principal	-10.962
▁raising	-10.962
dia	-10.9623
▁arranged	-10.9623
▁Neither	-10.9626
▁Following	-10.9627
▁restored	-10.9629
▁Eli	-10.9632
▁Ham	-10.9634
▁colour	-10.9635
▁Tell	-10.9636
▁longest	-10.9638
▁expanding	-10.9643
▁47	-10.9647
▁Com	-10.9647
▁Iraq	-10.967
▁publish	-10.9672
Co	-10.9673
▁header	-10.9682
▁broad	-10.9683
▁ruling	-10.9685
▁Isaac	-10.9685
▁Gandhi	-10.9685
▁brush	-10.9685
▁Sharma	-10.9685
▁transferred	-10.9685
▁vast	-10.9685
▁Corp	-10.9687
mar	-10.9687
▁tied	-10.9688
▁rescued	-10.9694
▁Land	-10.9694
▁rows	-10.9696
▁welcomed	-10.9697
▁proven	-10.97
▁Year	-10.9701
▁ride	-10.971
▁touched	-10.9718
▁band	-10.9721
uk	-10.9725
▁considering	-10.9725
▁Others	-10.9726
▁headed	-10.9729
▁arguments	-10.9734
▁Force	-10.9747
▁Centre	-10.975
▁plot	-10.975
▁Latin	-10.975
▁Trade	-10.975
▁tired	-10.9752
▁acquired	-10.9755
▁zoom	-10.9755
▁Always	-10.9755
▁memo	-10.9757
70	-10.9765
▁strengthened	-10.9765
kh	-10.9766
▁nurse	-10.9766
▁translation	-10.9767
▁procedure	-10.9767
▁worker	-10.9768
ani	-10.9773
▁repeat	-10.9804
▁plague	-10.9806
▁compare	-10.9806
▁lion	-10.9814
▁Custom	-10.9814
▁pipe	-10.9815
▁Contact	-10.9816
▁Account	-10.9816
▁ro	-10.9816
▁1991	-10.9816
▁James	-10.9816
▁Panchayat	-10.9817
▁1970	-10.9818
▁cave	-10.9827
▁converted	-10.9828
▁dealing	-10.9829
▁miracle	-10.9833
▁adult	-10.9833
ze	-10.9837
▁angle	-10.9842
▁Player	-10.9842
▁mum	-10.9844
let	-10.9851
par	-10.9853
▁votes	-10.9863
val	-10.9864
▁protecting	-10.9871
▁dancing	-10.9882
▁investigating	-10.9882
▁quantity	-10.9882
▁summit	-10.9882
▁Luke	-10.9884
▁productive	-10.9885
ered	-10.9888
▁Should	-10.9889
▁warned	-10.9891
▁shots	-10.9891
▁delivery	-10.9891
▁achievements	-10.9899
▁returning	-10.9899
▁variable	-10.99
chan	-10.9902
▁conducting	-10.9904
▁`'	-10.992
ris	-10.9929
▁authors	-10.9929
▁tape	-10.9933
▁learnt	-10.9935
▁partners	-10.9946
▁Assyria	-10.9949
▁adequate	-10.9949
▁convenient	-10.9949
▁significance	-10.9949
▁sugar	-10.9949
▁draft	-10.9949
▁2018	-10.995
▁encryption	-10.995
▁conscious	-10.9955
▁underway	-10.9955
ug	-10.9958
▁define	-10.9958
▁topics	-10.9962
▁dog	-10.9964
▁pitch	-10.9967
▁victim	-10.9968
ula	-10.997
▁65	-10.9982
▁containing	-10.9983
:12	-10.9983
▁bridges	-10.9995
▁visiting	-11
▁Sal	-11.0001
▁Olympics	-11.0003
▁mis	-11.0005
ita	-11.0006
▁Pu	-11.0008
cent	-11.0011
▁thick	-11.0015
▁loud	-11.0016
▁Modi	-11.0016
▁taste	-11.0017
▁secretary	-11.0018
▁lest	-11.0018
▁Biratnagar	-11.0019
ale	-11.002
▁Link	-11.002
▁Warning	-11.0022
▁dear	-11.0022
▁matching	-11.0029
▁carefully	-11.0031
23	-11.0039
▁bookmark	-11.0039
▁contacted	-11.0039
su	-11.0045
▁connections	-11.0047
▁honored	-11.005
sen	-11.0071
▁divide	-11.0073
▁rescue	-11.0074
▁Institute	-11.0083
▁Policy	-11.0083
▁Turkey	-11.0083
▁cottage	-11.0083
▁feasibility	-11.0083
▁yesterday	-11.0083
▁intention	-11.0085
▁rename	-11.0085
▁surrounded	-11.0087
▁hanging	-11.0089
bal	-11.0099
▁degrees	-11.0104
▁besides	-11.0104
nes	-11.0113
▁belong	-11.0115
ura	-11.0122
▁Wa	-11.0127
▁gifts	-11.0137
nath	-11.0143
▁respected	-11.0144
vis	-11.0147
▁adding	-11.015
▁Savior	-11.0151
▁bicycle	-11.0151
▁collaboration	-11.0151
▁combination	-11.0151
▁oxygen	-11.0151
▁History	-11.0151
▁queen	-11.0151
▁fresh	-11.0151
▁cancelled	-11.0152
▁Joab	-11.0152
▁efficiency	-11.0157
▁weaknesses	-11.0158
▁tent	-11.0161
ify	-11.0166
kha	-11.0166
ush	-11.018
▁Point	-11.0187
▁meetings	-11.0187
ala	-11.0195
▁Connect	-11.0217
▁1989/90	-11.022
▁Language	-11.022
▁Sorry	-11.022
▁closing	-11.022
▁entrance	-11.022
▁housing	-11.022
▁clip	-11.0221
▁impressed	-11.0221
▁1960	-11.0222
▁locally	-11.0225
▁vertical	-11.0226
▁highlighted	-11.0229
uff	-11.0231
▁configured	-11.0236
▁12.	-11.0237
za	-11.0238
bra	-11.0244
▁bag	-11.0252
▁idols	-11.0255
▁reporters	-11.0255
▁cat	-11.0271
▁ho	-11.0272
▁appreciate	-11.0279
▁schedule	-11.0279
▁observe	-11.0279
▁masks	-11.0281
qua	-11.0286
▁faces	-11.0289
▁Konqueror	-11.0289
▁Shrestha	-11.0289
▁diagram	-11.0289
▁relating	-11.0289
▁personnel	-11.0289
▁Title	-11.0289
▁Ammon	-11.029
▁wickedness	-11.0291
▁EU	-11.0292
▁relatively	-11.0293
▁faithful	-11.0297
▁grant	-11.0302
▁flock	-11.0313
▁stronger	-11.032
▁shouldn	-11.0328
▁arm	-11.034
ably	-11.0341
▁depart	-11.0346
mm	-11.0346
ray	-11.0348
▁insert	-11.0348
▁Bu	-11.0353
▁spaces	-11.0353
▁obvious	-11.0353
▁protest	-11.0357
▁Film	-11.0358
▁mutual	-11.0358
▁necessity	-11.0358
▁slain	-11.0358
▁Ignore	-11.0358
ward	-11.0359
▁composed	-11.036
▁miles	-11.0363
▁garments	-11.0368
related	-11.0368
ice	-11.0371
▁detail	-11.0372
35	-11.0376
▁46	-11.0381
▁arrangement	-11.0384
▁contained	-11.0389
bha	-11.0398
▁quarter	-11.0399
▁engineer	-11.0399
net	-11.0407
▁connecting	-11.0417
mal	-11.0418
▁buying	-11.042
▁bones	-11.0421
▁falling	-11.0421
▁targeted	-11.0423
▁Application	-11.0428
▁College	-11.0428
▁Taliban	-11.0428
▁comparison	-11.0428
▁random	-11.0428
▁Class	-11.0428
▁Canaan	-11.0428
▁salt	-11.0428
▁gross	-11.0429
▁sinned	-11.043
▁trailer	-11.0435
▁72	-11.044
▁orders	-11.0444
▁reference	-11.0445
▁commented	-11.0455
▁producer	-11.0463
lan	-11.0465
▁Mon	-11.0474
right	-11.0479
▁island	-11.0483
▁traveling	-11.0485
down	-11.049
▁networks	-11.0491
▁moral	-11.0494
▁GIMP	-11.0499
▁Gilead	-11.0499
▁Tourism	-11.0499
▁emergency	-11.0499
▁resolution	-11.0499
▁siblings	-11.0499
▁permitted	-11.0499
▁1989	-11.0499
▁acid	-11.0499
▁Come	-11.0504
▁followers	-11.0512
▁soft	-11.0513
Our	-11.0513
ps	-11.0519
▁escaped	-11.0521
▁2011	-11.0523
five	-11.0523
▁motorcycle	-11.0525
▁Document	-11.0525
▁whereas	-11.0536
Your	-11.0539
▁Tr	-11.0549
▁airports	-11.0552
▁reveal	-11.0558
▁gun	-11.0563
▁earnings	-11.0568
▁wheat	-11.057
▁brass	-11.057
▁Esau	-11.057
▁honey	-11.057
▁snow	-11.057
▁Eighth	-11.057
▁transparent	-11.0575
▁Baal	-11.0581
Today	-11.0582
gram	-11.0585
▁continues	-11.0585
▁courts	-11.0586
▁Mail	-11.0597
▁phrase	-11.0597
▁possession	-11.0599
▁Log	-11.062
▁suit	-11.0623
▁2005.	-11.0624
ised	-11.0636
▁Finance	-11.0641
▁Samaria	-11.0641
▁Tokyo	-11.0641
▁continuing	-11.0641
▁ocean	-11.0641
▁utilization	-11.0641
▁divine	-11.0641
▁Email	-11.0643
▁standards	-11.0644
ika	-11.0652
▁anyway	-11.0662
▁delayed	-11.0663
ek	-11.0663
row	-11.0663
▁burning	-11.0663
▁cookie	-11.067
RR	-11.0678
ded	-11.0688
▁monitor	-11.0688
▁politically	-11.0693
▁Egyptians	-11.0694
▁afterwards	-11.07
▁websites	-11.0703
▁Myanmar	-11.0713
▁fundamental	-11.0713
▁nuclear	-11.0713
▁straight	-11.0713
▁criticism	-11.0713
▁crew	-11.0713
▁surgery	-11.0713
▁subsequently	-11.0715
▁Sets	-11.0719
▁repeated	-11.0721
ob	-11.0725
ries	-11.0726
▁Ki	-11.0727
▁holds	-11.0732
▁governments	-11.0742
ain	-11.0743
og	-11.0743
▁bond	-11.0743
▁naturally	-11.0744
ov	-11.0745
▁blessing	-11.0759
▁discipline	-11.0779
▁keeps	-11.0785
▁Sikkim	-11.0785
▁centuries	-11.0785
▁communist	-11.0785
▁curve	-11.0785
▁federal	-11.0785
▁invitation	-11.0785
▁reducing	-11.0785
▁retrieve	-11.0785
▁sorry	-11.0785
▁roof	-11.0786
▁travelled	-11.0787
▁bo	-11.0788
75	-11.079
▁disclosed	-11.0792
▁attraction	-11.0793
▁App	-11.0807
▁deposit	-11.0818
▁52	-11.0819
▁worshiped	-11.082
▁existed	-11.083
wi	-11.0835
▁waited	-11.0836
-1	-11.0848
▁noted	-11.0857
▁Script	-11.0858
▁deceased	-11.0858
▁grateful	-11.0858
▁plastic	-11.0858
▁salary	-11.0858
▁supplied	-11.0858
▁terrible	-11.0858
▁Update	-11.0859
▁formulated	-11.0862
▁representatives	-11.0866
▁defeated	-11.087
▁Philip	-11.087
sp	-11.0874
▁models	-11.0879
▁relative	-11.0886
▁Part	-11.0887
▁attempts	-11.0907
ava	-11.0908
▁throw	-11.0915
▁novels	-11.0917
▁tips	-11.092
▁defeat	-11.092
▁shift	-11.092
▁folks	-11.0921
▁honest	-11.0924
▁mo	-11.0924
▁perish	-11.0925
▁Access	-11.0932
▁League	-11.0932
▁Thousands	-11.0932
▁execution	-11.0932
▁fashion	-11.0932
▁harvest	-11.0932
▁proxy	-11.0932
▁alpha	-11.0932
▁cooperate	-11.0932
▁continually	-11.0934
▁comply	-11.0936
▁Field	-11.0937
▁1950	-11.0937
▁reminded	-11.0941
▁shifted	-11.0943
▁putting	-11.0946
ley	-11.0949
▁Voices	-11.0966
▁Media	-11.0972
▁actively	-11.0984
▁Sign	-11.0987
ik	-11.0989
▁Download	-11.0993
iya	-11.0998
▁sounds	-11.1003
▁Remote	-11.1006
▁incense	-11.1006
▁ALL	-11.1006
uch	-11.1006
▁mailbox	-11.1007
▁devoted	-11.1008
▁Mat	-11.1009
▁Nepalgunj	-11.1009
Come	-11.1022
▁attribute	-11.1031
47	-11.1032
▁16.	-11.1035
▁Mary	-11.1036
▁Beth	-11.1039
▁principle	-11.104
▁defend	-11.1044
▁2019.	-11.1052
▁planted	-11.1056
top	-11.1058
▁colleges	-11.1059
▁broadcast	-11.1067
24	-11.1074
▁sequence	-11.1081
▁tabernacle	-11.1081
▁refund	-11.1081
▁1996	-11.1082
▁wonder	-11.1084
▁techniques	-11.1084
ified	-11.1086
▁thou	-11.1087
▁limits	-11.1088
▁channels	-11.1089
▁complaint	-11.109
▁paying	-11.1095
▁employed	-11.1097
ction	-11.1098
▁households	-11.11
▁footballer	-11.1103
▁tenth	-11.1105
▁riding	-11.1108
▁competitions	-11.1115
▁vessel	-11.1116
▁numbered	-11.1123
▁preferences	-11.1123
▁depth	-11.1124
▁obtain	-11.1131
▁Know	-11.1143
▁benefited	-11.1147
▁2010	-11.1154
▁Supreme	-11.1156
▁capabilities	-11.1156
▁Power	-11.1156
▁tomb	-11.1156
▁Profile	-11.1156
▁prosperity	-11.1156
▁dating	-11.1158
only	-11.116
▁encrypted	-11.1163
▁fan	-11.1164
▁decreased	-11.1165
▁annually	-11.1168
▁waves	-11.1169
ib	-11.1172
ff	-11.1172
▁featured	-11.1183
esh	-11.1185
▁casino	-11.1192
▁tissue	-11.1192
▁lesson	-11.1205
▁expectations	-11.1206
ax	-11.121
▁55	-11.1215
▁corrupt	-11.1218
▁computers	-11.1221
▁den	-11.1222
▁shed	-11.1231
▁Jonathan	-11.1232
▁concrete	-11.1232
▁Judea	-11.1232
▁innocent	-11.1232
▁compassion	-11.1232
▁dollars	-11.1232
▁Eight	-11.1232
▁elderly	-11.1234
▁2017	-11.1237
▁addressed	-11.1239
▁hotels	-11.1242
▁Help	-11.1243
▁represent	-11.1243
▁Sort	-11.1243
▁locals	-11.1251
gar	-11.1257
▁contacts	-11.1258
▁Reading	-11.1258
▁Para	-11.126
▁rod	-11.1273
▁bonds	-11.1276
run	-11.1293
▁consume	-11.1295
19	-11.1295
▁Bollywood	-11.1308
▁absence	-11.1308
▁iPhone	-11.1308
▁threw	-11.1308
▁Location	-11.1308
▁Preview	-11.1314
▁solid	-11.1316
▁punished	-11.1317
▁43	-11.1322
▁executed	-11.1328
▁phones	-11.1329
▁blocked	-11.133
duct	-11.1334
▁emotional	-11.1345
well	-11.1352
▁trusted	-11.1358
ev	-11.1365
21	-11.1368
▁publication	-11.1368
:5	-11.1371
▁guarantee	-11.1375
ger	-11.1383
▁chair	-11.1384
▁Necessary	-11.1385
▁despite	-11.1385
▁Chairman	-11.1385
▁Task	-11.1385
▁Super	-11.1386
▁Frame	-11.1389
▁pan	-11.1392
▁poured	-11.1395
▁winners	-11.1398
▁Pharisees	-11.14
▁implementing	-11.141
▁components	-11.1417
▁deeds	-11.1417
▁covering	-11.1422
▁maintaining	-11.1424
▁asks	-11.1425
▁arc	-11.143
▁cloth	-11.1431
▁dress	-11.1438
▁customs	-11.1439
▁agent	-11.144
RE	-11.1449
▁titles	-11.1451
▁Report	-11.1451
▁u	-11.1458
▁Agricultural	-11.1462
▁Temple	-11.1462
▁Tuesday	-11.1462
▁association	-11.1462
▁categories	-11.1462
▁saddened	-11.1462
▁grass	-11.1462
▁Trash	-11.1463
▁Full	-11.1463
▁Programme	-11.1463
▁Rotate	-11.1463
▁exhibition	-11.1466
▁enjoyable	-11.1467
▁blank	-11.1473
▁2:	-11.1476
▁behalf	-11.1477
governmental	-11.1482
▁Ben	-11.1482
▁photographs	-11.1483
ged	-11.1494
▁resist	-11.1496
qu	-11.1496
ians	-11.1499
▁situations	-11.1503
▁lasted	-11.1506
32	-11.1512
▁chose	-11.1537
▁400	-11.1538
▁hopes	-11.154
▁surprising	-11.154
▁verify	-11.154
▁advertising	-11.1541
▁interval	-11.1541
▁1987	-11.1541
▁confirmation	-11.1543
▁Manager	-11.1544
▁Setup	-11.1547
LR	-11.1548
▁favorite	-11.1548
▁HTML	-11.1548
Re	-11.1551
▁hospitalized	-11.1552
▁replaced	-11.1558
▁crown	-11.1561
▁nose	-11.1566
These	-11.1567
yo	-11.1568
zer	-11.1571
▁richest	-11.1574
▁aside	-11.1574
▁Kan	-11.1576
▁Games	-11.1579
my	-11.1579
dan	-11.1582
▁restrictions	-11.1588
▁1:	-11.1592
nan	-11.1601
▁refuge	-11.1613
▁Far	-11.1613
▁drivers	-11.1615
▁Syria	-11.1616
▁arrival	-11.1619
▁conservation	-11.1619
▁defense	-11.1619
▁evident	-11.1619
▁Adjust	-11.1619
▁causing	-11.1619
▁Management	-11.162
▁criticized	-11.1621
▁Recently	-11.1622
▁utilized	-11.1626
▁wounded	-11.1627
▁captured	-11.1627
ER	-11.1629
▁losses	-11.1633
▁fonts	-11.1637
▁outer	-11.1653
▁spring	-11.1663
▁tweet	-11.1687
▁register	-11.1687
▁preserve	-11.1689
place	-11.1693
▁strict	-11.1694
ily	-11.1698
▁2004.	-11.1699
▁Radio	-11.1699
▁Internal	-11.1699
▁stolen	-11.1699
ification	-11.17
▁Never	-11.1701
▁Initially	-11.1702
▁producing	-11.1703
▁imposed	-11.1705
▁Bill	-11.1705
▁Wi	-11.1706
oom	-11.171
▁spin	-11.1718
▁2014	-11.1723
▁Stop	-11.1723
▁witnessed	-11.1723
▁requests	-11.1726
▁Du	-11.173
▁2019	-11.1732
ks	-11.1742
▁sample	-11.1744
over	-11.1746
med	-11.1747
▁hurting	-11.1748
▁youths	-11.1756
bin	-11.1761
▁journal	-11.1773
▁Album	-11.1779
▁Channel	-11.1779
▁attitude	-11.1779
▁crucial	-11.1779
▁palette	-11.1779
▁prostitute	-11.1779
▁spoil	-11.1779
▁Password	-11.1779
▁Something	-11.1779
▁native	-11.1779
▁Muslims	-11.1781
▁repeatedly	-11.1784
▁symbols	-11.1791
ada	-11.1793
view	-11.1796
13	-11.1796
▁papers	-11.1802
ong	-11.1809
▁reflect	-11.181
▁ministers	-11.1818
▁shell	-11.1822
▁sacrifices	-11.1824
▁candidate	-11.1825
▁colleagues	-11.183
▁filed	-11.1837
▁mix	-11.1848
▁restart	-11.1849
▁pursue	-11.185
▁celebrate	-11.185
▁relationships	-11.1853
▁withdraw	-11.1853
▁sessions	-11.1855
▁occasions	-11.1859
▁Afghan	-11.1859
▁Security	-11.1859
▁approximately	-11.1859
▁swore	-11.1859
▁Director	-11.186
▁bigger	-11.1862
▁Certificate	-11.1862
▁lowest	-11.1864
▁imagined	-11.1865
▁driven	-11.1872
▁Ph	-11.1873
▁voted	-11.1877
;)	-11.1878
▁Ch	-11.1878
▁postal	-11.1881
▁sets	-11.1885
Yes	-11.1889
▁neighbors	-11.1891
▁Mal	-11.1896
▁decrease	-11.1897
▁estimate	-11.1897
▁performing	-11.1907
▁arrow	-11.1907
▁stations	-11.1908
▁Ku	-11.1917
▁reduces	-11.1918
ero	-11.1922
▁Dh	-11.1923
▁survive	-11.1931
▁Seven	-11.1938
▁inherit	-11.194
▁Sweden	-11.1941
▁explanation	-11.1941
▁density	-11.1941
▁Philippines	-11.1941
▁Having	-11.1941
▁excessive	-11.1941
▁Plugin	-11.1941
▁convinced	-11.1943
▁receives	-11.1945
tes	-11.1946
rac	-11.1946
▁Gad	-11.1948
▁wealthy	-11.1948
▁pilot	-11.1949
▁Bad	-11.1955
▁invested	-11.1956
▁parameters	-11.1956
Lord	-11.1963
▁counted	-11.1967
war	-11.1971
hor	-11.1974
ric	-11.1977
pp	-11.1978
▁Changes	-11.1983
▁meals	-11.1986
▁hoped	-11.1986
dha	-11.1993
▁Write	-11.1995
lum	-11.1995
▁plugins	-11.1997
▁instruments	-11.2004
▁chariots	-11.201
▁pillars	-11.2011
▁extensive	-11.2018
▁Chennai	-11.2022
▁Organization	-11.2022
▁ceremony	-11.2022
▁helicopter	-11.2022
▁heritage	-11.2022
▁organs	-11.2023
▁grand	-11.2023
▁ownership	-11.2023
▁Rome	-11.2024
ane	-11.2025
▁flu	-11.2025
▁Bhaktapur	-11.2026
▁comp	-11.2029
▁tracks	-11.2029
▁ignored	-11.203
▁Hi	-11.2033
▁roles	-11.2033
▁firms	-11.2034
▁Menu	-11.2036
▁theater	-11.2036
era	-11.2038
▁skilled	-11.2038
▁promoted	-11.2043
▁Americans	-11.2048
ren	-11.2053
▁filters	-11.206
▁segment	-11.2073
▁widow	-11.2073
▁refer	-11.2077
▁temples	-11.2078
▁highlight	-11.2084
▁delight	-11.2089
▁bars	-11.2096
▁sharp	-11.2097
▁accurate	-11.21
▁liquid	-11.2104
▁Template	-11.2105
▁captivity	-11.2105
▁worries	-11.2105
▁blast	-11.2105
▁cattle	-11.2105
▁motion	-11.2105
▁Paper	-11.2106
▁encamped	-11.2108
▁ruined	-11.2113
▁wanting	-11.2114
▁deeply	-11.2116
▁minds	-11.2131
▁corporations	-11.2135
▁processes	-11.2152
▁closer	-11.2157
▁demons	-11.2161
▁41	-11.2171
▁Adam	-11.2175
▁impacted	-11.2182
tha	-11.2186
▁Birgunj	-11.2188
▁Nazareth	-11.2188
▁primarily	-11.2188
▁suburbs	-11.2188
▁smile	-11.2189
▁hungry	-11.2189
▁partition	-11.2191
▁Actually	-11.2191
▁Long	-11.2192
▁youngest	-11.2198
100	-11.2204
▁liked	-11.2204
▁desires	-11.2212
:1	-11.2216
how	-11.2223
▁Area	-11.2229
▁discussions	-11.2231
▁Per	-11.2241
▁substance	-11.2242
▁ticket	-11.2242
▁corporation	-11.2242
▁Gi	-11.2248
▁cook	-11.2248
Is	-11.2249
ade	-11.226
▁min	-11.2261
▁Article	-11.2273
▁Details	-11.2273
▁Thursday	-11.2273
▁buffer	-11.2273
▁desolate	-11.2273
▁Value	-11.2273
▁ashamed	-11.2273
▁Millions	-11.2273
▁campus	-11.2273
▁punishment	-11.2273
▁classroom	-11.2274
▁minor	-11.2275
▁thrown	-11.2276
▁upset	-11.2278
▁mourning	-11.228
▁Head	-11.2281
▁indicated	-11.2281
▁pulled	-11.2284
book	-11.2284
▁Chi	-11.2291
▁prayed	-11.2292
ier	-11.2295
yan	-11.2297
▁expenditures	-11.2298
room	-11.2301
500	-11.2302
▁normally	-11.2306
iz	-11.2315
▁attempting	-11.2318
▁notification	-11.2321
▁hates	-11.2324
▁suggestion	-11.2329
▁Industrial	-11.234
▁largely	-11.2341
▁2003.	-11.2341
▁falls	-11.2341
oth	-11.2355
▁Audio	-11.2357
▁Instead	-11.2357
▁Irrigation	-11.2357
▁Lebanon	-11.2357
▁Properties	-11.2357
▁Written	-11.2357
▁passphrase	-11.2357
▁suspension	-11.2357
▁valuable	-11.2357
▁drew	-11.2357
▁Bhutan	-11.2357
▁popup	-11.2358
▁Order	-11.2358
▁alert	-11.236
▁continuously	-11.2361
▁Turn	-11.2363
00,000	-11.2364
▁span	-11.2365
▁pot	-11.2373
▁Call	-11.2373
board	-11.2378
▁reminder	-11.2381
▁mount	-11.2384
▁tend	-11.2389
ako	-11.24
48	-11.2404
▁brick	-11.2414
▁sees	-11.2416
▁rely	-11.242
▁pour	-11.2434
▁pull	-11.2435
▁mayor	-11.2436
struct	-11.2442
▁Further	-11.2443
▁Nevertheless	-11.2443
▁UAE	-11.2443
▁assault	-11.2443
▁babies	-11.2443
▁Watch	-11.2443
▁mankind	-11.2443
▁authentication	-11.2443
▁attachment	-11.2443
▁peak	-11.2444
▁Highway	-11.2444
▁Big	-11.2445
▁Very	-11.2445
cho	-11.2448
▁woods	-11.2448
▁Edom	-11.2453
▁passes	-11.2454
▁wondered	-11.2456
▁villagers	-11.2456
meter	-11.2458
dhi	-11.2459
uality	-11.2471
▁Nations	-11.2473
▁aimed	-11.2473
▁feared	-11.2475
▁51	-11.2496
▁Pan	-11.2504
▁lit	-11.2514
▁adjust	-11.2516
ele	-11.2517
▁politicians	-11.2525
▁upload	-11.2526
▁sizes	-11.2528
nal	-11.2528
▁feasible	-11.2529
▁removing	-11.2529
▁transmission	-11.2529
▁therapy	-11.2529
▁mill	-11.2529
▁unemployment	-11.2529
▁elsewhere	-11.253
▁1992	-11.253
▁OK	-11.2532
▁utterly	-11.2532
▁rapidly	-11.2533
▁popularity	-11.2536
space	-11.2541
▁armed	-11.2543
ell	-11.2551
▁tender	-11.2555
200	-11.2559
▁Dev	-11.2559
▁candidates	-11.2565
ira	-11.2571
▁lovely	-11.2574
▁PM	-11.2582
▁ordinances	-11.2584
▁practices	-11.2585
▁souls	-11.2589
▁Christian	-11.2591
pro	-11.2601
▁religions	-11.2601
▁Dis	-11.2601
▁disappear	-11.2604
pan	-11.2611
▁incidents	-11.2612
▁glass	-11.2613
▁Preferences	-11.2616
▁intercourse	-11.2616
▁manufacturing	-11.2616
▁promoting	-11.2616
▁studio	-11.2616
▁violent	-11.2616
▁Fill	-11.2616
▁Keyboard	-11.2616
▁UML	-11.2617
▁lake	-11.2617
▁vain	-11.2618
▁assistant	-11.2621
▁Cancel	-11.2624
▁encountered	-11.2626
gh	-11.2627
▁Village	-11.2629
▁searched	-11.2641
Because	-11.2644
▁reporter	-11.2645
▁newly	-11.2648
▁theory	-11.2654
▁Cana	-11.2656
even	-11.2658
AL	-11.2658
ied	-11.266
wan	-11.2663
▁oppose	-11.2694
▁rent	-11.27
▁admit	-11.2703
▁automatic	-11.2703
▁1984/85	-11.2704
▁California	-11.2704
▁census	-11.2704
▁fifteen	-11.2704
▁indigenous	-11.2704
▁monetary	-11.2704
▁tremendous	-11.2704
▁boast	-11.2704
▁heavily	-11.2704
▁integer	-11.2704
▁Hotel	-11.2704
▁instructions	-11.2704
▁regime	-11.2704
▁settlement	-11.2705
ID	-11.2705
▁fake	-11.2705
▁Sho	-11.2717
▁risen	-11.2721
▁presentation	-11.2722
ture	-11.2723
▁2003	-11.2723
but	-11.2725
▁ward	-11.273
amp	-11.2738
▁Abi	-11.2753
▁Banks	-11.2761
▁experiment	-11.2763
rim	-11.2764
▁meaningful	-11.2769
▁riches	-11.2771
dh	-11.2775
▁doubts	-11.2776
▁marks	-11.278
▁sand	-11.2785
▁spare	-11.2786
▁polygon	-11.279
▁Wall	-11.2791
▁scroll	-11.2792
▁semi	-11.2792
▁payments	-11.2792
▁1991/92	-11.2792
▁stuck	-11.2792
▁copied	-11.2792
▁vacation	-11.2792
▁outcome	-11.2792
▁Place	-11.2793
▁considerable	-11.2798
▁mothers	-11.2803
▁represented	-11.2805
▁passion	-11.2808
ants	-11.2809
▁Shu	-11.281
▁indicates	-11.281
known	-11.282
▁gathering	-11.282
▁rains	-11.2822
▁Par	-11.2835
wal	-11.2839
map	-11.2841
▁safely	-11.2845
▁tabs	-11.2851
▁habit	-11.2855
Are	-11.2872
▁activate	-11.2872
▁examine	-11.2872
▁recording	-11.2875
▁bonus	-11.2879
ose	-11.288
▁Absalom	-11.2881
▁Business	-11.2881
▁curious	-11.2881
▁shelter	-11.2881
▁compound	-11.2882
▁formulation	-11.2882
▁Six	-11.2882
▁Simon	-11.2882
▁demands	-11.2885
▁assigned	-11.2885
▁manually	-11.2885
▁exposed	-11.2888
▁traders	-11.2888
▁Master	-11.2888
▁publicly	-11.2891
▁Rai	-11.2896
▁Min	-11.2898
▁photograph	-11.29
▁incorrect	-11.2905
▁foreigner	-11.2912
▁beside	-11.2914
▁courses	-11.2921
▁captains	-11.2928
▁Map	-11.2938
▁obligation	-11.2947
▁soldier	-11.2948
▁Post	-11.2954
▁fl	-11.2956
▁attain	-11.2959
▁trap	-11.2971
▁Style	-11.2971
▁Gentiles	-11.2971
▁Middle	-11.2971
▁fortunate	-11.2971
▁protein	-11.2971
▁widespread	-11.2971
▁array	-11.2972
▁Track	-11.2972
▁Memory	-11.2972
▁Market	-11.2974
tract	-11.2974
▁meanings	-11.2975
▁Moon	-11.2977
▁Ban	-11.2977
▁%3	-11.2979
▁Much	-11.2981
▁scope	-11.2984
ery	-11.2989
▁thin	-11.2991
field	-11.3002
iti	-11.3009
▁applet	-11.301
▁suggest	-11.3012
▁wings	-11.3012
▁taxi	-11.3013
▁Maha	-11.3014
▁increasingly	-11.3018
path	-11.303
:4	-11.3033
▁guest	-11.3039
▁donkey	-11.3042
▁Th	-11.3043
▁exp	-11.3043
▁distress	-11.3051
▁recall	-11.3051
▁Lots	-11.3051
▁Ke	-11.3052
being	-11.3056
▁alleged	-11.3057
▁unexpected	-11.3058
▁Answer	-11.3062
▁criteria	-11.3062
▁thief	-11.3062
▁stability	-11.3062
▁tight	-11.3063
▁bell	-11.3063
▁beaten	-11.3064
:6	-11.3068
▁Narayan	-11.3069
▁dies	-11.3069
▁creatures	-11.307
▁disappeared	-11.3074
▁eastern	-11.3078
▁ships	-11.3078
▁powers	-11.3078
▁provider	-11.3083
▁Loading	-11.3087
▁wins	-11.3094
▁explains	-11.311
▁commonly	-11.3123
▁passing	-11.3124
▁affecting	-11.3128
▁th	-11.314
▁extract	-11.3141
▁punish	-11.3142
▁capture	-11.3145
cap	-11.3151
▁foolish	-11.3154
▁perspective	-11.3154
▁trespass	-11.3154
▁conversion	-11.3154
▁leg	-11.3154
▁Corona	-11.3155
▁beast	-11.3156
▁abandoned	-11.3157
▁concluded	-11.3158
hand	-11.3158
▁activated	-11.3164
▁rec	-11.3165
than	-11.3166
▁addresses	-11.3177
▁Drag	-11.3178
▁10%	-11.3178
▁crossed	-11.3182
▁ring	-11.3183
dar	-11.3186
hara	-11.3189
▁Kenya	-11.319
▁regulations	-11.32
▁Blessed	-11.32
▁Put	-11.3203
▁metal	-11.321
▁Los	-11.3217
▁para	-11.322
▁climb	-11.3222
▁turns	-11.3222
▁physician	-11.3224
▁exam	-11.3226
▁hole	-11.3232
▁shock	-11.3235
▁eliminate	-11.3237
▁Pra	-11.3239
▁coast	-11.3244
ef	-11.3245
▁Messi	-11.3246
▁Dharan	-11.3247
▁constellation	-11.3247
▁experiencing	-11.3247
▁latter	-11.3247
▁smoking	-11.3247
▁visual	-11.3247
▁2001.	-11.3247
▁KMail	-11.3247
▁forgotten	-11.3247
▁wake	-11.3249
▁typically	-11.325
▁seized	-11.325
▁hiding	-11.3255
▁agreements	-11.326
▁Used	-11.3263
▁Win	-11.3265
▁significantly	-11.3266
▁faster	-11.3267
▁Within	-11.3267
▁measured	-11.3271
▁facilitate	-11.3278
▁bricks	-11.3278
two	-11.328
mu	-11.3289
▁sleeping	-11.3305
▁geographical	-11.3312
ology	-11.332
can	-11.3322
▁Pakistani	-11.3328
▁bowl	-11.3328
sec	-11.333
▁cease	-11.3331
▁Bengal	-11.3337
▁pointed	-11.3338
▁afford	-11.3339
▁GDP	-11.334
▁Royal	-11.334
▁fierce	-11.334
▁globe	-11.334
▁institute	-11.334
▁remedies	-11.334
▁tattoo	-11.334
▁neighborhood	-11.334
▁unemployed	-11.3341
▁Without	-11.3344
▁anointed	-11.3344
▁Host	-11.3344
▁playlist	-11.3347
▁selecting	-11.3349
▁likewise	-11.3349
▁im	-11.335
▁vine	-11.3351
▁judges	-11.3356
play	-11.3356
▁na	-11.3375
▁Young	-11.3383
▁deposits	-11.3394
mun	-11.3399
▁sheets	-11.3401
▁Indians	-11.3407
▁infant	-11.3414
▁convention	-11.3415
ati	-11.343
▁hydro	-11.3434
▁Industry	-11.3435
▁Modify	-11.3435
▁Multiple	-11.3435
▁Netherlands	-11.3435
▁Taiwan	-11.3435
▁goddess	-11.3435
▁prophecy	-11.3435
▁remarkable	-11.3435
▁remnant	-11.3435
▁Parents	-11.3435
▁okay	-11.3435
▁guidelines	-11.3435
▁Below	-11.3435
▁guys	-11.3436
▁boundary	-11.3436
▁vice	-11.3436
▁username	-11.3437
▁Mrs	-11.3438
▁possibly	-11.3439
▁equality	-11.344
▁slowly	-11.3446
▁coal	-11.3448
▁Personal	-11.3451
▁wondering	-11.3451
dition	-11.3454
▁fate	-11.3454
lets	-11.3456
▁publicity	-11.3456
▁guests	-11.3459
▁Whoever	-11.3461
▁Mag	-11.3464
▁core	-11.3469
▁chemicals	-11.347
ome	-11.3473
▁Devi	-11.3479
ria	-11.3481
▁provinces	-11.3483
▁pin	-11.3484
bon	-11.3486
▁600	-11.349
▁handed	-11.3498
▁indicate	-11.3501
▁1999.	-11.3501
▁Park	-11.3504
▁Isn	-11.3508
▁lights	-11.3513
▁discover	-11.3515
▁cool	-11.3519
▁turning	-11.352
▁clinic	-11.3527
bb	-11.3529
▁Success	-11.353
▁Calendar	-11.353
▁Column	-11.353
▁LOT	-11.353
▁battery	-11.353
▁diabetes	-11.353
▁eager	-11.353
▁situated	-11.353
▁Kids	-11.353
▁Likewise	-11.353
▁residential	-11.353
▁feedback	-11.353
▁59	-11.3531
▁Islam	-11.3532
▁absolutely	-11.3533
▁ranked	-11.3536
ker	-11.3543
▁goat	-11.3543
▁Acts	-11.3556
▁Say	-11.3558
▁49	-11.3562
ake	-11.3573
▁remind	-11.3588
God	-11.3589
▁freed	-11.3601
▁parameter	-11.3608
▁applying	-11.3611
hum	-11.3616
▁settle	-11.3617
▁relate	-11.3618
▁Shri	-11.362
▁nutrition	-11.3623
▁1990/91	-11.3626
▁Child	-11.3626
▁Moscow	-11.3626
▁awesome	-11.3626
▁encouraging	-11.3626
▁possibilities	-11.3626
▁Civil	-11.3626
▁Process	-11.3626
▁virgin	-11.3626
▁statue	-11.3626
▁Tamil	-11.3626
▁bullet	-11.3627
▁1985	-11.3627
▁workshop	-11.3627
▁1995	-11.3628
▁somewhat	-11.3631
▁Along	-11.3635
▁detected	-11.3635
▁illnesses	-11.3636
ware	-11.3637
pher	-11.3638
▁fairly	-11.3641
▁upward	-11.3642
▁buses	-11.3642
▁bio	-11.3652
▁wished	-11.3652
▁reviewed	-11.366
party	-11.3666
▁judged	-11.3668
▁linen	-11.3679
▁recover	-11.3695
▁alarms	-11.3695
sign	-11.3697
▁transaction	-11.3706
▁bird	-11.3706
late	-11.3707
▁53	-11.3709
Face	-11.3711
▁trail	-11.3714
▁cheap	-11.3717
▁rapid	-11.3718
▁2002	-11.3719
▁2006	-11.3721
▁Agreement	-11.3723
▁Include	-11.3723
▁Software	-11.3723
▁completing	-11.3723
▁qualities	-11.3723
▁refresh	-11.3723
▁southern	-11.3723
▁animation	-11.3723
▁residence	-11.3723
▁involvement	-11.3724
▁passport	-11.3724
dra	-11.3732
▁sixty	-11.3732
▁examined	-11.3733
▁uploaded	-11.3736
▁ja	-11.3739
▁grave	-11.374
▁Top	-11.3741
ack	-11.3754
click	-11.3761
Yahweh	-11.3761
▁tables	-11.3762
▁Didn	-11.3768
month	-11.3774
▁Named	-11.3777
▁badly	-11.3777
▁clock	-11.3778
lines	-11.3783
▁Sir	-11.3783
▁enterprises	-11.3786
▁dogs	-11.3797
▁governor	-11.3805
ctor	-11.3806
▁amounts	-11.3809
▁stretch	-11.381
▁refuse	-11.3812
len	-11.3818
▁Argentina	-11.3821
▁Church	-11.3821
▁Library	-11.3821
▁THE	-11.3821
▁crazy	-11.3821
▁legacy	-11.3821
▁vocabulary	-11.3821
▁operator	-11.3821
▁overcome	-11.3821
▁faint	-11.3821
▁dried	-11.3821
▁girlfriend	-11.3821
▁Ahab	-11.3821
▁oath	-11.3822
44	-11.3823
▁specifically	-11.3823
▁frequently	-11.3823
▁2002.	-11.3829
▁seventy	-11.383
ney	-11.3831
▁advantages	-11.3832
▁rail	-11.3835
▁Artist	-11.3844
aries	-11.3848
fold	-11.385
▁54	-11.3853
▁ram	-11.3856
istic	-11.386
After	-11.386
je	-11.3869
▁Sen	-11.3873
▁scripts	-11.3878
▁Starting	-11.3879
▁grants	-11.3886
▁islands	-11.3889
iness	-11.3893
▁push	-11.3897
▁sow	-11.3898
▁electrical	-11.39
▁investments	-11.3902
▁cleaning	-11.3905
▁spreading	-11.3906
▁Users	-11.3907
▁introduce	-11.3911
low	-11.3914
▁ye	-11.3919
▁basket	-11.392
▁Portugal	-11.392
▁Psalm	-11.392
▁abundance	-11.392
▁imprisoned	-11.392
▁independence	-11.392
▁Double	-11.392
▁Small	-11.392
▁stake	-11.392
▁duties	-11.392
▁odd	-11.392
▁memories	-11.392
▁contest	-11.392
▁1971	-11.3921
▁Old	-11.3921
▁Reload	-11.3921
▁baptized	-11.3921
▁UN	-11.3921
▁2004	-11.3924
▁nights	-11.3925
▁Bin	-11.3925
▁sir	-11.3926
▁rushed	-11.3927
▁Art	-11.3929
▁Cut	-11.3931
▁Bra	-11.3938
▁usual	-11.394
▁torn	-11.3941
uri	-11.3943
▁troubled	-11.3947
▁Gen	-11.3955
house	-11.3961
▁messengers	-11.3962
▁shoes	-11.3962
car	-11.3964
rain	-11.3968
▁lessons	-11.3971
▁aims	-11.3974
▁Model	-11.3981
▁hint	-11.3987
▁insult	-11.3995
ising	-11.3996
Then	-11.4001
▁Ab	-11.4001
▁captive	-11.4005
▁garment	-11.4006
▁prophesy	-11.4007
▁desert	-11.4008
▁encounter	-11.4009
▁engage	-11.4009
▁Kha	-11.4011
▁adverse	-11.4015
▁disagree	-11.4019
▁micro	-11.402
▁anxiety	-11.402
▁reproach	-11.402
▁1981	-11.4021
▁Toolbar	-11.4021
▁Mid	-11.4021
▁convicted	-11.4022
▁Device	-11.4024
▁travelling	-11.4024
▁sadness	-11.4024
▁Paste	-11.4029
▁missed	-11.4032
wise	-11.4035
▁Back	-11.4035
▁goats	-11.404
put	-11.4041
▁Ah	-11.4041
▁Down	-11.4052
▁dates	-11.406
▁stocks	-11.4072
▁oriented	-11.4076
aya	-11.4079
▁prisoners	-11.4079
▁Hor	-11.4083
▁deadly	-11.4088
ld	-11.4091
▁talent	-11.4096
▁assets	-11.4098
▁platforms	-11.4102
uck	-11.4108
▁treasure	-11.4108
▁drinks	-11.4109
▁adapt	-11.4109
▁expire	-11.4112
▁Star	-11.4113
▁Base	-11.4114
ueen	-11.4118
▁transit	-11.4119
▁drama	-11.4121
▁Jeroboam	-11.4121
▁Scale	-11.4121
▁patience	-11.4121
▁shield	-11.4121
▁strategies	-11.4121
▁territory	-11.4121
▁Until	-11.4121
▁Target	-11.4121
▁upcoming	-11.4121
▁Green	-11.4121
▁prefer	-11.4121
▁conclusion	-11.4121
▁gland	-11.4122
▁Levi	-11.4124
▁Same	-11.4128
▁Planning	-11.4129
ES	-11.4129
▁expired	-11.4131
▁Guru	-11.4133
▁tube	-11.4133
▁understands	-11.4134
▁roll	-11.4134
▁panchayats	-11.4136
▁cooking	-11.4137
atic	-11.4139
▁breadth	-11.414
▁separately	-11.4142
▁sexually	-11.4143
▁signing	-11.4146
lies	-11.4151
awa	-11.4151
▁mu	-11.4154
▁crossing	-11.4157
ese	-11.4161
▁establishing	-11.4161
anda	-11.4161
▁directions	-11.4162
▁1998.	-11.4166
test	-11.4167
lah	-11.417
▁proportion	-11.4172
▁beds	-11.4175
▁fr	-11.4176
:19	-11.4176
▁wars	-11.4181
▁producers	-11.4188
28	-11.4188
12	-11.4189
▁Ten	-11.4199
gha	-11.4199
▁forum	-11.42
▁120	-11.4202
▁entrepreneurs	-11.4205
▁floods	-11.4215
▁Through	-11.4223
▁founder	-11.4223
▁Energy	-11.4223
▁Michael	-11.4223
▁Portuguese	-11.4223
▁cautious	-11.4223
▁corporate	-11.4223
▁eligible	-11.4223
▁unaware	-11.4223
▁8226	-11.4223
▁varies	-11.4223
▁Attach	-11.4224
ealand	-11.4224
▁partnership	-11.4224
▁formula	-11.4224
▁intellectual	-11.4225
▁accessible	-11.4225
▁ignore	-11.4225
▁slightly	-11.4225
▁assured	-11.4226
▁dynamic	-11.4227
▁Football	-11.4227
▁Station	-11.4228
▁directors	-11.4232
ock	-11.4233
▁miss	-11.4234
▁Herod	-11.4241
▁pop	-11.4243
▁expressions	-11.4251
▁patterns	-11.4264
▁grains	-11.4265
▁surveys	-11.4266
Thus	-11.4266
▁samples	-11.4267
▁heal	-11.4269
format	-11.427
▁cow	-11.427
▁Fund	-11.4276
▁resulting	-11.4277
▁principles	-11.4278
▁le	-11.4285
scale	-11.4287
▁1997.	-11.429
▁representative	-11.4315
▁washed	-11.4316
▁utilize	-11.4317
▁Bas	-11.4324
▁fewer	-11.4326
▁Commerce	-11.4326
▁approval	-11.4326
▁dinner	-11.4326
▁diversity	-11.4326
▁laboratory	-11.4326
▁utility	-11.4326
▁palm	-11.4326
▁bedroom	-11.4326
▁tray	-11.4327
▁Biden	-11.4327
▁plate	-11.4327
▁1986	-11.4327
▁professor	-11.4327
▁affliction	-11.4328
▁committees	-11.4332
▁gotten	-11.4338
lon	-11.4342
▁inserted	-11.4343
nic	-11.4344
39	-11.4347
▁legally	-11.4352
that	-11.4356
▁Icon	-11.4359
▁cents	-11.436
▁lawyers	-11.4361
▁Looking	-11.4363
▁Sur	-11.4363
bro	-11.4366
sis	-11.4368
Please	-11.437
check	-11.4371
Take	-11.4372
kot	-11.4378
▁62	-11.438
▁h	-11.4385
▁customize	-11.4387
▁opinions	-11.4389
▁56	-11.4402
ili	-11.4403
▁procedures	-11.4404
▁exceed	-11.4405
▁lambs	-11.4407
▁expert	-11.442
▁scientist	-11.442
▁Saving	-11.4421
▁monthly	-11.4423
▁forgive	-11.4426
▁upgrade	-11.443
▁Genesis	-11.443
▁astonished	-11.443
▁gambling	-11.443
▁reduction	-11.443
▁Italian	-11.4431
▁corona	-11.4431
▁sustainable	-11.4431
▁withdrawn	-11.4435
▁wasted	-11.4435
▁corresponding	-11.4437
▁Action	-11.4438
▁talented	-11.4442
▁1000	-11.4443
▁supportive	-11.4444
▁Scientists	-11.445
▁bid	-11.4451
▁figures	-11.4454
▁schemes	-11.4455
▁hall	-11.4462
▁stores	-11.4464
▁cu	-11.4472
On	-11.4475
31	-11.4486
▁needy	-11.4491
▁organize	-11.4495
read	-11.4506
hold	-11.4508
▁allowing	-11.451
▁preach	-11.4513
▁coordinate	-11.4517
▁choices	-11.4518
▁consult	-11.4519
▁Sheet	-11.4522
bed	-11.4524
▁freely	-11.4526
▁educate	-11.4526
ou	-11.4526
▁creature	-11.4527
▁Nigeria	-11.453
▁brief	-11.4531
▁Previous	-11.4531
▁1984	-11.4536
▁Denmark	-11.4536
▁Private	-11.4536
▁Truth	-11.4536
▁incredible	-11.4536
▁mechanism	-11.4536
▁philosophy	-11.4536
▁probability	-11.4536
▁repay	-11.4536
▁stumble	-11.4536
▁enormous	-11.4536
▁Girija	-11.4536
▁capability	-11.4536
uli	-11.4537
▁Using	-11.4538
▁apartment	-11.4538
▁paintings	-11.4538
▁authorized	-11.4539
▁Char	-11.4539
▁Dec	-11.454
▁intensive	-11.454
▁Friends	-11.4541
▁horizontal	-11.4544
adi	-11.4547
▁Sound	-11.4549
iel	-11.455
▁protects	-11.4551
▁Lake	-11.4552
▁gr	-11.4552
▁canal	-11.4553
▁Goes	-11.4555
▁tu	-11.4565
Be	-11.4566
▁1,000	-11.4572
uit	-11.4578
▁flowing	-11.458
Have	-11.4584
shan	-11.4585
▁dwelling	-11.4588
▁Students	-11.4591
▁Mah	-11.4591
▁wonders	-11.4596
try	-11.4598
▁grows	-11.46
hal	-11.4607
card	-11.4622
raj	-11.4626
▁devour	-11.463
ata	-11.4631
▁Sam	-11.4635
▁trick	-11.4639
▁Especially	-11.4642
▁Gorkha	-11.4642
▁celebration	-11.4642
▁composition	-11.4642
▁depression	-11.4642
▁quarantine	-11.4642
▁registration	-11.4642
▁Hebron	-11.4642
▁Mahendra	-11.4642
▁Return	-11.4643
▁Elisha	-11.4643
▁diagnosed	-11.4643
▁Sabha	-11.4643
▁twin	-11.4643
▁carbon	-11.4645
▁Example	-11.4648
▁Prince	-11.4651
▁backend	-11.4652
ML	-11.4652
▁Korean	-11.466
▁formation	-11.4669
▁headquarters	-11.4671
▁emotions	-11.4688
clock	-11.4692
▁processed	-11.4694
aw	-11.4695
33	-11.4697
▁Kh	-11.4697
▁references	-11.471
▁Must	-11.4714
▁relax	-11.4738
▁disclose	-11.474
▁bottle	-11.4742
▁chain	-11.4743
▁mineral	-11.4744
vin	-11.4744
▁tear	-11.4749
▁Nebuchadnezzar	-11.475
▁preservation	-11.475
▁voting	-11.475
▁Weather	-11.475
▁kidney	-11.475
▁hook	-11.475
▁exploitation	-11.475
▁styles	-11.475
▁1993	-11.475
▁debut	-11.4751
▁prevention	-11.4755
▁meantime	-11.4756
▁Login	-11.4758
▁Pacific	-11.4758
ila	-11.4759
▁Peace	-11.476
▁tweeted	-11.4765
▁Real	-11.4771
▁clouds	-11.4772
▁displaying	-11.4773
▁collecting	-11.4779
▁habits	-11.478
▁timely	-11.4782
▁Ji	-11.4786
▁Jan	-11.4789
▁dreamed	-11.4792
▁financially	-11.4797
oriented	-11.4798
Did	-11.48
▁practiced	-11.48
maker	-11.48
hur	-11.4813
▁flocks	-11.482
fully	-11.4822
▁viewer	-11.4824
eed	-11.4825
▁dealer	-11.4829
Man	-11.4829
dal	-11.4829
▁themes	-11.4834
▁walks	-11.4835
▁Share	-11.4836
▁Tu	-11.4843
stone	-11.4846
▁deny	-11.4851
▁technique	-11.4853
▁instances	-11.4854
▁Creating	-11.4858
▁Increase	-11.4858
▁Matthew	-11.4858
▁accusation	-11.4858
▁choosing	-11.4858
▁crucified	-11.4858
▁dignity	-11.4858
▁elephant	-11.4858
▁supervision	-11.4858
▁Generate	-11.4858
▁Heaven	-11.4858
▁scan	-11.4858
▁yellow	-11.4858
▁tendency	-11.4858
▁Operation	-11.4858
▁decree	-11.4858
▁Mailbox	-11.4859
▁stranger	-11.4859
▁Himself	-11.4859
▁unread	-11.486
ked	-11.486
▁Administration	-11.4861
▁withdrawal	-11.4862
▁Install	-11.4863
▁Found	-11.4864
▁reset	-11.4865
▁condemned	-11.4865
▁vertically	-11.4866
▁250	-11.4869
▁shops	-11.4873
ima	-11.4875
burg	-11.4881
▁trials	-11.4881
aving	-11.4882
▁setup	-11.4889
▁Forest	-11.4894
▁Asa	-11.4898
▁da	-11.4904
py	-11.4922
▁Tag	-11.4925
eshwar	-11.4925
▁positions	-11.4926
ude	-11.493
-2	-11.4938
pect	-11.4945
95	-11.4945
▁vegetables	-11.4946
▁sang	-11.4946
▁raining	-11.495
57	-11.495
▁mess	-11.4951
▁distribute	-11.4959
▁finger	-11.4964
▁resident	-11.4964
avi	-11.4965
▁naked	-11.4967
▁Eastern	-11.4968
▁Efforts	-11.4968
▁Farmers	-11.4968
▁Technology	-11.4968
▁Wikipedia	-11.4968
▁Writing	-11.4968
▁contrary	-11.4968
▁liberal	-11.4968
▁preliminary	-11.4968
▁prominent	-11.4968
▁transparency	-11.4968
▁asleep	-11.4968
▁atonement	-11.4968
▁Learn	-11.4968
▁Britain	-11.4968
▁petition	-11.4968
▁Passover	-11.4968
▁Arabic	-11.4969
▁envisaged	-11.4969
▁Tux	-11.497
▁accomplishment	-11.497
▁Nobel	-11.4972
▁instantly	-11.4972
▁Thapa	-11.4974
▁economically	-11.4975
▁Total	-11.4977
▁manual	-11.4977
▁stays	-11.4982
▁Whatever	-11.4982
ering	-11.4982
▁hat	-11.4986
▁Match	-11.4992
▁floors	-11.5008
▁reportedly	-11.5012
rk	-11.5012
▁prayers	-11.5014
sufficient	-11.5019
▁5,000	-11.5023
▁sits	-11.5023
pat	-11.5026
..."	-11.5026
▁pressed	-11.5027
▁accidents	-11.5034
▁bl	-11.5036
▁jailed	-11.504
mark	-11.5047
▁brands	-11.5049
RA	-11.5054
▁explore	-11.507
▁locate	-11.507
▁fulfil	-11.5076
▁submit	-11.5078
▁graph	-11.5078
▁Nathanael	-11.5079
▁Rajasthan	-11.5079
▁Standard	-11.5079
▁accompanied	-11.5079
▁digiKam	-11.5079
▁executable	-11.5079
▁Medical	-11.5079
▁macro	-11.5079
▁pool	-11.508
▁occurring	-11.508
▁spite	-11.5081
▁Computer	-11.5082
▁Production	-11.5082
▁ca	-11.5082
▁evolved	-11.5083
▁profitable	-11.5084
▁emerged	-11.5085
pla	-11.5088
▁bowed	-11.51
▁58	-11.5101
37	-11.5109
▁labels	-11.5112
▁deals	-11.5114
▁Ser	-11.5116
▁arrows	-11.5125
government	-11.5129
▁reap	-11.513
▁ta	-11.5133
▁id	-11.5144
▁engineers	-11.5154
▁routes	-11.5157
▁manufacturers	-11.5159
▁emails	-11.5161
▁Button	-11.5162
title	-11.5166
▁reject	-11.5174
▁wound	-11.5179
ox	-11.518
▁humble	-11.5182
▁adds	-11.5189
▁inputs	-11.519
fo	-11.5191
▁Automatic	-11.5191
▁slot	-11.5191
▁ghost	-11.5192
▁purchasing	-11.5192
▁threatened	-11.5192
▁diverse	-11.5192
▁confusion	-11.5192
▁Think	-11.5192
▁juice	-11.5192
▁1983	-11.5193
▁parable	-11.5193
▁Christmas	-11.5193
▁excluded	-11.5193
▁Kong	-11.5194
▁Pick	-11.5195
▁wallet	-11.5195
rib	-11.5195
▁solely	-11.5196
▁resigned	-11.5197
▁1930	-11.5197
▁tears	-11.5201
▁Missing	-11.5203
▁covers	-11.5206
▁Ed	-11.521
▁Gra	-11.5213
▁Listen	-11.5221
var	-11.5233
▁failing	-11.5235
▁Windows	-11.5236
most	-11.5246
aba	-11.5246
▁Teachers	-11.5251
▁obstacles	-11.5254
▁borne	-11.5256
▁constitutional	-11.5266
▁cleaned	-11.5275
▁Theme	-11.5283
▁Sp	-11.5284
▁jump	-11.5294
▁ruin	-11.5294
▁dam	-11.5294
▁investigate	-11.5296
▁continuous	-11.53
▁distinct	-11.5302
▁sweets	-11.5302
▁uncle	-11.5303
▁musical	-11.5303
▁Author	-11.5304
▁vineyard	-11.5304
▁tension	-11.5305
▁uncertain	-11.5305
▁instruction	-11.5305
▁dollar	-11.5305
▁speaker	-11.5305
▁transform	-11.5305
▁Belgium	-11.5305
▁License	-11.5305
▁creator	-11.5305
▁deserve	-11.5305
▁grief	-11.5305
▁identification	-11.5305
▁schema	-11.5305
▁artificial	-11.5305
▁grandfather	-11.5305
▁venture	-11.5305
▁boot	-11.5305
▁caption	-11.5305
▁intense	-11.5306
▁fa	-11.5306
▁Lock	-11.5306
▁titlebar	-11.5307
▁pole	-11.5308
▁exalted	-11.5309
▁hired	-11.5313
▁66	-11.5321
▁employer	-11.5322
▁monitored	-11.5323
▁Best	-11.5325
▁Australian	-11.5331
▁troops	-11.5333
▁legs	-11.5333
▁strengthening	-11.5336
▁neighboring	-11.5337
rus	-11.5339
▁counter	-11.5345
aging	-11.5346
▁discussing	-11.5347
▁wi	-11.5351
▁fe	-11.5351
▁united	-11.5357
q	-11.5361
▁1:5	-11.5365
lock	-11.5366
with	-11.5366
table	-11.5367
▁Em	-11.5368
rc	-11.5385
▁muscles	-11.539
▁greet	-11.5395
▁designs	-11.5398
▁presently	-11.5402
▁tags	-11.5403
af	-11.5403
ini	-11.5405
eth	-11.5406
▁Encrypt	-11.5419
▁encrypt	-11.5419
▁Effect	-11.542
▁Activate	-11.542
▁Club	-11.542
▁Multi	-11.542
▁Street	-11.542
▁Survey	-11.542
▁Texas	-11.542
▁Welcome	-11.542
▁compensation	-11.542
▁discrimination	-11.542
▁fetch	-11.542
▁mosque	-11.542
▁unnecessary	-11.542
▁Trust	-11.542
▁Prize	-11.542
▁fears	-11.5421
▁armies	-11.5421
▁alter	-11.5421
▁ties	-11.5426
▁hilly	-11.5431
▁talents	-11.5436
▁Officials	-11.5437
▁managers	-11.5437
▁robe	-11.544
▁flooding	-11.5446
▁businessman	-11.5447
▁pond	-11.5448
dir	-11.5449
65	-11.5459
gon	-11.5461
uick	-11.5466
una	-11.5471
▁operational	-11.5485
▁tonight	-11.5491
▁machines	-11.5491
▁1990.	-11.5504
▁coat	-11.5511
▁j	-11.5518
▁steal	-11.5523
▁pointer	-11.5524
▁recipients	-11.5526
▁suspect	-11.5527
▁chart	-11.5528
▁poll	-11.5529
▁collective	-11.5533
▁Reuben	-11.5536
▁spear	-11.5536
▁Empty	-11.5536
▁commodities	-11.5536
▁convenience	-11.5536
▁fraud	-11.5536
▁summary	-11.5536
▁surplus	-11.5536
▁vaccination	-11.5536
▁Space	-11.5536
▁preferred	-11.5537
▁dividend	-11.5537
▁Hong	-11.5538
▁parliamentary	-11.5538
▁Road	-11.554
▁disciple	-11.554
▁70%	-11.5541
▁Janakpur	-11.5543
▁justified	-11.5546
▁shade	-11.5556
▁transactions	-11.5557
▁WE	-11.5558
29	-11.5562
▁farms	-11.557
▁Gal	-11.5573
form	-11.5574
▁earning	-11.558
▁servers	-11.5583
group	-11.5591
four	-11.5597
▁serves	-11.5604
ici	-11.5606
▁pressing	-11.5608
▁reporting	-11.562
▁1994.	-11.5633
▁spell	-11.5641
bility	-11.5643
▁discard	-11.5644
▁wages	-11.5646
▁Indonesia	-11.5648
▁64	-11.5648
▁synagogue	-11.5654
▁Chicago	-11.5654
▁Lumbini	-11.5654
▁Session	-11.5654
▁achieving	-11.5654
▁catalog	-11.5654
▁drought	-11.5654
▁gentle	-11.5654
▁mandatory	-11.5654
▁brave	-11.5654
▁Bookmark	-11.5654
▁estate	-11.5654
▁Mask	-11.5655
▁massive	-11.5656
▁Bug	-11.5656
▁2022	-11.5656
▁Chandra	-11.5657
▁Brazilian	-11.5658
▁9:6	-11.5658
▁motivated	-11.5658
▁lamp	-11.566
▁treaty	-11.5661
▁cutting	-11.5661
▁conceived	-11.5662
uestion	-11.5663
▁50%	-11.5664
▁floating	-11.5665
▁passwords	-11.5667
din	-11.5669
▁detect	-11.5669
▁cooked	-11.567
pal	-11.5675
▁Original	-11.5675
▁engineering	-11.5677
▁laughed	-11.5677
▁20%	-11.5678
▁compatible	-11.5684
▁supporters	-11.5687
▁sacrificed	-11.5689
▁Bihar	-11.5692
▁supports	-11.57
6,000	-11.5702
▁tune	-11.5702
▁Bir	-11.5705
▁fold	-11.5709
app	-11.5713
▁controls	-11.5715
nder	-11.5718
script	-11.5723
▁Messages	-11.5728
▁accepting	-11.5735
▁tents	-11.5739
▁draws	-11.5742
▁Initial	-11.5768
▁shake	-11.577
▁headers	-11.5772
▁10,000	-11.5772
▁Buddhist	-11.5773
▁Economic	-11.5773
▁Instagram	-11.5773
▁Jehoshaphat	-11.5773
▁Tribhuvan	-11.5773
▁academic	-11.5773
▁drove	-11.5773
▁duplicate	-11.5773
▁epidemic	-11.5773
▁everlasting	-11.5773
▁extraordinary	-11.5773
▁sacred	-11.5773
▁Fire	-11.5774
▁outline	-11.5774
▁Anyone	-11.5774
▁adjustment	-11.5775
▁fig	-11.5775
▁membership	-11.5776
▁organised	-11.5776
▁bitter	-11.5777
▁presidential	-11.5777
▁politician	-11.5778
▁Follow	-11.5778
▁restricted	-11.5779
▁1:6	-11.5779
▁teenager	-11.5779
▁kg	-11.5779
nagar	-11.5779
▁quoted	-11.5782
▁argued	-11.5782
▁crimes	-11.5783
▁inactive	-11.5784
▁eliminated	-11.5785
▁severely	-11.5786
rid	-11.5788
▁Iranian	-11.5793
▁2005	-11.5807
▁describes	-11.5808
long	-11.5813
endra	-11.5841
▁affairs	-11.5847
▁dock	-11.5849
▁pm	-11.5857
▁mad	-11.5858
";	-11.5863
5,000	-11.5865
▁cameras	-11.5868
mul	-11.5869
▁couples	-11.5882
▁puts	-11.5884
▁slave	-11.5893
▁BJP	-11.5894
▁Primary	-11.5894
▁Progress	-11.5894
▁ambassador	-11.5894
▁consensus	-11.5894
▁electronic	-11.5894
▁episode	-11.5894
▁glorified	-11.5894
▁prophesied	-11.5894
▁qualified	-11.5894
▁swear	-11.5894
▁timber	-11.5894
▁Content	-11.5894
▁Record	-11.5894
▁yoke	-11.5894
▁robot	-11.5894
▁wrapped	-11.5894
▁terrorism	-11.5895
▁cultivated	-11.5897
▁Height	-11.5899
▁afflicted	-11.5899
▁Island	-11.5899
▁Shankar	-11.59
▁expense	-11.59
:13	-11.5905
▁affection	-11.5905
▁undo	-11.5905
▁transformed	-11.5906
▁traditions	-11.5906
▁behave	-11.5907
ough	-11.5912
▁weary	-11.5913
▁painted	-11.5914
▁clothed	-11.5915
jo	-11.5921
▁ink	-11.5922
▁shapes	-11.5922
▁appealed	-11.5923
▁highways	-11.5923
▁funding	-11.5923
▁attending	-11.5926
▁creates	-11.593
▁amongst	-11.5931
▁balanced	-11.5936
air	-11.5941
load	-11.5941
pm	-11.5956
One	-11.5965
98	-11.5967
print	-11.5971
▁Gr	-11.5976
▁expects	-11.5991
▁margin	-11.5992
▁blocks	-11.5994
▁y	-11.5995
▁Romans	-11.5999
▁kingdoms	-11.6002
▁acknowledge	-11.6006
▁rough	-11.6011
▁wage	-11.6013
▁strip	-11.6015
▁Terms	-11.6016
▁Thomas	-11.6016
▁acquisition	-11.6016
▁advocate	-11.6016
▁curtain	-11.6016
▁integrity	-11.6016
▁kilometers	-11.6016
▁queue	-11.6016
▁volunteer	-11.6016
▁Fear	-11.6016
▁mysteries	-11.6016
▁ninth	-11.6016
▁desk	-11.6016
▁Dialog	-11.6016
▁Jhapa	-11.6016
▁trapped	-11.6016
▁Scripture	-11.6016
▁mood	-11.6016
▁Justice	-11.6016
▁journalism	-11.6016
▁Resize	-11.6016
▁Reform	-11.6017
▁fever	-11.6017
▁gray	-11.6017
▁lists	-11.6017
▁respective	-11.6017
▁visa	-11.6017
▁Tray	-11.6018
▁awake	-11.602
▁Lower	-11.6021
▁ON	-11.6022
▁restaurant	-11.6023
▁realised	-11.6024
▁Sy	-11.6027
▁departments	-11.6035
▁checking	-11.6038
▁suggests	-11.6048
▁closest	-11.6049
nia	-11.605
▁corners	-11.6051
atar	-11.6056
▁struggled	-11.6056
-20	-11.6058
▁intend	-11.6064
▁wickets	-11.6066
abor	-11.6067
mag	-11.6076
wood	-11.6076
34	-11.6078
ux	-11.6082
:22	-11.6083
hour	-11.6086
▁profits	-11.6087
▁characteristics	-11.6097
made	-11.6097
▁su	-11.611
▁IP	-11.6116
▁accordingly	-11.6121
▁ka	-11.6122
▁Om	-11.6127
▁rape	-11.613
▁unfortunate	-11.6134
▁thankful	-11.6135
▁Product	-11.6137
▁1973	-11.6139
▁Python	-11.6139
▁breach	-11.6139
▁chamber	-11.6139
▁deprived	-11.6139
▁guidance	-11.6139
▁junk	-11.6139
▁pocket	-11.6139
▁recognition	-11.6139
▁visibility	-11.6139
▁afternoon	-11.6139
▁tiger	-11.6139
▁console	-11.6139
▁smartphone	-11.6139
▁Everest	-11.6139
▁loose	-11.6139
▁1969	-11.614
▁basically	-11.6141
▁conic	-11.6144
▁extensively	-11.6147
▁Info	-11.6147
▁socket	-11.6148
▁developers	-11.6152
▁partial	-11.6155
▁recalled	-11.6156
▁Folders	-11.6164
▁publishing	-11.6164
▁(1	-11.6164
▁seasons	-11.6166
you	-11.6168
▁actors	-11.6168
rip	-11.6169
▁Nar	-11.6172
▁ending	-11.6173
▁logo	-11.6175
ED	-11.6178
▁Allah	-11.6178
▁resulted	-11.618
▁engines	-11.6181
head	-11.6185
▁tooth	-11.6196
IN	-11.6198
▁Pat	-11.6208
▁sto	-11.6215
▁protests	-11.6219
▁Ve	-11.6224
illa	-11.6225
uni	-11.6231
ami	-11.624
ken	-11.6241
atha	-11.6244
▁refugees	-11.6248
▁Nepalis	-11.6252
▁argue	-11.6255
▁imagine	-11.6255
▁helpless	-11.6256
▁attach	-11.6259
▁Normal	-11.6259
▁Attempt	-11.6264
▁Character	-11.6264
▁Position	-11.6264
▁William	-11.6264
▁bacteria	-11.6264
▁conduit	-11.6264
▁ethnic	-11.6264
▁immense	-11.6264
▁memorial	-11.6264
▁nervous	-11.6264
▁phenomenon	-11.6264
▁separator	-11.6264
▁technologies	-11.6264
▁verified	-11.6264
▁Index	-11.6264
▁Website	-11.6264
▁disorder	-11.6264
▁referring	-11.6264
▁logged	-11.6265
▁pump	-11.6265
▁fluid	-11.6265
ew	-11.6266
▁thoroughly	-11.6266
▁forsaken	-11.6267
▁forgiven	-11.6268
▁carries	-11.6269
▁Status	-11.627
▁horizontally	-11.627
▁originated	-11.627
this	-11.6272
▁Nine	-11.6273
▁weeping	-11.6274
▁wheel	-11.6275
▁recipient	-11.6275
▁deck	-11.6276
▁stretched	-11.6279
▁bath	-11.6288
▁180	-11.6293
▁Arrangements	-11.6301
▁Keeping	-11.6306
▁Sending	-11.6307
▁organisms	-11.631
▁HE	-11.6311
▁MB	-11.6317
▁offset	-11.6318
ink	-11.6326
▁tile	-11.6332
▁Cor	-11.6338
mas	-11.634
92	-11.634
▁pad	-11.6351
▁san	-11.6353
▁68	-11.6359
pen	-11.6363
▁accord	-11.6366
▁shout	-11.6367
tta	-11.6375
ino	-11.6377
Fi	-11.6377
400	-11.6379
▁85	-11.6381
▁Additional	-11.6386
▁sole	-11.6388
link	-11.6389
▁permit	-11.639
▁Fifth	-11.6391
▁Regarding	-11.6391
▁Unfortunately	-11.6391
▁financing	-11.6391
▁handmaid	-11.6391
▁injustice	-11.6391
▁satisfy	-11.6391
▁Travel	-11.6391
▁Saint	-11.6391
▁fraction	-11.6391
▁hydropower	-11.6391
▁copies	-11.6391
▁instructed	-11.6391
▁Highlight	-11.6392
▁shipped	-11.6392
▁transformation	-11.6392
▁Salman	-11.6392
rin	-11.6392
▁Bethel	-11.6393
▁directories	-11.6393
hood	-11.6394
Not	-11.6395
▁prohibited	-11.6395
▁partially	-11.6396
▁Regional	-11.6397
▁terrorist	-11.6405
42	-11.6407
▁prey	-11.6407
▁mounted	-11.6408
▁reflected	-11.6409
ties	-11.6411
▁quota	-11.6413
▁maximize	-11.6416
▁investing	-11.6418
ville	-11.642
gas	-11.6421
▁enables	-11.6424
▁0.0	-11.6427
oid	-11.6428
▁Header	-11.6431
▁Christians	-11.6434
▁Cu	-11.6443
ez	-11.6444
▁responding	-11.6444
▁spends	-11.6447
▁costly	-11.6449
wide	-11.6451
▁thereby	-11.6455
▁Had	-11.6457
Blessed	-11.6459
▁wire	-11.6462
Oh	-11.6464
▁irr	-11.6479
▁festivals	-11.6485
▁dr	-11.6489
▁focusing	-11.6493
▁99	-11.6498
▁elect	-11.6506
▁acquire	-11.6509
▁67	-11.6511
▁Miss	-11.6512
▁van	-11.6516
▁wizard	-11.6519
▁Align	-11.6519
▁Financial	-11.6519
▁Kantipur	-11.6519
▁Regular	-11.6519
▁Vietnam	-11.6519
▁bilateral	-11.6519
▁confess	-11.6519
▁controversial	-11.6519
▁cultivation	-11.6519
▁equivalent	-11.6519
▁mushroom	-11.6519
▁stadium	-11.6519
▁foreground	-11.6519
▁Chaldeans	-11.6519
▁liable	-11.6519
▁Indeed	-11.6519
▁unmarried	-11.6519
▁keen	-11.6519
▁Country	-11.6519
▁rainfall	-11.652
▁facebook	-11.6521
▁Stating	-11.6521
▁Horizontal	-11.6522
▁invented	-11.6525
▁Previously	-11.6525
▁Continue	-11.6525
▁manufactured	-11.6526
▁notify	-11.6532
▁crore	-11.6533
▁Brother	-11.6534
▁treasures	-11.6536
▁technicians	-11.6536
▁hu	-11.6536
▁globally	-11.6537
▁bone	-11.6539
new	-11.654
isation	-11.6551
▁seeks	-11.6553
▁Ran	-11.6557
rad	-11.6577
▁Az	-11.6579
▁agents	-11.6581
▁fade	-11.6584
class	-11.6589
▁Main	-11.6589
anga	-11.6604
▁al	-11.661
▁scribes	-11.6619
chu	-11.662
▁dish	-11.6622
▁hears	-11.6623
▁Members	-11.6625
▁bind	-11.6636
▁substantial	-11.6644
▁planets	-11.6644
▁guilt	-11.6645
kan	-11.6647
▁prosper	-11.6647
▁1961	-11.6649
▁Calculate	-11.6649
▁Eleazar	-11.6649
▁Expand	-11.6649
▁Leave	-11.6649
▁Request	-11.6649
▁acquainted	-11.6649
▁declaration	-11.6649
▁deployed	-11.6649
▁dominion	-11.6649
▁negotiate	-11.6649
▁temporarily	-11.6649
▁generating	-11.6649
▁Jammu	-11.6649
▁Kerala	-11.6649
▁availability	-11.6649
▁modification	-11.6649
▁paddy	-11.6649
▁Section	-11.6649
▁interpretation	-11.6649
▁1978	-11.6649
▁herbs	-11.6651
▁chip	-11.6654
▁Lama	-11.6654
▁Immediately	-11.6654
▁bold	-11.6654
▁graduated	-11.6655
▁combined	-11.6657
▁sync	-11.6657
▁thereafter	-11.666
▁indicator	-11.6664
▁thumbnail	-11.6664
▁upright	-11.667
▁flooded	-11.6674
▁structures	-11.6683
▁Cookies	-11.6683
85	-11.6684
▁74	-11.6701
▁refers	-11.6701
▁bases	-11.6704
moth	-11.6704
▁maps	-11.6704
mount	-11.6706
▁Kumar	-11.6709
▁advertisements	-11.671
lf	-11.6715
▁produces	-11.672
▁shower	-11.6722
▁Arab	-11.6724
▁poster	-11.6725
fall	-11.6728
▁fruitful	-11.6737
▁blogs	-11.6742
▁miracles	-11.6745
36	-11.6748
▁abominations	-11.6753
▁cleared	-11.6755
▁Ber	-11.676
▁Roman	-11.6764
vas	-11.6765
▁streams	-11.677
▁rotate	-11.6771
▁inspire	-11.6771
▁quote	-11.6771
▁beliefs	-11.6776
▁%1:	-11.6776
▁narrow	-11.678
▁Religion	-11.678
▁Turkish	-11.678
▁clarified	-11.678
▁slept	-11.678
▁Youtube	-11.678
▁tackle	-11.678
▁Shechem	-11.678
▁Large	-11.678
▁annum	-11.678
▁spokesman	-11.678
▁Euro	-11.6781
▁Pilate	-11.6781
▁transmitted	-11.6781
▁clay	-11.6781
▁march	-11.6782
▁classified	-11.6782
▁exceedingly	-11.6783
▁stepped	-11.6784
▁Bush	-11.6784
▁sickness	-11.6785
▁emphasized	-11.6786
▁keyring	-11.6787
key	-11.6787
▁listing	-11.6788
▁Really	-11.6791
▁businessmen	-11.6792
▁trumpet	-11.6798
▁pillar	-11.6798
▁corrupted	-11.68
▁reaches	-11.6803
▁knowledgeable	-11.6803
▁Doctor	-11.6804
years	-11.681
▁professionals	-11.6813
▁eggs	-11.6824
▁conversations	-11.6827
ole	-11.6827
64	-11.6828
▁doubled	-11.6832
▁openly	-11.6834
▁divisions	-11.6836
▁Fo	-11.6848
▁fed	-11.6849
west	-11.6856
▁Projects	-11.6857
▁Mac	-11.6859
▁directing	-11.6863
▁centered	-11.6864
mini	-11.687
frame	-11.6872
▁demanding	-11.6873
case	-11.6878
▁wr	-11.6879
▁breaking	-11.6882
▁Lot	-11.6884
date	-11.6891
are	-11.6897
▁Sing	-11.6905
▁Disc	-11.6906
▁exhibit	-11.6908
▁fla	-11.6908
▁2021.	-11.691
▁drunk	-11.6912
▁instant	-11.6913
decentralization	-11.6914
▁PDA	-11.6914
▁bride	-11.6914
▁fascinating	-11.6914
▁intelligence	-11.6914
▁medicinal	-11.6914
▁steadily	-11.6914
▁threshold	-11.6914
▁indication	-11.6914
▁Repeat	-11.6914
▁Furthermore	-11.6914
▁expertise	-11.6914
▁Stock	-11.6914
▁hunger	-11.6916
▁Drop	-11.6916
▁hardware	-11.6916
▁tries	-11.6916
▁paint	-11.6917
▁Brahma	-11.6918
▁periodic	-11.6918
▁Democracy	-11.692
▁defiled	-11.692
▁zones	-11.692
▁defence	-11.6921
▁obviously	-11.6923
▁Yeah	-11.6923
▁viruses	-11.693
▁correction	-11.6932
▁dozen	-11.6933
▁chariot	-11.6933
▁folk	-11.6933
▁800	-11.6934
▁craft	-11.6934
▁negotiations	-11.6938
▁Baba	-11.6941
ille	-11.6942
▁blamed	-11.6943
▁ancestors	-11.6944
▁competitors	-11.695
▁PC	-11.6952
▁cons	-11.6953
mates	-11.6957
▁Ministers	-11.6962
▁Surely	-11.6974
▁Programmes	-11.6978
▁foundations	-11.6978
▁joining	-11.6978
Surely	-11.6988
▁destroying	-11.6989
▁container	-11.6991
gging	-11.7014
phone	-11.7016
▁specially	-11.7021
Stand	-11.7025
aha	-11.7033
▁Times	-11.7035
▁divorce	-11.7039
▁shoulder	-11.704
▁hire	-11.704
▁favour	-11.704
▁traded	-11.704
▁stir	-11.7048
▁Capital	-11.7049
▁Bangalore	-11.7049
▁Insurance	-11.7049
▁Overwrite	-11.7049
▁Photograph	-11.7049
▁Retrieving	-11.7049
▁Society	-11.7049
▁attorney	-11.7049
▁blemish	-11.7049
▁charging	-11.7049
▁dismissed	-11.7049
▁ignorance	-11.7049
▁literacy	-11.7049
▁memorable	-11.7049
▁multiply	-11.7049
▁routine	-11.7049
▁separation	-11.7049
▁snake	-11.7049
▁specifies	-11.7049
▁spouse	-11.7049
▁supplies	-11.7049
▁universities	-11.7049
▁slipped	-11.7049
▁Ireland	-11.7049
▁Merge	-11.7049
▁Praise	-11.7049
▁Guard	-11.705
zi	-11.705
▁unlock	-11.705
▁anticipated	-11.7051
▁Browser	-11.7051
▁isolated	-11.7052
▁habitation	-11.7052
▁Afterward	-11.7055
▁cope	-11.7055
▁Hetauda	-11.7057
▁strangers	-11.7057
▁assembled	-11.7059
▁involve	-11.7059
▁melt	-11.7062
▁seller	-11.7068
▁forests	-11.707
▁hectare	-11.7071
▁tip	-11.7071
▁rams	-11.7076
▁refugee	-11.7077
rite	-11.7079
▁Mine	-11.708
▁Setting	-11.7081
▁spam	-11.7083
▁node	-11.7083
where	-11.7085
▁regards	-11.7088
▁strongly	-11.711
▁updates	-11.7111
▁consequences	-11.7111
76	-11.7116
aharu	-11.7117
▁Oli	-11.7118
rop	-11.712
▁rocks	-11.7123
MA	-11.7133
▁importing	-11.7139
▁horns	-11.7142
▁lend	-11.7143
▁incomplete	-11.7144
▁78	-11.7146
▁lab	-11.7146
▁Pen	-11.7161
iling	-11.7172
win	-11.7182
▁undertake	-11.7183
▁forsake	-11.7184
▁Amazon	-11.7186
▁Jericho	-11.7186
▁abilities	-11.7186
▁arriving	-11.7186
▁cigarette	-11.7186
▁imbalance	-11.7186
▁intensity	-11.7186
▁societies	-11.7186
▁solving	-11.7186
▁Changing	-11.7186
▁Drinking	-11.7186
▁equipped	-11.7186
▁parsing	-11.7186
▁leaf	-11.7186
▁Half	-11.7186
▁wireless	-11.7186
▁designer	-11.7187
▁Foundation	-11.7187
▁Pix	-11.719
▁thy	-11.7192
▁2001	-11.7192
NT	-11.7195
▁acceptable	-11.7195
▁57	-11.7198
▁jointly	-11.72
▁pursued	-11.7202
▁Hebrew	-11.7209
▁kit	-11.7209
▁perfectly	-11.7218
▁apostles	-11.7225
using	-11.7229
▁fails	-11.7233
▁ju	-11.7237
vation	-11.7238
grade	-11.7238
▁widows	-11.7239
▁devotees	-11.7241
ition	-11.7241
born	-11.7241
▁ref	-11.7242
▁estimates	-11.7243
▁Seeing	-11.7243
8,000	-11.7259
▁63	-11.726
▁guns	-11.727
press	-11.7278
▁Mad	-11.7286
▁advise	-11.7297
▁Israeli	-11.7307
▁entrepreneur	-11.7312
▁Age	-11.7312
▁Keys	-11.7316
post	-11.7319
▁Recent	-11.7322
▁assess	-11.7324
▁Agency	-11.7325
▁George	-11.7325
▁HIV	-11.7325
▁JavaScript	-11.7325
▁Minimum	-11.7325
▁Usually	-11.7325
▁circuit	-11.7325
▁deleting	-11.7325
▁legislation	-11.7325
▁remedy	-11.7325
▁sanctified	-11.7325
▁satellite	-11.7325
▁tremble	-11.7325
▁unfair	-11.7325
▁unsuccessful	-11.7325
▁Goddess	-11.7325
▁Tyre	-11.7325
▁URI	-11.7325
▁cedar	-11.7325
▁allocation	-11.7325
▁scholarship	-11.7325
▁Robert	-11.7325
▁Selah	-11.7325
▁motive	-11.7325
▁viral	-11.7325
▁civilization	-11.7326
▁breakpoint	-11.7326
▁modeling	-11.7326
▁replacement	-11.7328
▁interaction	-11.733
▁kindled	-11.7332
▁fame	-11.7337
▁upgraded	-11.7337
▁Join	-11.7338
▁greeting	-11.7341
▁cursed	-11.7348
▁fatal	-11.7348
▁Member	-11.735
▁investor	-11.7355
loo	-11.7355
▁Ali	-11.7358
▁Extra	-11.7365
▁afterward	-11.7369
:27	-11.7372
▁Images	-11.7382
▁Printer	-11.7392
▁prospects	-11.7397
fu	-11.7398
ller	-11.7403
04	-11.7404
▁beach	-11.7405
▁weigh	-11.7405
▁camps	-11.7405
▁trains	-11.7405
een	-11.7409
▁react	-11.741
▁medal	-11.7411
▁seal	-11.7421
▁fertilizers	-11.7422
▁homeless	-11.7424
tel	-11.7425
now	-11.7427
▁typed	-11.7432
▁Players	-11.7434
mate	-11.7436
▁appearing	-11.744
96	-11.7443
▁Pal	-11.7443
▁tall	-11.7452
▁slaughter	-11.7454
hen	-11.7456
▁plug	-11.7462
▁temp	-11.7463
▁Transport	-11.7464
▁subscribe	-11.7465
▁bills	-11.7465
▁flour	-11.7465
▁External	-11.7465
▁cabinet	-11.7465
▁celebrating	-11.7465
▁curriculum	-11.7465
▁desolation	-11.7465
▁mobilisation	-11.7465
▁multiplied	-11.7465
▁petroleum	-11.7465
▁securities	-11.7465
▁Dutch	-11.7465
▁Josiah	-11.7465
▁Thailand	-11.7466
▁Karnali	-11.7466
▁drain	-11.7466
▁discount	-11.7466
▁Abram	-11.7466
▁boundaries	-11.7466
▁disappointment	-11.7466
▁verse	-11.7466
▁priorities	-11.7466
▁Factory	-11.7467
▁rebel	-11.7467
▁oppression	-11.7467
▁consist	-11.7468
▁dialogue	-11.7468
▁shine	-11.7468
▁intent	-11.7468
▁90%	-11.747
▁discouraged	-11.747
elected	-11.7471
▁donor	-11.7471
▁yen	-11.7472
▁texture	-11.7474
▁hopeful	-11.7479
▁greeted	-11.748
▁69	-11.7484
page	-11.7489
▁gains	-11.749
▁broadcasting	-11.7491
▁boxes	-11.7491
▁lacking	-11.7493
▁Olympic	-11.7493
▁Based	-11.7495
add	-11.7497
▁exams	-11.7499
▁insects	-11.7499
▁praying	-11.7503
99	-11.7503
▁tri	-11.7504
▁Song	-11.7509
▁3,000	-11.7514
part	-11.7514
▁menus	-11.7516
▁husbands	-11.7517
▁wept	-11.7521
owned	-11.753
▁photographer	-11.7535
stro	-11.7536
▁bearing	-11.7542
apa	-11.7547
ola	-11.7548
text	-11.7549
▁1.5	-11.755
▁Non	-11.7575
▁dozens	-11.7587
▁Ken	-11.759
▁Inter	-11.7596
▁typical	-11.7603
nor	-11.7604
▁Mala	-11.7606
▁strategic	-11.7608
▁Accept	-11.7608
▁Attribute	-11.7608
▁Cricket	-11.7608
▁Digital	-11.7608
▁HMG	-11.7608
▁Investment	-11.7608
▁aborted	-11.7608
▁adversaries	-11.7608
▁mirror	-11.7608
▁motivation	-11.7608
▁nominated	-11.7608
▁perception	-11.7608
▁renovation	-11.7608
▁reputation	-11.7608
▁vitamin	-11.7608
▁afforestation	-11.7608
▁scrap	-11.7609
▁Midian	-11.7609
▁horsemen	-11.7609
▁eighteen	-11.7609
▁Shall	-11.761
▁polluted	-11.761
▁shipping	-11.7611
▁measurement	-11.7612
▁oppressed	-11.7615
▁awaiting	-11.7616
▁demonstrated	-11.7616
▁pasture	-11.7618
▁offence	-11.7618
▁travelers	-11.7622
▁83	-11.7624
▁sung	-11.7625
▁documentation	-11.7628
▁beg	-11.7631
▁initialize	-11.7633
▁Cost	-11.7634
▁abomination	-11.7638
▁vegetable	-11.7638
43	-11.7641
▁Sar	-11.7644
▁donkeys	-11.7646
▁Low	-11.7652
▁190	-11.7662
▁spices	-11.7663
▁Need	-11.7665
▁hunt	-11.7687
▁77	-11.7695
abad	-11.7698
▁Maoists	-11.77
55	-11.7711
▁activists	-11.7712
hang	-11.7713
bil	-11.7718
▁hid	-11.7719
ency	-11.7719
▁73	-11.7727
▁fishing	-11.773
▁virtual	-11.7748
▁ultimate	-11.7748
▁Bay	-11.7749
▁viewing	-11.7751
▁Bethlehem	-11.7753
▁Himalayan	-11.7753
▁Switzerland	-11.7753
▁combat	-11.7753
▁consecutive	-11.7753
▁knock	-11.7753
▁observing	-11.7753
▁opacity	-11.7753
▁serpent	-11.7753
▁violation	-11.7753
▁disadvantage	-11.7753
▁swap	-11.7753
▁Bagmati	-11.7753
▁snare	-11.7753
▁buddy	-11.7753
▁fiber	-11.7753
▁Entry	-11.7754
▁Almost	-11.7754
▁astray	-11.7754
▁devil	-11.7754
▁resistance	-11.7754
▁incoming	-11.7754
▁Authority	-11.7755
▁1979	-11.7755
▁hack	-11.7755
▁17:22	-11.7755
▁Death	-11.7755
▁thrilled	-11.7756
▁functioning	-11.7757
▁Code	-11.7759
▁lightning	-11.7759
SE	-11.776
rie	-11.7761
▁rendered	-11.7763
▁differs	-11.7764
▁hanged	-11.7764
▁outlay	-11.7765
ING	-11.7779
▁sail	-11.7782
▁females	-11.7784
▁boil	-11.7785
▁Veda	-11.7788
▁airline	-11.779
▁Lamb	-11.7791
▁1999	-11.7799
▁buyer	-11.78
▁2,000	-11.7805
▁Dang	-11.781
conf	-11.7816
▁`':	-11.7817
▁edited	-11.7819
TE	-11.782
AT	-11.7823
▁Form	-11.7831
▁alike	-11.7833
38	-11.7836
▁Tan	-11.7841
▁cared	-11.7843
left	-11.7844
New	-11.7845
▁albums	-11.7857
lib	-11.7861
code	-11.7862
lay	-11.7867
▁Han	-11.7873
▁Checking	-11.7874
▁mourn	-11.7875
▁SO	-11.7882
▁float	-11.7887
▁impart	-11.7889
▁dose	-11.7896
▁magic	-11.7897
▁Del	-11.7897
tak	-11.7898
▁worn	-11.79
▁1983/84	-11.79
▁6:44	-11.79
▁Almighty	-11.79
▁Election	-11.79
▁Picture	-11.79
▁Pradesh	-11.79
▁Washington	-11.79
▁Wuhan	-11.79
▁continent	-11.79
▁defect	-11.79
▁desirable	-11.79
▁integral	-11.79
▁introduction	-11.79
▁meditation	-11.79
▁ministries	-11.79
▁steel	-11.79
▁harsh	-11.79
▁youtube	-11.79
▁loop	-11.79
▁Judge	-11.79
▁combo	-11.7901
▁Valid	-11.7901
▁Senate	-11.7901
▁considerably	-11.7901
ography	-11.7902
▁Case	-11.7904
▁alongside	-11.7904
▁transition	-11.7905
▁Max	-11.7905
▁outstanding	-11.7906
▁Team	-11.7907
▁reserved	-11.7908
▁Pass	-11.7908
▁effectiveness	-11.7911
?'"	-11.7911
▁binding	-11.7915
eh	-11.7916
▁healing	-11.7922
▁vow	-11.7923
unch	-11.7924
▁balls	-11.7931
▁hormone	-11.7934
▁scribe	-11.7934
▁lamb	-11.7934
▁instrument	-11.7934
▁Way	-11.7942
▁formats	-11.7946
▁append	-11.7954
▁Hold	-11.7954
plication	-11.796
▁Tests	-11.7965
minute	-11.799
free	-11.799
▁Items	-11.7993
▁quarters	-11.7995
▁sells	-11.8001
▁Kig	-11.8004
▁hence	-11.8007
active	-11.8009
▁wo	-11.801
▁exporting	-11.8013
▁backed	-11.8016
evi	-11.8019
▁Accordingly	-11.8019
▁Dhan	-11.802
▁adopt	-11.8022
▁du	-11.8025
▁certificates	-11.8026
▁asset	-11.8026
nah	-11.8031
▁Train	-11.8038
▁finals	-11.8039
▁analyze	-11.804
him	-11.8043
▁extreme	-11.8045
▁lamps	-11.8045
▁utter	-11.8046
▁Rep	-11.8046
▁warrant	-11.8047
▁excess	-11.8049
▁poison	-11.8049
▁Available	-11.805
▁Damascus	-11.805
▁Focus	-11.805
▁Rachel	-11.805
▁decimal	-11.805
▁delegate	-11.805
▁executing	-11.805
▁expelled	-11.805
▁prefix	-11.805
▁purple	-11.805
▁liability	-11.805
▁resort	-11.805
▁Donald	-11.805
▁olive	-11.805
▁veil	-11.805
▁Output	-11.805
▁guru	-11.8051
▁entertainment	-11.8051
26	-11.8051
▁shopping	-11.8051
▁consistently	-11.8053
▁1975	-11.8054
▁Assign	-11.8054
▁MY	-11.8055
▁demonstration	-11.8056
▁despised	-11.8057
hel	-11.8058
▁spirits	-11.8058
zier	-11.806
▁controlling	-11.8062
▁Goa	-11.8065
▁smallest	-11.8066
▁30%	-11.8068
ore	-11.8071
▁tale	-11.8071
▁promises	-11.8073
▁Bhu	-11.8076
▁shore	-11.808
▁elder	-11.8081
▁rope	-11.8083
▁shepherd	-11.8085
▁flame	-11.8086
-4	-11.8093
ump	-11.8098
▁hang	-11.8108
▁strengths	-11.8115
▁Hand	-11.8121
▁76	-11.8121
ologist	-11.8125
▁82	-11.8131
▁(0	-11.8131
▁ox	-11.8139
rub	-11.8141
▁87	-11.8144
▁specialists	-11.8145
▁Searching	-11.8146
▁ranks	-11.8146
▁Lin	-11.8147
▁authored	-11.8152
hai	-11.8153
miss	-11.8158
▁trans	-11.817
▁roots	-11.8172
ota	-11.8173
▁Pad	-11.8174
▁cooperatives	-11.8175
▁Mill	-11.8189
▁redeem	-11.819
▁predict	-11.819
lal	-11.8191
▁cultures	-11.8191
▁calculate	-11.8192
▁ok	-11.8192
▁Symbol	-11.8192
lia	-11.8194
▁Vertical	-11.8196
▁Count	-11.8197
▁schooling	-11.8197
▁Punjab	-11.8199
▁magnet	-11.82
▁1962	-11.8201
▁1967	-11.8201
▁Already	-11.8201
▁chicken	-11.8201
▁cholesterol	-11.8201
▁competing	-11.8201
▁ensuring	-11.8201
▁evolution	-11.8201
▁fantastic	-11.8201
▁imagination	-11.8201
▁imprisonment	-11.8201
▁milliseconds	-11.8201
▁nowadays	-11.8201
▁occupied	-11.8201
▁penalty	-11.8201
▁qualitative	-11.8201
▁timing	-11.8201
▁vocational	-11.8201
▁(%1)	-11.8201
▁Esther	-11.8201
▁contend	-11.8201
▁gospel	-11.8201
▁gallery	-11.8201
▁trace	-11.8201
▁stirred	-11.8201
▁Restore	-11.8201
▁Laban	-11.8202
▁males	-11.8202
▁Stay	-11.8202
▁brightness	-11.8203
▁1964	-11.8203
▁constituted	-11.8206
▁photography	-11.8207
▁insist	-11.8207
▁Directory	-11.8207
▁Gold	-11.821
▁assumed	-11.821
▁Around	-11.8211
thi	-11.8212
▁predicted	-11.8213
▁accorded	-11.8215
▁chapters	-11.8219
▁preserved	-11.8219
▁Woe	-11.8222
▁connects	-11.8226
▁diff	-11.8229
▁bothered	-11.8229
▁symptom	-11.824
▁endure	-11.824
▁bat	-11.8242
east	-11.825
▁breaks	-11.8253
urse	-11.8257
▁flaws	-11.8266
ena	-11.8267
▁Colors	-11.8267
▁communications	-11.8268
▁singers	-11.8276
▁graphics	-11.8278
rai	-11.8279
▁Sheol	-11.8296
nda	-11.83
Get	-11.8301
▁cap	-11.8303
OR	-11.8315
▁Bal	-11.8328
▁statements	-11.833
▁remembers	-11.8335
▁appoint	-11.8342
▁assume	-11.8345
▁combine	-11.8345
▁invite	-11.8347
▁Final	-11.835
▁eleven	-11.8351
▁struggles	-11.8354
▁entertain	-11.8354
▁projection	-11.8354
▁Abimelech	-11.8355
▁Authentication	-11.8355
▁Bhandari	-11.8355
▁Bhattarai	-11.8355
▁Statistics	-11.8355
▁admission	-11.8355
▁believing	-11.8355
▁involving	-11.8355
▁revelation	-11.8355
▁revision	-11.8355
▁typing	-11.8355
▁Version	-11.8355
▁thigh	-11.8355
▁Shift	-11.8355
▁mature	-11.8356
▁tank	-11.8356
▁Satan	-11.8356
▁evacuated	-11.8357
▁keymap	-11.8358
▁derived	-11.8359
▁regardless	-11.8359
▁lean	-11.836
▁hardship	-11.8361
▁roughly	-11.8361
▁adversely	-11.8363
▁deceived	-11.8364
▁redeemed	-11.8367
▁Cho	-11.8371
▁hail	-11.8372
▁700	-11.8372
▁Ly	-11.8377
▁impacts	-11.8379
▁accountable	-11.8379
▁pet	-11.8381
▁workplace	-11.8382
erah	-11.8383
▁bother	-11.8385
▁rainy	-11.8387
▁repaired	-11.8389
▁Jehu	-11.839
▁holes	-11.8393
▁muscle	-11.8396
uku	-11.84
▁investigations	-11.8403
cut	-11.8406
yes	-11.8413
▁counting	-11.8414
▁prevented	-11.8414
lig	-11.8416
▁displays	-11.8419
▁gar	-11.8421
▁readable	-11.8429
▁represents	-11.8434
▁Too	-11.8437
▁attributes	-11.8439
▁ME	-11.8444
▁DO	-11.8448
▁Youth	-11.8452
▁Rights	-11.8452
flow	-11.8457
▁dangers	-11.8461
▁defines	-11.8466
org	-11.8469
▁skillful	-11.8474
bel	-11.848
ban	-11.8485
cast	-11.8485
▁Displays	-11.8492
▁Provide	-11.8493
▁breasts	-11.8504
▁fourteen	-11.8507
By	-11.8508
▁Browse	-11.8508
▁Colombia	-11.8511
▁Marriage	-11.8511
▁Rural	-11.8511
▁abortion	-11.8511
▁confined	-11.8511
▁leprosy	-11.8511
▁mathematics	-11.8511
▁satisfaction	-11.8511
▁sensor	-11.8511
▁minimal	-11.8511
▁embedded	-11.8511
▁cement	-11.8511
▁relieve	-11.8511
▁entity	-11.8511
▁aroma	-11.8511
▁unconscious	-11.8512
▁prosperous	-11.8512
▁retail	-11.8512
▁Story	-11.8512
▁testified	-11.8513
▁scary	-11.8514
▁confused	-11.8514
▁Wales	-11.8514
▁protesters	-11.8515
▁Vice	-11.8515
▁reside	-11.8517
▁MW	-11.8517
▁stopping	-11.8518
lap	-11.8518
▁researching	-11.8519
▁makers	-11.8521
▁calculated	-11.8521
▁pu	-11.8523
▁specification	-11.8523
▁county	-11.8526
▁Manage	-11.8526
▁ceased	-11.8527
▁hosts	-11.8539
▁MP	-11.8544
▁rear	-11.8548
▁rating	-11.8549
▁spots	-11.8551
▁rings	-11.8553
▁socialist	-11.8554
▁Amorites	-11.8556
▁approached	-11.8558
▁Egyptian	-11.8558
▁Card	-11.8561
▁musician	-11.8561
▁reasonable	-11.8568
▁tickets	-11.8569
▁Row	-11.857
▁parks	-11.858
▁Gan	-11.858
▁tissues	-11.8593
hite	-11.8596
▁questioned	-11.8602
▁blessings	-11.8604
▁worrying	-11.861
dai	-11.8613
▁Cap	-11.8616
22	-11.8618
rah	-11.8623
hed	-11.8628
▁colours	-11.8633
▁medications	-11.8641
▁neighbour	-11.8657
iba	-11.8658
▁Support	-11.8658
▁mock	-11.866
▁deceive	-11.866
▁pic	-11.8662
▁2016,	-11.8665
▁absolute	-11.8665
▁teen	-11.8669
▁transmit	-11.8669
edekiah	-11.867
▁Federation	-11.867
▁Festival	-11.867
▁Greece	-11.867
▁Nowadays	-11.867
▁Split	-11.867
▁anxious	-11.867
▁brook	-11.867
▁enthusiasm	-11.867
▁happiest	-11.867
▁interior	-11.867
▁magnitude	-11.867
▁revised	-11.867
▁sworn	-11.867
▁behaviour	-11.867
▁gnome	-11.867
▁bury	-11.867
▁variant	-11.867
▁tooltip	-11.867
▁triangle	-11.867
▁Florida	-11.867
▁Canadian	-11.867
▁Madrid	-11.867
▁outdoor	-11.867
▁genetic	-11.867
▁Poland	-11.8671
▁poles	-11.8672
▁cake	-11.8672
▁spotted	-11.8674
▁Developer	-11.8675
▁Undo	-11.8675
▁Additionally	-11.8676
▁renewed	-11.8676
▁posed	-11.8677
▁Paulo	-11.8678
▁stops	-11.8685
▁suspected	-11.8686
▁TB	-11.8686
▁bears	-11.8687
▁devoured	-11.8687
▁illegally	-11.8688
hir	-11.8689
▁extracted	-11.869
▁30-	-11.8694
had	-11.8708
);	-11.871
▁activist	-11.8715
▁passenger	-11.8716
▁keywords	-11.8718
▁Step	-11.8722
▁shareholders	-11.8723
▁stressed	-11.8725
▁seated	-11.8727
▁Raise	-11.8733
▁bulls	-11.8734
rse	-11.8737
▁shekels	-11.8742
▁Rule	-11.8753
devi	-11.8753
▁Printing	-11.8757
▁logic	-11.876
▁deceit	-11.8768
▁flows	-11.8768
yu	-11.877
western	-11.8771
dding	-11.8778
water	-11.8779
▁Gha	-11.8779
▁str	-11.878
size	-11.8782
US	-11.8803
▁partly	-11.8805
▁involves	-11.8806
▁answering	-11.8812
▁sustain	-11.8818
▁scatter	-11.882
▁leak	-11.882
▁associate	-11.8822
lai	-11.8822
:26	-11.8824
ndi	-11.8826
▁corn	-11.8827
▁repent	-11.8831
▁1963	-11.8831
▁Affairs	-11.8831
▁Blood	-11.8831
▁Population	-11.8831
▁Ukraine	-11.8831
▁algorithm	-11.8831
▁distortion	-11.8831
▁embrace	-11.8831
▁integration	-11.8831
▁kitchen	-11.8831
▁removal	-11.8831
▁scenario	-11.8831
▁screenshot	-11.8831
▁histogram	-11.8831
▁overthrow	-11.8831
▁telescope	-11.8831
▁tribute	-11.8831
▁sweat	-11.8831
▁Balaam	-11.8832
▁lust	-11.8832
▁1974	-11.8833
▁Feed	-11.8833
▁String	-11.8833
▁classification	-11.8833
cial	-11.8833
▁healthcare	-11.8834
▁Exit	-11.8835
▁shaken	-11.8836
rma	-11.8836
arian	-11.8837
▁disturbed	-11.8838
▁fingers	-11.8838
▁belt	-11.8839
▁violated	-11.8839
▁unexpectedly	-11.884
▁favourite	-11.884
▁managing	-11.884
raw	-11.8842
ounce	-11.8844
▁investigated	-11.8845
▁meter	-11.8845
▁consisting	-11.8846
▁hath	-11.8847
▁Speak	-11.8849
1,000	-11.885
▁quietly	-11.8852
▁Israelites	-11.8854
▁84	-11.8867
▁Madan	-11.8871
oli	-11.8872
▁lover	-11.8874
▁proposals	-11.8879
▁manufacturer	-11.8882
▁greatness	-11.8892
▁Hari	-11.8894
▁multitudes	-11.8895
▁mar	-11.8898
▁failures	-11.8898
▁merchants	-11.891
▁Dia	-11.8911
bol	-11.8913
ught	-11.8914
▁vaccines	-11.8918
▁weep	-11.8919
▁projected	-11.8921
08	-11.8921
▁rested	-11.8922
▁Hills	-11.8927
used	-11.8929
round	-11.8932
connect	-11.8935
three	-11.8935
some	-11.8936
rum	-11.8938
pati	-11.8948
▁Warn	-11.8967
▁edges	-11.8973
gy	-11.8981
▁retain	-11.8983
▁proclaim	-11.8984
▁announce	-11.8985
▁collaborate	-11.8986
▁enjoys	-11.8991
▁suspects	-11.8992
▁Bhairahawa	-11.8995
▁Consumer	-11.8995
▁DNA	-11.8995
▁Extension	-11.8995
▁Federal	-11.8995
▁Hyderabad	-11.8995
▁advisor	-11.8995
▁arguing	-11.8995
▁contrast	-11.8995
▁literally	-11.8995
▁molecule	-11.8995
▁necessarily	-11.8995
▁smell	-11.8995
▁invisible	-11.8995
▁10:39	-11.8995
▁forecast	-11.8995
▁Plus	-11.8995
▁Shivraj	-11.8995
▁Blue	-11.8995
▁Camera	-11.8996
▁Graph	-11.8996
▁Design	-11.8996
▁Bashan	-11.8996
▁Phone	-11.8996
▁Angeles	-11.8996
▁nakedness	-11.8996
▁exile	-11.8996
▁Mouse	-11.8997
▁Harry	-11.8997
▁diesel	-11.8998
▁Comment	-11.8998
▁Martin	-11.8998
▁Deep	-11.8998
▁boss	-11.8998
▁Getting	-11.8998
▁differentiate	-11.8999
▁Reply	-11.9001
▁mountainous	-11.9001
▁par	-11.9001
▁unprecedented	-11.9002
▁recognised	-11.9002
▁reflection	-11.9003
▁borrowed	-11.9004
▁socialism	-11.9009
▁preached	-11.9013
▁va	-11.9014
▁formally	-11.9016
▁Trans	-11.9017
▁dressed	-11.902
▁Range	-11.9022
▁determination	-11.903
▁erase	-11.9038
▁washing	-11.9042
▁Nu	-11.9043
▁Tim	-11.9043
▁viewers	-11.9043
gal	-11.9046
▁fertilizer	-11.9047
▁allegations	-11.9054
▁arts	-11.9063
▁armor	-11.9063
▁1.0	-11.9068
▁Copying	-11.9073
pani	-11.9082
&	-11.9102
making	-11.9105
▁goodness	-11.9112
▁exceptional	-11.9112
non	-11.9117
▁endures	-11.912
pul	-11.9123
▁render	-11.9139
▁Sah	-11.914
27	-11.9141
▁reactions	-11.9143
▁contracts	-11.9144
oo	-11.9146
▁pack	-11.915
▁concentrate	-11.9152
gate	-11.9153
mination	-11.9158
▁Communication	-11.9162
▁Conference	-11.9162
▁DVD	-11.9162
▁Different	-11.9162
▁Himalayas	-11.9162
▁Major	-11.9162
▁Module	-11.9162
▁Nautilus	-11.9162
▁SEO	-11.9162
▁Scroll	-11.9162
▁Supply	-11.9162
▁compulsory	-11.9162
▁identifier	-11.9162
▁inflation	-11.9162
▁prescribed	-11.9162
▁unsaved	-11.9162
▁Curve	-11.9162
▁convey	-11.9162
▁revive	-11.9162
▁sixteen	-11.9162
▁gender	-11.9162
▁gonna	-11.9162
▁inquiry	-11.9162
▁Pilot	-11.9162
▁digging	-11.9162
▁Things	-11.9162
▁cherubim	-11.9162
▁baseball	-11.9162
▁municipality	-11.9162
▁harp	-11.9162
▁enforcement	-11.9162
▁fellowship	-11.9162
▁Restart	-11.9163
▁reconciled	-11.9163
▁pending	-11.9163
▁sack	-11.9164
▁factories	-11.9164
▁outbreak	-11.9165
▁aligned	-11.9165
▁warranty	-11.9165
▁funny	-11.9166
▁commenced	-11.917
▁defendant	-11.9172
▁proclaimed	-11.9174
▁newborn	-11.9174
▁raped	-11.9176
rick	-11.918
▁rejoiced	-11.9193
▁filming	-11.9193
▁belonging	-11.9195
▁Ramah	-11.9199
▁charm	-11.92
▁opponent	-11.9215
▁horn	-11.9218
▁Ac	-11.9218
▁contributions	-11.922
▁paste	-11.9222
jan	-11.9226
▁casinos	-11.9249
▁differently	-11.9256
▁Syrians	-11.9258
▁Vo	-11.9262
▁phrases	-11.9265
▁exercises	-11.9279
▁nurses	-11.9288
▁sur	-11.9296
▁interact	-11.93
▁guides	-11.9315
▁lovers	-11.932
▁Short	-11.9326
▁empower	-11.933
▁Prior	-11.933
▁Catholic	-11.9331
▁InfoBox	-11.9331
▁Kabul	-11.9331
▁Mordecai	-11.9331
▁Specifies	-11.9331
▁Television	-11.9331
▁battling	-11.9331
▁displaced	-11.9331
▁ecosystem	-11.9331
▁engraved	-11.9331
▁genuine	-11.9331
▁glorious	-11.9331
▁regret	-11.9331
▁replies	-11.9331
▁resurrection	-11.9331
▁rhythm	-11.9331
▁satisfactory	-11.9331
▁translator	-11.9331
▁Georgia	-11.9331
▁fathom	-11.9331
▁cotton	-11.9331
▁varied	-11.9331
▁ICU	-11.9331
▁Price	-11.9331
▁Thread	-11.9331
▁tribal	-11.9331
▁Motor	-11.9332
▁implies	-11.9332
▁dependency	-11.9332
▁tap	-11.9332
▁rebelled	-11.9332
▁Alpha	-11.9332
▁Dhaka	-11.9332
▁Nature	-11.9332
▁Tree	-11.9332
▁tensions	-11.9332
▁dependence	-11.9333
▁1968	-11.9333
▁representation	-11.9334
▁Filename	-11.9335
▁wounds	-11.9335
▁Bari	-11.9335
▁roar	-11.9335
▁inhabited	-11.9336
77	-11.9337
ball	-11.9339
char	-11.9339
▁Sin	-11.9339
▁Month	-11.934
▁infections	-11.9342
▁chains	-11.9342
▁rendering	-11.9345
▁rush	-11.9347
▁adviser	-11.9353
lly	-11.9355
oma	-11.9355
▁spec	-11.9356
▁Blog	-11.9362
cher	-11.9366
▁presenting	-11.9372
▁drives	-11.9373
▁Aren	-11.9375
▁tail	-11.9377
▁strings	-11.9377
▁surge	-11.9379
▁Yu	-11.9382
▁heavenly	-11.9385
▁1:1	-11.9386
▁additionally	-11.9388
▁codes	-11.939
▁feat	-11.9392
▁sinners	-11.9392
▁fulfilling	-11.9392
Pro	-11.9395
▁expectation	-11.9397
▁Lal	-11.9404
▁ads	-11.9405
2,000	-11.9407
▁castle	-11.9412
▁Points	-11.9414
lag	-11.9425
46	-11.9431
▁reserves	-11.9438
▁altars	-11.9441
service	-11.9444
which	-11.9444
▁Gar	-11.9444
▁demon	-11.9446
▁responses	-11.9452
▁shepherds	-11.9463
▁Bel	-11.9464
▁Chat	-11.9469
▁caps	-11.947
ei	-11.9475
▁Kali	-11.9477
▁priced	-11.9479
▁Er	-11.9481
▁Russians	-11.9481
▁crores	-11.9485
dev	-11.9486
▁Direct	-11.949
▁2017,	-11.9493
don	-11.9496
oon	-11.9497
▁sudden	-11.9499
▁clash	-11.9501
▁config	-11.9503
▁"%2"	-11.9504
▁PGP	-11.9504
▁Somebody	-11.9504
▁Unsupported	-11.9504
▁aggressive	-11.9504
▁airplane	-11.9504
▁browsing	-11.9504
▁communicating	-11.9504
▁compelled	-11.9504
▁cumulative	-11.9504
▁exposure	-11.9504
▁happier	-11.9504
▁navigation	-11.9504
▁practicing	-11.9504
▁swift	-11.9504
▁throat	-11.9504
▁unleavened	-11.9504
▁worm	-11.9504
▁Element	-11.9504
▁rotation	-11.9504
▁vagina	-11.9504
▁venue	-11.9504
▁Define	-11.9504
▁cyber	-11.9504
▁clone	-11.9504
▁reverse	-11.9504
▁tariff	-11.9504
▁unsure	-11.9504
▁Function	-11.9504
▁midnight	-11.9504
▁carrier	-11.9504
▁Abner	-11.9504
▁alien	-11.9505
▁Upper	-11.9505
▁potatoes	-11.9505
▁plus	-11.9505
▁Sarah	-11.9506
▁Rajya	-11.9506
▁thirsty	-11.9506
▁slide	-11.9506
▁checkbox	-11.9507
▁statusbar	-11.9507
▁Cell	-11.9507
▁dissolved	-11.9507
▁Camp	-11.9507
▁Musician	-11.9507
▁persecuted	-11.9508
aiah	-11.9509
▁decrypt	-11.9509
▁ultimately	-11.951
▁audit	-11.9511
▁formatting	-11.9511
▁cheat	-11.9512
▁93	-11.9513
▁weekend	-11.9513
▁cleansed	-11.9515
▁2021	-11.9515
▁analyzed	-11.9515
▁imply	-11.9517
▁timeout	-11.9522
▁touches	-11.9524
▁wholly	-11.9525
▁attained	-11.9526
gna	-11.9529
▁formerly	-11.9537
Jo	-11.9538
▁internally	-11.954
▁bets	-11.9542
pel	-11.9542
▁guided	-11.9546
▁Tar	-11.9548
▁Kings	-11.955
▁Chu	-11.9554
▁organizer	-11.9554
▁eighty	-11.9557
▁ritual	-11.9563
▁Mum	-11.9564
▁characteristic	-11.9565
▁soap	-11.9567
▁cleanse	-11.9567
86	-11.9572
▁movements	-11.9575
▁hosted	-11.9578
▁gro	-11.9579
▁Kir	-11.9598
hun	-11.9611
power	-11.9612
▁rituals	-11.9619
People	-11.9619
▁fearful	-11.9634
▁translations	-11.9635
▁Talk	-11.9635
▁token	-11.9643
▁boards	-11.9644
▁preparations	-11.9662
▁saver	-11.9665
▁manufacture	-11.9666
▁restaurants	-11.9668
▁lodge	-11.967
▁emerge	-11.967
▁inquire	-11.967
▁browse	-11.9671
▁criminals	-11.9671
▁robber	-11.9676
3,000	-11.9678
▁88	-11.9678
▁unlike	-11.9678
▁Credit	-11.9679
▁Description	-11.9679
▁Gideon	-11.9679
▁Virtual	-11.9679
▁biological	-11.9679
▁drank	-11.9679
▁enhancing	-11.9679
▁forbidden	-11.9679
▁grandmother	-11.9679
▁metadata	-11.9679
▁overwhelmed	-11.9679
▁utilizing	-11.9679
▁closure	-11.9679
▁sentiment	-11.9679
▁sphere	-11.9679
▁stack	-11.9679
▁Tourist	-11.9679
▁stamp	-11.9679
▁Sodom	-11.9679
▁giant	-11.9679
▁rumor	-11.9679
▁Perform	-11.9679
▁stylesheet	-11.968
▁fortified	-11.968
▁leap	-11.968
▁orange	-11.968
▁favourable	-11.9681
▁fax	-11.9681
▁realistic	-11.9681
▁laughter	-11.9681
▁agenda	-11.9684
▁gang	-11.9685
▁symbolic	-11.9689
▁strictly	-11.969
▁Waiting	-11.969
▁blend	-11.9693
▁consuming	-11.9693
▁acknowledged	-11.9693
▁Java	-11.9693
▁Want	-11.9693
udi	-11.9694
▁1920	-11.9695
hop	-11.9695
uru	-11.9695
▁herds	-11.9699
▁Letter	-11.97
▁pushed	-11.97
▁belonged	-11.9709
▁lengthy	-11.971
▁avenge	-11.9715
▁apple	-11.9716
town	-11.9719
▁mat	-11.9722
▁flags	-11.9726
9,000	-11.9728
▁counselor	-11.9732
▁seminar	-11.9742
▁enterprise	-11.9742
ua	-11.9742
▁colleague	-11.9742
▁Resource	-11.9743
▁cord	-11.9748
▁sender	-11.9765
▁cups	-11.9766
▁Balak	-11.9771
gad	-11.9772
▁Fer	-11.9784
▁Documents	-11.979
▁Bho	-11.9793
screen	-11.9796
▁12-	-11.9799
▁Rama	-11.9805
▁resides	-11.9808
▁lions	-11.9811
nne	-11.9815
▁hormones	-11.9817
▁prevents	-11.982
▁Hindus	-11.9824
▁61	-11.9825
▁Ash	-11.9827
poli	-11.9834
▁Option	-11.9836
▁Sw	-11.9837
▁publisher	-11.984
▁ration	-11.984
dhar	-11.9842
▁arrange	-11.9847
▁Mur	-11.9853
▁Marx	-11.9857
▁jewel	-11.9858
▁Lalitpur	-11.9858
▁Railway	-11.9858
▁Ronaldo	-11.9858
▁Summit	-11.9858
▁depressed	-11.9858
▁devotion	-11.9858
▁dismayed	-11.9858
▁mysterious	-11.9858
▁nutritious	-11.9858
▁plunder	-11.9858
▁recurrence	-11.9858
▁shattered	-11.9858
▁unwanted	-11.9858
▁vulnerable	-11.9858
▁porn	-11.9858
▁asylum	-11.9858
▁generic	-11.9858
▁Sidon	-11.9858
▁Guide	-11.9859
▁impression	-11.9859
▁assessment	-11.9859
India	-11.9859
▁stronghold	-11.9859
▁liquidity	-11.986
▁raid	-11.986
▁Active	-11.986
▁administered	-11.9861
▁overnight	-11.9861
▁Store	-11.9861
▁flash	-11.9861
▁fond	-11.9861
▁4:26	-11.9862
▁controller	-11.9862
▁Tax	-11.9862
▁Shortly	-11.9863
▁pronounced	-11.9863
ttle	-11.9864
▁favorable	-11.9864
▁80%	-11.9866
▁Haman	-11.9866
▁2014,	-11.9867
OS	-11.9868
▁purchases	-11.9868
▁unite	-11.987
▁Oil	-11.987
▁shouted	-11.9874
▁jumped	-11.9876
▁stealing	-11.9878
▁Sita	-11.9885
▁resize	-11.9885
ological	-11.9889
▁1994	-11.9891
▁Butwal	-11.9895
▁honoured	-11.9896
▁laughing	-11.9898
▁Jag	-11.9901
▁dwells	-11.9904
▁squ	-11.9905
▁disputed	-11.9905
▁toolbars	-11.9906
▁rank	-11.9909
▁optional	-11.9915
PL	-11.9919
▁parked	-11.992
▁claiming	-11.9923
▁ordinance	-11.9924
▁Working	-11.9931
▁Lok	-11.9933
▁decreases	-11.9933
▁feeding	-11.9933
▁tongues	-11.9937
▁1%	-11.9947
▁Maoist	-11.9949
▁Award	-11.995
iff	-11.9953
▁coin	-11.9958
ano	-11.996
▁Panch	-11.9964
mbu	-11.9976
turn	-11.998
will	-11.9984
km	-11.9988
menu	-12
▁000	-12.0004
▁Shar	-12.0007
▁troubles	-12.0007
▁infrastructures	-12.0008
uanta	-12.0009
kai	-12.0009
▁prevail	-12.0015
▁prompt	-12.0023
▁Deu	-12.0024
ense	-12.0025
▁Build	-12.0026
▁swallow	-12.0028
▁urge	-12.003
▁demonstrate	-12.003
▁psychological	-12.0035
▁Compute	-12.0036
▁capita	-12.0038
▁Confirm	-12.0038
▁uniform	-12.0038
elecommunication	-12.004
▁Clean	-12.004
▁Domestic	-12.004
▁Microsoft	-12.004
▁Representative	-12.004
▁Signature	-12.004
▁awhile	-12.004
▁bridegroom	-12.004
▁calculation	-12.004
▁daemon	-12.004
▁decoration	-12.004
▁despair	-12.004
▁fertility	-12.004
▁iniquities	-12.004
▁lampstand	-12.004
▁mobilization	-12.004
▁nursing	-12.004
▁qualify	-12.004
▁quantities	-12.004
▁sanctify	-12.004
▁steady	-12.004
▁Conditions	-12.004
▁Sample	-12.004
▁binary	-12.004
▁organic	-12.004
▁Simeon	-12.004
▁legend	-12.004
▁tech	-12.004
▁Arjun	-12.004
▁Berlin	-12.004
▁republic	-12.004
▁lease	-12.004
▁Democratic	-12.004
▁Jones	-12.0041
▁Playlist	-12.0041
midd	-12.0041
▁Nathan	-12.0041
▁Bridge	-12.0041
▁attendee	-12.0041
▁classic	-12.0041
▁voters	-12.0043
▁Often	-12.0043
▁Asaph	-12.0043
▁Dhankuta	-12.0047
▁perceived	-12.0047
▁progressive	-12.0051
▁nest	-12.0052
▁commerce	-12.0056
NS	-12.0064
▁heating	-12.0066
▁suited	-12.0069
▁lately	-12.007
▁infants	-12.0079
▁colored	-12.0083
▁physicians	-12.0084
His	-12.0084
▁extending	-12.0087
▁fo	-12.0092
ford	-12.0094
▁crashed	-12.0094
▁reserve	-12.0099
▁installing	-12.0104
▁knee	-12.0109
▁Levite	-12.0111
▁segments	-12.0111
ui	-12.0118
hra	-12.0121
▁sorting	-12.0127
RS	-12.0133
▁rational	-12.014
%1	-12.0147
66	-12.0157
▁clicked	-12.0158
adok	-12.0159
called	-12.0164
▁Gath	-12.0169
Bring	-12.017
ending	-12.017
iro	-12.0171
other	-12.0202
▁hardly	-12.0204
▁Jer	-12.0205
▁condemn	-12.0212
▁Frames	-12.0215
▁ascend	-12.0216
cide	-12.0219
▁Roads	-12.0222
▁Chelsea	-12.0225
▁Electricity	-12.0225
▁Opposition	-12.0225
▁SAARC	-12.0225
▁Scheme	-12.0225
▁Studies	-12.0225
▁assemblies	-12.0225
▁equity	-12.0225
▁ignorant	-12.0225
▁literary	-12.0225
▁receipt	-12.0225
▁scarcity	-12.0225
▁worthwhile	-12.0225
▁deemed	-12.0225
▁beverage	-12.0225
▁innovation	-12.0225
▁freight	-12.0225
▁thunder	-12.0225
▁Coordination	-12.0225
▁bloom	-12.0225
▁unavailable	-12.0225
▁Sector	-12.0225
▁flip	-12.0225
▁missile	-12.0225
▁retirement	-12.0226
▁frustrated	-12.0226
▁formulating	-12.0226
▁framework	-12.0226
▁dung	-12.0227
▁forgot	-12.0227
▁Block	-12.0227
▁7:26	-12.0227
▁courageous	-12.0227
▁1976	-12.0227
▁Single	-12.0228
▁coverage	-12.0228
▁waist	-12.0229
▁Disk	-12.0229
▁Bengali	-12.0231
▁affiliated	-12.0232
▁governed	-12.0233
▁sidebar	-12.0236
▁minerals	-12.0237
▁Parse	-12.0239
col	-12.024
Fu	-12.0241
▁nearest	-12.0241
▁hardest	-12.0245
▁toggle	-12.0249
▁Gate	-12.0255
▁Opening	-12.0257
▁disputes	-12.0258
▁traditionally	-12.0258
▁functional	-12.0261
▁pra	-12.0263
▁obeyed	-12.0264
▁constructing	-12.0268
▁thorns	-12.028
▁anytime	-12.0282
▁collector	-12.0283
▁railways	-12.0288
▁bud	-12.0288
▁Chan	-12.029
▁boats	-12.0292
-3	-12.0295
▁Bhatt	-12.0297
▁affair	-12.0298
▁spa	-12.0298
▁Collection	-12.0299
▁restriction	-12.0299
▁Package	-12.0299
Ho	-12.03
lli	-12.0301
▁Dig	-12.0307
▁sectoral	-12.0311
68	-12.0324
akh	-12.0328
TH	-12.0338
▁valued	-12.034
▁motorcycles	-12.0342
▁Bara	-12.0344
bari	-12.0346
number	-12.0353
Speak	-12.0353
under	-12.0356
color	-12.0357
▁maker	-12.0371
▁Phil	-12.0377
▁agreeing	-12.0378
get	-12.0389
▁sockets	-12.0399
▁despise	-12.0404
▁evaluate	-12.0404
▁math	-12.0409
▁hazard	-12.0413
▁Journal	-12.0413
▁wrap	-12.0413
▁Ishmael	-12.0413
▁deactivate	-12.0413
▁landslide	-12.0413
▁murmur	-12.0413
▁Buddy	-12.0413
▁COVID	-12.0413
▁Consequently	-12.0413
▁Execute	-12.0413
▁GNU	-12.0413
▁Industries	-12.0413
▁Museum	-12.0413
▁Natural	-12.0413
▁Physical	-12.0413
▁Premier	-12.0413
▁bleeding	-12.0413
▁courtyard	-12.0413
▁determining	-12.0413
▁identical	-12.0413
▁loaves	-12.0413
▁orientation	-12.0413
▁propitiation	-12.0413
▁rebuilt	-12.0413
▁screensaver	-12.0413
▁thieves	-12.0413
▁insecure	-12.0413
▁interfere	-12.0413
▁mime	-12.0413
▁Sports	-12.0413
▁grabbed	-12.0413
▁Transfer	-12.0414
▁boyfriend	-12.0414
▁governance	-12.0414
▁Self	-12.0414
▁instructor	-12.0414
▁Charles	-12.0414
▁departure	-12.0414
▁Copyright	-12.0414
▁jute	-12.0415
▁camels	-12.0415
▁Basic	-12.0415
▁1965	-12.0416
▁dug	-12.0417
▁dropping	-12.0417
▁filesystem	-12.0417
▁halted	-12.042
▁incorporated	-12.0421
▁rebuked	-12.0422
start	-12.0423
▁concentrated	-12.0424
49	-12.0426
▁Speaking	-12.0429
▁guardian	-12.0432
▁Savings	-12.0433
action	-12.0436
uda	-12.0439
▁Ver	-12.0443
▁cured	-12.0446
▁ports	-12.0446
▁scenes	-12.0447
▁debated	-12.0451
fire	-12.0459
ene	-12.046
▁informal	-12.0461
range	-12.0464
▁pounds	-12.0466
▁geographic	-12.047
-8	-12.0471
▁Words	-12.048
▁1997	-12.0482
89	-12.0485
▁remembering	-12.0488
▁scales	-12.0489
▁Results	-12.0502
▁specialist	-12.0508
position	-12.0512
▁Applet	-12.0518
▁murderer	-12.0519
▁warn	-12.0522
▁seminars	-12.0537
PO	-12.054
SA	-12.0541
▁79	-12.0545
Every	-12.0545
count	-12.0546
▁Kamal	-12.0553
50,000	-12.0558
▁Shan	-12.0559
any	-12.0559
▁liver	-12.0566
pple	-12.0568
▁FA	-12.0575
▁Amen	-12.0581
▁dual	-12.0584
▁Random	-12.0584
▁Las	-12.0587
▁slew	-12.0592
there	-12.0593
▁provoke	-12.0596
▁violate	-12.0596
CE	-12.0597
▁gradual	-12.0601
▁Similar	-12.0601
▁Amaziah	-12.0606
▁Buddhism	-12.0606
▁Citizen	-12.0606
▁Deleting	-12.0606
▁GOD	-12.0606
▁Lahore	-12.0606
▁Obama	-12.0606
▁Politics	-12.0606
▁Simple	-12.0606
▁Study	-12.0606
▁Swedish	-12.0606
▁anniversary	-12.0606
▁coconut	-12.0606
▁contemporary	-12.0606
▁creativity	-12.0606
▁debugging	-12.0606
▁dependencies	-12.0606
▁garbage	-12.0606
▁increment	-12.0606
▁landscape	-12.0606
▁paragraph	-12.0606
▁strife	-12.0606
▁Method	-12.0606
▁populated	-12.0606
▁Prompt	-12.0606
▁dawn	-12.0606
▁Movie	-12.0606
▁Shortcut	-12.0606
▁null	-12.0606
▁railroad	-12.0606
▁Unexpected	-12.0606
▁damaging	-12.0606
▁adventure	-12.0606
▁Slide	-12.0606
▁liar	-12.0606
▁Jewish	-12.0606
▁2:11	-12.0606
▁flourish	-12.0606
▁Town	-12.0607
▁compression	-12.0607
▁glow	-12.0607
▁Grade	-12.0607
▁rally	-12.0607
▁pipeline	-12.0609
▁indirectly	-12.061
▁systematic	-12.0611
▁glasses	-12.0611
▁Box	-12.0613
▁designated	-12.0613
▁evaluated	-12.0615
▁Teaching	-12.0616
▁insisted	-12.062
▁graduate	-12.0622
▁Bharat	-12.0622
▁neighbouring	-12.0622
more	-12.0625
▁Actions	-12.0626
▁consulted	-12.0627
user	-12.063
▁nowhere	-12.0631
▁operates	-12.0631
▁95	-12.0632
ON	-12.0633
▁enhanced	-12.0641
hr	-12.0643
asi	-12.065
▁Yo	-12.0654
lessly	-12.067
▁approaching	-12.0672
▁employs	-12.0673
▁Trying	-12.0675
▁judgments	-12.0678
kal	-12.0678
▁parking	-12.0683
▁Week	-12.0686
▁analysts	-12.0693
pho	-12.0695
▁Sil	-12.0697
▁tracking	-12.0698
▁companions	-12.0699
zo	-12.0701
▁logical	-12.0702
▁Hill	-12.0706
▁Ganesh	-12.0707
▁Item	-12.0709
▁bush	-12.0714
▁mod	-12.0721
▁Side	-12.0722
▁Fla	-12.0722
lem	-12.0724
▁Cal	-12.0726
▁blameless	-12.073
▁5000	-12.0736
source	-12.0739
Look	-12.0742
process	-12.0742
written	-12.0742
▁variables	-12.0748
▁planting	-12.0754
▁-1	-12.0768
real	-12.0774
cation	-12.0779
▁350	-12.0782
88	-12.0784
▁Going	-12.0787
▁Technical	-12.0788
step	-12.0791
▁teenagers	-12.0795
▁subsequent	-12.0797
▁realise	-12.0797
▁compliment	-12.0802
▁quarrel	-12.0802
▁Ahasuerus	-12.0802
▁Failure	-12.0802
▁GroupWise	-12.0802
▁Happiness	-12.0802
▁Kexi	-12.0802
▁Monitor	-12.0802
▁Political	-12.0802
▁Refresh	-12.0802
▁Sanskrit	-12.0802
▁Treasury	-12.0802
▁VERY	-12.0802
▁abducted	-12.0802
▁academy	-12.0802
▁annoyed	-12.0802
▁decreasing	-12.0802
▁excitement	-12.0802
▁martyr	-12.0802
▁migration	-12.0802
▁parallel	-12.0802
▁thirteen	-12.0802
▁uncomfortable	-12.0802
▁discern	-12.0802
▁scarlet	-12.0802
▁quake	-12.0802
▁Jonah	-12.0802
▁urgent	-12.0802
▁yard	-12.0802
▁uncertainty	-12.0803
▁simultaneously	-12.0803
▁attendance	-12.0803
▁Advanced	-12.0804
▁dishes	-12.0806
▁selfish	-12.0808
▁accessing	-12.0809
▁Hour	-12.0809
▁sown	-12.0809
▁complained	-12.081
▁kilometres	-12.0812
▁validity	-12.0813
▁prompted	-12.0814
▁dated	-12.0815
bhu	-12.082
▁Bah	-12.0821
▁independently	-12.0822
▁Grand	-12.0826
Mural	-12.0844
▁handling	-12.0844
select	-12.0854
▁Whose	-12.0855
dian	-12.0857
▁scholars	-12.0861
▁secured	-12.0863
▁launching	-12.0864
▁proudly	-12.0871
▁89	-12.0874
▁strikes	-12.0875
upp	-12.0882
▁slogan	-12.0886
edit	-12.0886
▁recommendations	-12.0889
83	-12.0894
▁MS	-12.0904
▁authenticate	-12.0905
▁tie	-12.0907
▁Unit	-12.0914
▁1998	-12.0915
gli	-12.0924
▁Resources	-12.0931
nite	-12.0931
ich	-12.0941
Jesus	-12.0942
Down	-12.0942
ame	-12.0955
See	-12.0958
pass	-12.0959
▁pairs	-12.0961
▁arrives	-12.0961
Add	-12.0969
▁trumpets	-12.0975
▁wheels	-12.0984
▁Hum	-12.0987
▁descend	-12.0988
▁Limit	-12.099
▁kick	-12.0992
▁apologize	-12.0992
▁commence	-12.0992
▁86	-12.0992
▁Tibet	-12.0999
▁pile	-12.1
▁Azariah	-12.1002
▁Finish	-12.1002
▁Foreground	-12.1002
▁Gujarat	-12.1002
▁Jehoiada	-12.1002
▁Naphtali	-12.1002
▁Period	-12.1002
▁Province	-12.1002
▁Reason	-12.1002
▁Subject	-12.1002
▁disobedience	-12.1002
▁exhort	-12.1002
▁flexible	-12.1002
▁harmony	-12.1002
▁lecture	-12.1002
▁opposing	-12.1002
▁pestilence	-12.1002
▁porch	-12.1002
▁slated	-12.1002
▁survival	-12.1002
▁whatsoever	-12.1002
▁zonal	-12.1002
▁BIG	-12.1002
▁Moving	-12.1002
▁ambition	-12.1002
▁Creation	-12.1002
▁courtesy	-12.1002
▁logging	-12.1002
▁tolerance	-12.1002
▁Madhav	-12.1002
▁gear	-12.1002
▁nerve	-12.1002
▁enrolled	-12.1002
▁strain	-12.1002
▁sewage	-12.1002
▁Siddhartha	-12.1002
▁tread	-12.1002
▁Gulf	-12.1002
▁digits	-12.1002
▁Launch	-12.1002
▁nobles	-12.1003
▁Martha	-12.1003
▁indentation	-12.1003
▁bump	-12.1003
▁Koshi	-12.1003
▁Priority	-12.1003
▁Border	-12.1003
▁vineyards	-12.1003
▁diligently	-12.1004
▁maize	-12.1004
▁revolutionary	-12.1004
▁precisely	-12.1004
▁minority	-12.1004
▁machinery	-12.1005
▁insight	-12.1008
▁fulfillment	-12.1008
▁distinction	-12.1008
▁apologized	-12.1011
87	-12.1015
anti	-12.1019
▁coordinates	-12.102
▁Kate	-12.102
▁AND	-12.1021
▁cows	-12.1026
tai	-12.1027
▁Ayurveda	-12.1028
▁Generally	-12.1029
▁Yah	-12.103
▁ice	-12.1031
▁abused	-12.1033
▁deposited	-12.1034
▁policeman	-12.1034
▁communicated	-12.104
apur	-12.1045
▁4,000	-12.1049
▁rebuild	-12.105
▁exceptions	-12.1052
▁Samba	-12.1054
▁fatherless	-12.1056
▁Ai	-12.1059
▁scores	-12.1064
▁Canaanites	-12.1075
▁providers	-12.1077
▁pixel	-12.1078
▁Ky	-12.108
▁posting	-12.1087
▁preference	-12.1091
▁Leader	-12.1094
▁Syrian	-12.1099
fill	-12.1102
▁tiles	-12.1106
oh	-12.1131
cum	-12.1138
yar	-12.1139
▁conflicts	-12.1141
From	-12.1146
life	-12.1147
hav	-12.1148
Give	-12.1153
▁Luk	-12.1154
▁footballers	-12.1163
▁medals	-12.1169
8%	-12.1192
▁Consider	-12.1193
▁compromise	-12.1196
▁terminate	-12.1196
▁suppose	-12.1196
▁approve	-12.1196
▁coup	-12.1197
▁defile	-12.12
▁frequent	-12.1201
▁panels	-12.1202
▁Environment	-12.1203
▁horizon	-12.1206
▁snatch	-12.1206
▁Anjuta	-12.1206
▁Between	-12.1206
▁Branch	-12.1206
▁Covid	-12.1206
▁Gibeon	-12.1206
▁Kolkata	-12.1206
▁Revenue	-12.1206
▁Secure	-12.1206
▁Skip	-12.1206
▁Suddenly	-12.1206
▁TRUE	-12.1206
▁Tanzania	-12.1206
▁WARNING	-12.1206
▁composite	-12.1206
▁embassy	-12.1206
▁inception	-12.1206
▁laboratories	-12.1206
▁merciful	-12.1206
▁powder	-12.1206
▁pupil	-12.1206
▁superior	-12.1206
▁suspicious	-12.1206
▁triumph	-12.1206
▁varieties	-12.1206
▁withdrew	-12.1206
▁ODI	-12.1206
▁undertaking	-12.1206
▁workforce	-12.1206
▁Uttar	-12.1206
▁Shiloh	-12.1206
▁valor	-12.1206
▁inequality	-12.1206
▁patch	-12.1206
▁1948.	-12.1206
▁Little	-12.1206
▁Upload	-12.1206
▁adultery	-12.1206
▁1:45	-12.1206
▁hatred	-12.1207
▁Taking	-12.1207
▁1/2	-12.1207
▁eastward	-12.1207
▁charity	-12.1207
▁Running	-12.1207
▁Joash	-12.1207
▁magnetic	-12.1208
▁fullscreen	-12.1208
▁jealousy	-12.1208
▁Books	-12.1208
▁grab	-12.1208
▁affordable	-12.1209
▁Scan	-12.1209
▁committing	-12.1209
▁Chile	-12.121
▁shoulders	-12.1212
▁recovery	-12.1213
▁discovery	-12.1213
▁invention	-12.1214
▁briefly	-12.1216
▁endorse	-12.1219
600	-12.122
An	-12.1221
▁outlined	-12.1223
▁slaughtered	-12.1223
▁Sharing	-12.1223
▁appliances	-12.1229
▁denying	-12.1231
▁pity	-12.1233
▁12:4	-12.1239
▁workbook	-12.124
▁organizational	-12.1241
▁lawful	-12.1251
▁treating	-12.1253
▁canvas	-12.1254
▁critics	-12.1256
▁secretly	-12.1259
▁joyful	-12.126
▁2.5	-12.126
7,000	-12.1268
▁fortune	-12.1269
order	-12.1272
osis	-12.1273
▁misuse	-12.1281
▁substances	-12.1282
▁privileges	-12.1291
▁preventing	-12.1297
▁obstacle	-12.1299
▁statute	-12.1299
▁phoned	-12.1317
▁templates	-12.1321
82	-12.1329
cade	-12.133
▁burns	-12.1348
▁reed	-12.1352
electric	-12.1353
economic	-12.1354
China	-12.1354
final	-12.1355
vati	-12.1359
face	-12.1362
▁Editing	-12.137
▁airlines	-12.1371
▁Ye	-12.1372
▁merge	-12.1382
ule	-12.1386
▁surround	-12.139
▁harder	-12.1392
▁basin	-12.1398
going	-12.1401
05	-12.1403
hill	-12.1404
▁resume	-12.1405
▁mobilize	-12.1405
▁collapse	-12.1405
▁rebuke	-12.1405
74	-12.1406
lio	-12.1409
bat	-12.1411
▁Protect	-12.1413
ebulun	-12.1414
▁Assistant	-12.1414
▁Columbia	-12.1414
▁Describe	-12.1414
▁Emphasis	-12.1414
▁Happy	-12.1414
▁Kusunda	-12.1414
▁Micah	-12.1414
▁Preparing	-12.1414
▁Rehoboam	-12.1414
▁Terminal	-12.1414
▁anonymous	-12.1414
▁comprehensive	-12.1414
▁conscience	-12.1414
▁cubic	-12.1414
▁imitators	-12.1414
▁lyrics	-12.1414
▁puzzle	-12.1414
▁radius	-12.1414
▁transgressions	-12.1414
▁Northern	-12.1414
▁Phase	-12.1414
▁Strength	-12.1414
▁hurry	-12.1414
▁petrol	-12.1414
▁jungle	-12.1414
▁Jesse	-12.1414
▁Coast	-12.1414
▁bribe	-12.1414
▁stem	-12.1414
▁laptop	-12.1414
▁descendants	-12.1414
▁aviation	-12.1414
▁begged	-12.1415
▁mortality	-12.1415
▁optimistic	-12.1415
▁dread	-12.1415
▁Modern	-12.1415
▁Common	-12.1416
▁1972	-12.1416
▁1949	-12.1416
▁Jump	-12.1416
▁Grid	-12.1417
ivity	-12.1418
▁skip	-12.1418
▁15,000	-12.1419
▁Panchayati	-12.1421
▁overflow	-12.1423
ugh	-12.1424
▁collapsed	-12.1424
▁merged	-12.1424
▁plead	-12.1424
▁terminated	-12.1424
▁ashes	-12.1425
▁neutral	-12.1425
▁lodged	-12.1426
arch	-12.1426
▁exportable	-12.143
ility	-12.1431
▁Asher	-12.1432
▁exceeded	-12.1438
▁slower	-12.144
▁Wait	-12.1442
▁holidays	-12.1447
▁highlighting	-12.1448
▁simplest	-12.145
▁Downloading	-12.1452
:25	-12.1452
▁forwarded	-12.1452
▁marginal	-12.1455
▁Eye	-12.1456
▁trucks	-12.1456
pu	-12.1459
▁potentially	-12.1461
▁linear	-12.1466
▁governmental	-12.1468
▁Arise	-12.147
▁Grow	-12.1473
▁Haven	-12.1477
▁experiments	-12.1477
▁Wild	-12.1477
▁incentives	-12.1485
base	-12.1487
▁71	-12.1487
▁figured	-12.1489
▁Less	-12.149
kra	-12.149
change	-12.1494
style	-12.1496
▁deceitful	-12.1497
▁orbit	-12.1498
▁scar	-12.1499
llow	-12.1502
▁reflects	-12.1503
▁Peru	-12.1503
▁publications	-12.1519
▁Rules	-12.1521
▁char	-12.1525
▁depths	-12.1526
▁BC	-12.1527
uro	-12.1528
▁staring	-12.1529
▁CC	-12.1535
zar	-12.1538
▁chi	-12.1543
▁Packages	-12.1544
▁Chand	-12.1546
▁(19	-12.1551
72	-12.1556
index	-12.1567
Nepal	-12.1567
foot	-12.1568
uar	-12.1568
▁MPs	-12.157
79	-12.1571
▁angles	-12.1571
▁Years	-12.1576
▁resting	-12.1581
▁pr	-12.1584
▁mud	-12.1592
▁ser	-12.161
▁correspond	-12.1613
0.00	-12.1614
▁dump	-12.1617
▁recognise	-12.1617
▁continual	-12.1622
▁Chit	-12.1623
▁pose	-12.1626
▁supplement	-12.1626
▁Caesar	-12.1627
8212;	-12.1627
▁1979/80	-12.1627
▁Component	-12.1627
▁GCompris	-12.1627
▁Gradient	-12.1627
▁Hittite	-12.1627
▁Jezreel	-12.1627
▁KDM	-12.1627
▁Permission	-12.1627
▁Secretariat	-12.1627
▁Simulate	-12.1627
▁conspiracy	-12.1627
▁essay	-12.1627
▁grapes	-12.1627
▁intelligent	-12.1627
▁livelihood	-12.1627
▁rebellious	-12.1627
▁sackcloth	-12.1627
▁steep	-12.1627
▁supplication	-12.1627
▁taxpayer	-12.1627
▁threshing	-12.1627
▁thrust	-12.1627
▁vacant	-12.1627
▁vengeance	-12.1627
▁warehouse	-12.1627
▁distant	-12.1627
▁slope	-12.1627
▁crawl	-12.1627
▁straw	-12.1627
▁Ahaz	-12.1627
▁Ltd	-12.1627
▁Vishnu	-12.1627
▁hinder	-12.1627
▁underlying	-12.1627
▁stripped	-12.1627
▁Label	-12.1628
▁Oct	-12.1628
▁Customize	-12.1628
▁bondage	-12.1628
▁shutdown	-12.1628
▁Golden	-12.1629
▁persist	-12.1629
▁1977	-12.1629
▁echo	-12.1629
▁sunlight	-12.1629
▁1966	-12.1629
▁lament	-12.163
▁remainder	-12.1631
▁Room	-12.1631
▁unlikely	-12.1633
▁gladness	-12.1633
▁wooden	-12.1634
▁2-3	-12.1635
▁Fish	-12.1636
▁dolls	-12.1638
▁triggered	-12.1638
▁actresses	-12.1639
▁(1)	-12.1639
▁Fall	-12.1639
LC	-12.1643
▁hunting	-12.1647
▁Tam	-12.1648
▁jo	-12.1662
▁firmly	-12.1666
▁bare	-12.1666
▁Talker	-12.167
jha	-12.1671
▁5%	-12.1681
▁maintainer	-12.1689
▁dimensions	-12.1697
▁constraints	-12.1699
▁Kal	-12.1699
▁Jew	-12.1701
▁mantra	-12.1703
▁notifications	-12.1707
▁del	-12.1716
▁Sales	-12.1724
▁springs	-12.1724
writer	-12.1726
▁caste	-12.1732
member	-12.1742
▁CA	-12.1747
▁privately	-12.177
▁mailing	-12.1773
install	-12.1783
Most	-12.1784
button	-12.1785
PA	-12.1787
Ha	-12.179
BO	-12.1791
▁97	-12.1792
▁sometime	-12.1802
06	-12.1804
▁socio	-12.1811
ela	-12.1818
▁socially	-12.1819
▁borrow	-12.182
topped	-12.1824
hari	-12.1829
▁trigger	-12.1833
▁accuse	-12.1836
ida	-12.1836
▁Collect	-12.1842
▁wool	-12.1844
▁Appropriate	-12.1844
▁CHAPTER	-12.1844
▁Circle	-12.1844
▁Ethiopia	-12.1844
▁Experts	-12.1844
▁KPilot	-12.1844
▁Specified	-12.1844
▁absent	-12.1844
▁butterflies	-12.1844
▁clarify	-12.1844
▁contributing	-12.1844
▁discretion	-12.1844
▁economist	-12.1844
▁ephod	-12.1844
▁furnace	-12.1844
▁glorify	-12.1844
▁inadequate	-12.1844
▁knife	-12.1844
▁mechanical	-12.1844
▁pneumonia	-12.1844
▁privatization	-12.1844
▁sanitation	-12.1844
▁simplify	-12.1844
▁striving	-12.1844
▁unchanged	-12.1844
▁Louis	-12.1844
▁emblem	-12.1844
▁explicit	-12.1844
▁steadfast	-12.1844
▁stiff	-12.1844
▁tunnel	-12.1844
▁1951	-12.1844
▁Expire	-12.1844
▁Corinthians	-12.1844
▁Rukh	-12.1844
▁casualties	-12.1844
▁clue	-12.1844
▁remarks	-12.1844
▁intimate	-12.1844
▁Mahakali	-12.1844
▁Chitwan	-12.1844
▁axis	-12.1844
▁Detect	-12.1845
▁wildlife	-12.1845
▁Korah	-12.1845
▁toxic	-12.1845
▁serial	-12.1845
▁True	-12.1845
▁Airlines	-12.1845
▁arising	-12.1845
▁passionate	-12.1846
▁Baby	-12.1846
▁oxen	-12.1846
▁nationwide	-12.1846
▁cough	-12.1847
▁alias	-12.1847
▁Islamic	-12.1847
▁Norman	-12.1848
▁Rock	-12.1848
▁fastest	-12.185
▁Narayani	-12.185
uery	-12.185
▁cab	-12.1852
▁panic	-12.1853
▁heroes	-12.1855
self	-12.1857
▁approaches	-12.1859
▁1,2	-12.1861
▁Forward	-12.1861
▁reacted	-12.1862
▁Tele	-12.1866
die	-12.1868
▁Input	-12.187
▁survived	-12.187
▁preaching	-12.1872
▁mule	-12.1872
▁housework	-12.1873
▁perished	-12.1879
Sc	-12.1881
▁synchronize	-12.1882
▁governors	-12.1882
▁representing	-12.1883
▁dense	-12.1884
▁commercially	-12.1893
▁breathing	-12.1894
▁Bur	-12.1901
tail	-12.1907
ask	-12.1909
▁limitations	-12.1918
aged	-12.192
▁essentially	-12.192
▁Pr	-12.192
▁Mall	-12.1921
▁Playing	-12.1924
▁Bring	-12.1924
▁recur	-12.1925
▁graphical	-12.193
▁Vir	-12.1935
▁hin	-12.1935
quality	-12.1942
mati	-12.1945
▁stared	-12.1949
▁Student	-12.1951
▁prospect	-12.1951
▁Importing	-12.1962
▁possessions	-12.198
ridge	-12.1981
▁commander	-12.1985
tool	-12.1985
▁coins	-12.1989
what	-12.1995
▁Teacher	-12.2005
wife	-12.2007
▁findings	-12.2034
▁nodes	-12.2036
▁thumbnails	-12.204
▁wander	-12.2042
Sir	-12.2042
800	-12.2051
open	-12.2052
▁pledge	-12.2057
▁incorporate	-12.2057
SD	-12.2057
▁Padma	-12.2061
▁consistent	-12.2063
▁colon	-12.2064
echariah	-12.2067
▁1956	-12.2067
▁Champions	-12.2067
▁Congratulations	-12.2067
▁Destination	-12.2067
▁Durbar	-12.2067
▁Employment	-12.2067
▁FDA	-12.2067
▁Macedonia	-12.2067
▁Maldives	-12.2067
▁Removing	-12.2067
▁Required	-12.2067
▁Unicode	-12.2067
▁Wrap	-12.2067
▁adolescent	-12.2067
▁beseech	-12.2067
▁certified	-12.2067
▁circulation	-12.2067
▁condoms	-12.2067
▁declining	-12.2067
▁dedication	-12.2067
▁devastated	-12.2067
▁easiest	-12.2067
▁ephah	-12.2067
▁excuse	-12.2067
▁gesture	-12.2067
▁horrible	-12.2067
▁hurried	-12.2067
▁occupy	-12.2067
▁prostitution	-12.2067
▁respiratory	-12.2067
▁romantic	-12.2067
▁surpassed	-12.2067
▁unsubscribe	-12.2067
▁carpet	-12.2067
▁flavor	-12.2067
▁forehead	-12.2067
▁(2)	-12.2067
▁tennis	-12.2067
▁Serbia	-12.2067
▁championship	-12.2067
▁Shimei	-12.2067
▁HERE	-12.2067
▁PSG	-12.2067
▁amendment	-12.2067
▁Dalit	-12.2067
▁renewable	-12.2068
▁vanity	-12.2068
▁detection	-12.2069
▁offense	-12.207
Rabbi	-12.207
▁Patan	-12.207
▁Sadly	-12.207
▁showcase	-12.2071
▁weird	-12.2071
▁Cray	-12.2071
▁Fair	-12.2071
▁gene	-12.2071
▁County	-12.2071
▁passage	-12.2072
▁Against	-12.2073
▁Liverpool	-12.2073
▁consultant	-12.2075
▁textile	-12.2076
▁20:18	-12.2077
▁interpreted	-12.2077
▁laborers	-12.2078
▁pleasing	-12.2078
▁documentary	-12.2079
▁Intersect	-12.2079
▁Dark	-12.208
▁81	-12.2081
▁swallowed	-12.2081
▁sustained	-12.2083
▁artistic	-12.2087
▁subfolder	-12.2091
▁deadline	-12.2097
▁cable	-12.2098
▁Hard	-12.2113
▁numeric	-12.2117
▁kw	-12.2123
▁metals	-12.2124
found	-12.2129
rab	-12.2136
▁lens	-12.2137
aph	-12.2138
▁Nep	-12.2141
▁successes	-12.2153
▁PS	-12.2164
▁transported	-12.2167
nie	-12.217
▁abound	-12.2173
▁Ray	-12.2177
▁Eat	-12.2177
▁donation	-12.2187
▁Officer	-12.2192
▁idol	-12.2198
▁challenged	-12.2211
▁1:2	-12.2224
▁dots	-12.2226
Therefore	-12.2234
control	-12.2234
▁musicians	-12.2237
eight	-12.2252
▁Roll	-12.2253
love	-12.2262
grad	-12.2262
▁Lam	-12.2262
▁disappoint	-12.2268
▁nearing	-12.2273
ache	-12.2274
▁weekly	-12.2275
▁Macro	-12.2279
▁kiss	-12.2282
▁130	-12.2283
▁discharge	-12.2284
bai	-12.2286
▁indirect	-12.2289
▁Express	-12.229
▁thirst	-12.2291
▁manifest	-12.2293
version	-12.2293
Lazarus	-12.2294
▁Dictionary	-12.2294
▁Encoding	-12.2294
▁Galeon	-12.2294
▁KNOW	-12.2294
▁Kohath	-12.2294
▁Morang	-12.2294
▁Rapti	-12.2294
▁UNESCO	-12.2294
▁bondservant	-12.2294
▁compiled	-12.2294
▁economies	-12.2294
▁english	-12.2294
▁inappropriate	-12.2294
▁inclusive	-12.2294
▁irregular	-12.2294
▁majesty	-12.2294
▁offspring	-12.2294
▁rebellion	-12.2294
▁residue	-12.2294
▁Mahatma	-12.2294
▁Nearly	-12.2294
▁accommodate	-12.2294
▁anguish	-12.2294
▁submission	-12.2294
▁DPI	-12.2294
▁airfields	-12.2294
▁reckon	-12.2294
▁Front	-12.2294
▁silk	-12.2294
▁Boston	-12.2294
▁funeral	-12.2294
▁terai	-12.2294
▁cited	-12.2294
▁pulse	-12.2294
reliance	-12.2294
▁genre	-12.2294
▁calf	-12.2294
▁Ahmed	-12.2294
▁Correct	-12.2294
▁Sinai	-12.2294
▁Balance	-12.2295
▁overtake	-12.2295
▁Mountain	-12.2295
▁1982	-12.2296
▁Night	-12.2296
▁bible	-12.2297
▁atoning	-12.2297
▁Encryption	-12.2297
▁interim	-12.2298
▁1931	-12.2298
▁moderate	-12.2299
▁mapping	-12.23
▁complexity	-12.2301
▁Wash	-12.2301
▁amended	-12.2302
-12	-12.2308
▁Woman	-12.2309
▁bottles	-12.2309
▁ingredients	-12.2311
▁Pay	-12.2313
▁exceeding	-12.2318
▁shy	-12.2318
jasta	-12.232
52	-12.2322
▁sealed	-12.2323
▁graphic	-12.2323
▁attributed	-12.2323
▁Sender	-12.2324
▁somehow	-12.2324
▁recovering	-12.2325
▁Secondly	-12.2326
▁captives	-12.2328
▁Knowing	-12.2334
▁Girls	-12.2336
▁compact	-12.2339
▁countrymen	-12.234
own	-12.2346
eject	-12.2349
▁unset	-12.2349
▁Problems	-12.2363
▁accounted	-12.2368
▁Writer	-12.2373
▁Doesn	-12.2373
▁weaker	-12.2376
▁barriers	-12.2387
▁Fast	-12.2397
▁copying	-12.2406
09	-12.2407
▁downloading	-12.2411
▁regulation	-12.2411
▁participant	-12.2411
▁Cast	-12.2413
human	-12.2415
▁worshiping	-12.2422
▁lighting	-12.2436
▁wager	-12.2441
VI	-12.2442
97	-12.2459
▁91	-12.2461
▁likeness	-12.2465
word	-12.2465
Arise	-12.2466
With	-12.2466
agricultural	-12.2466
Everyone	-12.2467
after	-12.2467
▁linking	-12.2471
▁vows	-12.2474
PE	-12.2475
▁keeper	-12.2476
▁Wal	-12.2485
▁Hebrews	-12.2488
▁restrict	-12.2513
▁retire	-12.2516
NG	-12.2516
▁perceive	-12.2517
▁emphasize	-12.2517
▁allocate	-12.2517
▁apparent	-12.2521
▁sect	-12.2523
▁Galilean	-12.2526
▁caution	-12.2526
▁Amarok	-12.2526
▁Biryani	-12.2526
▁Community	-12.2526
▁Francisco	-12.2526
▁Gilgal	-12.2526
▁Indigenous	-12.2526
▁Jumla	-12.2526
▁LOVE	-12.2526
▁Labour	-12.2526
▁Layout	-12.2526
▁Promotion	-12.2526
▁Saviour	-12.2526
▁accessibility	-12.2526
▁accompany	-12.2526
▁altogether	-12.2526
▁applicant	-12.2526
▁commodity	-12.2526
▁complications	-12.2526
▁cruel	-12.2526
▁diversification	-12.2526
▁equation	-12.2526
▁fatigue	-12.2526
▁generator	-12.2526
▁influential	-12.2526
▁ladies	-12.2526
▁occupation	-12.2526
▁rehabilitation	-12.2526
▁statistical	-12.2526
▁stunned	-12.2526
▁substitute	-12.2526
▁unsupported	-12.2526
▁voluntary	-12.2526
▁wikipedia	-12.2526
▁28:16	-12.2526
▁restoration	-12.2526
▁14:21	-12.2526
▁animated	-12.2526
▁Southern	-12.2526
▁cousin	-12.2526
▁mild	-12.2526
▁Alarm	-12.2526
▁Objectives	-12.2526
▁tithe	-12.2526
▁Transform	-12.2527
▁isolation	-12.2527
▁Domain	-12.2527
▁ICC	-12.2527
▁Bharatpur	-12.2527
▁Treatment	-12.2527
▁Compare	-12.2527
▁void	-12.2527
▁Percent	-12.2527
▁alignment	-12.2527
▁orphan	-12.2527
▁drainage	-12.2527
▁assignment	-12.2527
▁Arrow	-12.2527
▁Gaza	-12.2528
▁1:30	-12.2528
▁addiction	-12.2528
▁plow	-12.2528
▁barley	-12.2528
▁laser	-12.2528
▁hostname	-12.2528
khar	-12.2529
Specific	-12.2529
▁lame	-12.2529
▁consultation	-12.2529
▁reload	-12.253
▁barred	-12.253
▁sink	-12.253
▁Important	-12.253
▁footage	-12.2531
▁beaches	-12.2532
▁enforced	-12.2534
▁virtually	-12.2534
▁unfortunately	-12.2536
40,000	-12.2538
▁finalized	-12.2538
▁60%	-12.2538
complete	-12.2538
▁forestry	-12.2539
▁Bre	-12.2539
▁plantation	-12.254
▁borrowing	-12.2541
▁Building	-12.2543
▁weighed	-12.2546
▁Cain	-12.2549
▁oneself	-12.2552
▁94	-12.2552
▁wh	-12.2553
▁rolled	-12.2553
▁believers	-12.2554
▁Tro	-12.256
▁ringing	-12.2561
▁letting	-12.2562
▁licensed	-12.2565
▁protesting	-12.2571
▁Mayor	-12.2574
▁switched	-12.2574
▁obligations	-12.2592
▁Sara	-12.261
▁identifying	-12.2612
kara	-12.263
TC	-12.2634
▁foodgrains	-12.2636
▁crowded	-12.2644
▁merchant	-12.2649
▁companion	-12.265
resistant	-12.2661
▁Collections	-12.2672
AD	-12.2679
alai	-12.2684
▁procession	-12.2685
▁Steps	-12.269
harule	-12.2694
▁exploit	-12.2696
▁enthusiastic	-12.2702
operation	-12.2703
separated	-12.2704
compatible	-12.2705
Edit	-12.2705
electricity	-12.2706
Whoever	-12.2706
▁flames	-12.2708
▁corrected	-12.2711
tters	-12.2711
iharu	-12.2715
▁Dar	-12.2738
▁Dam	-12.274
▁Off	-12.2741
▁seize	-12.2755
▁Present	-12.2758
▁slight	-12.2762
▁rival	-12.2764
clusion	-12.2764
▁slip	-12.2764
▁champion	-12.2764
▁VDC	-12.2764
▁Austria	-12.2764
▁Brahmin	-12.2764
▁Caribbean	-12.2764
▁Client	-12.2764
▁Decrease	-12.2764
▁FIFA	-12.2764
▁Floyd	-12.2764
▁Hilkiah	-12.2764
▁Miscellaneous	-12.2764
▁Mobile	-12.2764
▁Securities	-12.2764
▁Senior	-12.2764
▁Traffic	-12.2764
▁Volume	-12.2764
▁blossom	-12.2764
▁capacities	-12.2764
▁clarity	-12.2764
▁compulsion	-12.2764
▁concert	-12.2764
▁currencies	-12.2764
▁deciding	-12.2764
▁decisive	-12.2764
▁deputy	-12.2764
▁horror	-12.2764
▁imperative	-12.2764
▁incidence	-12.2764
▁luxury	-12.2764
▁mobilise	-12.2764
▁nutrients	-12.2764
▁podcast	-12.2764
▁premise	-12.2764
▁pricing	-12.2764
▁residing	-12.2764
▁saturation	-12.2764
▁simplified	-12.2764
▁stimulate	-12.2764
▁thumb	-12.2764
▁eagle	-12.2765
▁geography	-12.2765
▁malaria	-12.2765
▁proving	-12.2765
▁lungs	-12.2765
▁Kiriath	-12.2765
▁Andrew	-12.2765
▁30,000	-12.2765
▁Jamie	-12.2765
▁Arthur	-12.2765
▁160	-12.2765
▁20,000	-12.2765
▁Ayurvedic	-12.2765
▁mixture	-12.2765
▁crack	-12.2765
▁leakage	-12.2765
▁Delay	-12.2766
▁functionality	-12.2766
1%	-12.2766
▁banner	-12.2766
▁Patna	-12.2767
▁headache	-12.2767
▁disagreement	-12.2767
▁rays	-12.2767
▁confidential	-12.2768
▁decent	-12.2768
▁slots	-12.2769
▁GV	-12.2771
▁Math	-12.2771
▁controlpoint	-12.2772
▁mono	-12.2772
▁Putin	-12.2773
▁viewpoint	-12.2773
▁wiped	-12.2773
▁uncovered	-12.2774
▁Aryan	-12.2774
▁Boss	-12.2774
bata	-12.2775
▁ninety	-12.2775
▁hostel	-12.2775
▁masses	-12.2777
▁tar	-12.2784
▁humbled	-12.2785
▁adopting	-12.2786
▁specialty	-12.2787
▁cargo	-12.279
▁fitting	-12.279
▁Provider	-12.2792
▁polling	-12.2792
▁Revert	-12.2793
▁climbed	-12.2795
▁Mass	-12.2795
care	-12.2796
▁watches	-12.2798
VE	-12.2799
▁handful	-12.2803
▁Shared	-12.2804
sided	-12.2804
▁DR	-12.281
▁possessed	-12.2817
▁nails	-12.2819
lessness	-12.2821
▁comforted	-12.2824
▁Mani	-12.2829
▁addressing	-12.2829
▁athletes	-12.2831
DB	-12.2833
▁searches	-12.2834
▁Jar	-12.2837
▁woke	-12.2838
▁50,000	-12.284
71	-12.2853
0.0	-12.2855
dpi	-12.2871
▁NE	-12.2874
▁AD	-12.2882
▁advertisement	-12.2893
▁dancer	-12.29
▁Sex	-12.2901
▁Leaders	-12.2901
▁Ana	-12.2926
Drag	-12.2948
Print	-12.2948
effective	-12.2949
owl	-12.2959
▁Dash	-12.296
pot	-12.2969
▁indicators	-12.2979
▁cater	-12.2986
▁Nun	-12.299
▁Sand	-12.2991
▁betray	-12.2998
▁crush	-12.2998
▁profane	-12.2999
owner	-12.3
▁dec	-12.3001
▁subjected	-12.3002
▁abundant	-12.3003
▁fiction	-12.3006
▁debug	-12.3008
▁Beauty	-12.3008
▁Bhojpur	-12.3008
▁Calcutta	-12.3008
▁Coronavirus	-12.3008
▁Cultural	-12.3008
▁Culture	-12.3008
▁Duplicate	-12.3008
▁Gibeah	-12.3008
▁Improvement	-12.3008
▁Mexican	-12.3008
▁Segment	-12.3008
▁cheek	-12.3008
▁cluster	-12.3008
▁constituency	-12.3008
▁erosion	-12.3008
▁immortal	-12.3008
▁inspiring	-12.3008
▁judicial	-12.3008
▁leather	-12.3008
▁liquor	-12.3008
▁merchandise	-12.3008
▁mislead	-12.3008
▁mortgage	-12.3008
▁nickname	-12.3008
▁observation	-12.3008
▁perverse	-12.3008
▁repository	-12.3008
▁safeguard	-12.3008
▁scooter	-12.3008
▁shrink	-12.3008
▁sketch	-12.3008
▁tuberculosis	-12.3008
▁tutorial	-12.3008
▁whisper	-12.3008
▁AIDS	-12.3008
▁Bureau	-12.3008
▁Heshbon	-12.3008
▁radical	-12.3008
▁recipe	-12.3008
▁warfare	-12.3008
▁Breast	-12.3008
▁cleanliness	-12.3008
▁4:14	-12.3008
▁Animal	-12.3008
▁architecture	-12.3008
▁precede	-12.3008
▁folly	-12.3008
▁Armenia	-12.3008
▁basketball	-12.3009
▁Abort	-12.3009
▁brace	-12.3009
▁Gautam	-12.3009
▁Uzziah	-12.3009
▁Break	-12.3009
▁reconstruction	-12.3009
▁strive	-12.301
▁sounded	-12.301
▁bench	-12.301
▁rites	-12.3012
▁contractors	-12.3012
▁Secondary	-12.3012
▁idle	-12.3012
▁criticised	-12.3012
▁menubar	-12.3013
▁dice	-12.3013
▁allowance	-12.3014
▁reopened	-12.3014
smith	-12.3014
▁revoked	-12.3014
dustrialization	-12.3016
▁CO	-12.3016
▁amused	-12.3018
quot	-12.3018
▁Buri	-12.3018
▁Wherever	-12.3018
▁mobilized	-12.302
▁1940	-12.3021
▁Role	-12.3022
▁inquired	-12.3022
▁Lenin	-12.3022
▁prevailing	-12.3026
▁playback	-12.3027
▁slider	-12.3027
▁Abel	-12.3028
▁Append	-12.3029
▁interpreter	-12.3031
▁guaranteed	-12.3039
▁weaken	-12.3049
▁Shiv	-12.306
▁Higher	-12.3061
▁converting	-12.3061
▁attracting	-12.3062
▁Walk	-12.3069
▁1:9	-12.3071
▁jet	-12.3072
▁Kill	-12.3074
750	-12.3083
▁risky	-12.3086
▁drying	-12.3091
▁Meta	-12.3094
SU	-12.3097
▁Oman	-12.31
▁exchanged	-12.3106
▁researches	-12.3108
road	-12.3109
prop	-12.3118
hah	-12.3119
▁Paint	-12.3135
▁fined	-12.3136
▁Result	-12.3142
▁consequence	-12.3143
▁Voice	-12.3143
▁cubit	-12.3144
▁foodgrain	-12.3144
pin	-12.3146
▁Hy	-12.3151
▁slogans	-12.3152
▁touching	-12.3154
▁lightly	-12.316
▁mute	-12.3162
▁knees	-12.3164
▁filtering	-12.3166
▁Poor	-12.3167
band	-12.3194
▁Nov	-12.3198
Those	-12.3198
detect	-12.3198
Save	-12.3198
▁pets	-12.32
▁bite	-12.3201
value	-12.3201
▁realm	-12.3204
▁Dal	-12.321
▁stat	-12.3211
ote	-12.322
▁Tal	-12.3225
▁govern	-12.323
berg	-12.3235
93	-12.3236
▁invent	-12.3238
▁Live	-12.3242
▁bas	-12.3242
▁afflict	-12.3243
▁distinguish	-12.3247
▁wing	-12.3247
▁Persia	-12.3248
▁sprinkle	-12.3249
▁conclude	-12.3249
▁torture	-12.3249
▁prisoner	-12.3251
▁formulate	-12.3251
▁encode	-12.3253
▁originate	-12.3253
▁Bat	-12.3253
▁definite	-12.3253
▁recruit	-12.3257
69	-12.3257
▁3000	-12.3258
awinski	-12.3258
▁Academy	-12.3258
▁Bottom	-12.3258
▁Decrypt	-12.3258
▁Embassy	-12.3258
▁GStreamer	-12.3258
▁Maharashtra	-12.3258
▁Mizpah	-12.3258
▁Pandey	-12.3258
▁Poudel	-12.3258
▁Surkhet	-12.3258
▁WHO	-12.3258
▁WhatsApp	-12.3258
▁Wrong	-12.3258
▁concubine	-12.3258
▁confounded	-12.3258
▁derivative	-12.3258
▁desperate	-12.3258
▁eldest	-12.3258
▁essence	-12.3258
▁fertile	-12.3258
▁fountain	-12.3258
▁generous	-12.3258
▁glimpse	-12.3258
▁indignation	-12.3258
▁maternal	-12.3258
▁shook	-12.3258
▁structural	-12.3258
▁technological	-12.3258
▁uncircumcised	-12.3258
▁unhappy	-12.3258
▁universal	-12.3258
▁virtue	-12.3258
▁Easy	-12.3258
▁Kuwait	-12.3258
▁POP	-12.3258
▁Vedic	-12.3258
▁vaccinated	-12.3258
▁beneath	-12.3258
▁ATM	-12.3258
▁Sherpa	-12.3258
▁Jaguar	-12.3258
▁sovereignty	-12.3258
▁confront	-12.3258
▁updating	-12.3259
kolagi	-12.3259
▁blew	-12.3259
▁marvelous	-12.3259
▁Junk	-12.3259
▁Cooperative	-12.3259
▁abide	-12.3259
▁Mustang	-12.3259
▁Kedar	-12.3259
▁Nazi	-12.3259
▁Sudan	-12.3259
▁inverse	-12.326
▁Outside	-12.326
▁deaf	-12.326
▁discontinued	-12.326
▁Pack	-12.326
▁preset	-12.326
CA	-12.3261
▁blur	-12.3261
▁Hinduism	-12.3261
▁awful	-12.3263
▁Expression	-12.3263
▁uncleanness	-12.3263
▁encoder	-12.3265
▁composer	-12.3265
▁Postal	-12.3266
▁Driver	-12.3266
▁Cover	-12.3267
▁substantially	-12.3268
▁wore	-12.3269
▁revert	-12.327
▁betrayed	-12.327
▁Nigerian	-12.3272
▁sharply	-12.3274
▁Obviously	-12.3276
▁shortest	-12.3278
▁consisted	-12.3279
▁efficiently	-12.3284
▁shouting	-12.3285
▁twitter	-12.3285
▁flown	-12.3286
▁peacefully	-12.3286
▁calories	-12.3293
▁Cold	-12.3293
▁Og	-12.3295
yang	-12.3299
▁Shahi	-12.3304
▁Seir	-12.3316
▁migrants	-12.3316
horse	-12.3318
6%	-12.3319
▁5:3	-12.3323
uran	-12.3323
▁useless	-12.3324
▁Eve	-12.3324
▁rewarded	-12.3328
digit	-12.3331
▁Himal	-12.3331
▁Spi	-12.3345
▁Kish	-12.3356
Here	-12.336
▁explaining	-12.3362
91	-12.3389
▁Officers	-12.3392
▁Olive	-12.3397
▁Kumari	-12.3397
▁analyst	-12.3399
▁ensured	-12.3399
▁shekel	-12.3399
fast	-12.3411
▁Col	-12.3413
▁breathe	-12.3414
▁Awards	-12.3421
abh	-12.3422
▁cords	-12.3423
Hear	-12.3431
▁opponents	-12.3433
enter	-12.3436
urg	-12.3439
purpose	-12.3454
John	-12.3455
child	-12.3455
workers	-12.3461
Some	-12.3464
01	-12.3466
▁interpret	-12.3478
▁Vish	-12.348
▁125	-12.3486
dah	-12.3491
▁Teach	-12.35
▁await	-12.3502
▁affiliate	-12.3505
▁assert	-12.3506
▁resign	-12.3507
▁exempt	-12.351
Conversation	-12.3515
▁1953	-12.3515
▁Ayodhya	-12.3515
▁ERROR	-12.3515
▁Issachar	-12.3515
▁Jebusite	-12.3515
▁KOrganizer	-12.3515
▁Practice	-12.3515
▁Sihon	-12.3515
▁Subscribe	-12.3515
▁Yeargin	-12.3515
▁ambitious	-12.3515
▁appreciation	-12.3515
▁assurance	-12.3515
▁bronze	-12.3515
▁congress	-12.3515
▁curiosity	-12.3515
▁devastating	-12.3515
▁embarrassed	-12.3515
▁eunuch	-12.3515
▁glance	-12.3515
▁guiding	-12.3515
▁implications	-12.3515
▁inclined	-12.3515
▁indefinite	-12.3515
▁judiciary	-12.3515
▁precepts	-12.3515
▁snippet	-12.3515
▁trembling	-12.3515
▁unhealthy	-12.3515
esteem	-12.3515
▁Chapter	-12.3515
▁bulk	-12.3515
▁fortress	-12.3515
▁ghee	-12.3515
▁purification	-12.3515
▁Compose	-12.3515
▁overlaid	-12.3515
▁Judas	-12.3515
▁Shemaiah	-12.3515
▁Sunsari	-12.3515
▁insulin	-12.3515
▁Clipboard	-12.3515
▁warrior	-12.3515
▁Yadav	-12.3515
▁Benaiah	-12.3515
▁complementary	-12.3515
▁poker	-12.3515
▁Authorities	-12.3516
▁Gurung	-12.3516
▁pretend	-12.3516
▁OSD	-12.3516
▁wiki	-12.3516
▁bald	-12.3516
▁buck	-12.3516
▁mainstream	-12.3516
▁copyright	-12.3516
▁Tea	-12.3516
▁Navy	-12.3517
▁forgiveness	-12.3517
▁urbanization	-12.3517
▁underground	-12.3518
▁scientifically	-12.3518
▁Campus	-12.3518
▁grieved	-12.3518
▁Pet	-12.3518
▁Mike	-12.3518
▁morality	-12.3519
▁abolished	-12.3519
▁digest	-12.3519
▁faithfulness	-12.3519
▁persuaded	-12.3519
▁oak	-12.3519
▁Leah	-12.352
▁encouragement	-12.3521
▁fur	-12.3521
▁Timeout	-12.3522
▁experimental	-12.3522
▁bonuses	-12.3522
▁firing	-12.3523
▁disconnected	-12.3525
▁Normally	-12.3525
▁dew	-12.3525
▁mentality	-12.3525
▁hometown	-12.3526
▁Unity	-12.3529
▁progressed	-12.3529
▁honorable	-12.353
▁prevailed	-12.3531
▁Online	-12.3533
▁divorced	-12.3533
▁Truly	-12.3535
▁Talking	-12.3535
▁promotional	-12.3536
▁Buy	-12.3542
▁Opera	-12.3551
▁fighters	-12.3551
irah	-12.3552
▁monuments	-12.3565
roth	-12.357
▁expressing	-12.3571
▁Pla	-12.3592
▁stain	-12.3594
▁indexed	-12.3596
chok	-12.3598
▁Employees	-12.3599
▁tin	-12.3602
▁similarly	-12.3607
▁finishing	-12.3609
avan	-12.3616
▁Santa	-12.3619
4,000	-12.3623
▁killer	-12.3626
▁Bai	-12.3631
▁Salt	-12.3639
▁needle	-12.3653
▁1,3	-12.3655
▁101	-12.3663
▁recommendation	-12.3668
▁dare	-12.3676
icon	-12.3686
▁lowered	-12.3686
▁Matt	-12.3704
efficient	-12.3718
default	-12.3718
from	-12.3718
sensitive	-12.3718
limit	-12.3719
tribe	-12.3721
friendly	-12.3721
▁lap	-12.3732
▁headline	-12.3733
▁geo	-12.3744
▁oppress	-12.3751
▁solo	-12.376
FC	-12.3765
▁anchor	-12.3767
▁postpone	-12.3768
▁translate	-12.3769
▁tire	-12.3769
▁comparative	-12.3773
HA	-12.3774
create	-12.3774
▁Jam	-12.3777
▁Secret	-12.3777
▁snap	-12.3778
▁http	-12.3778
categorized	-12.3778
deprecated	-12.3778
▁(%2)	-12.3778
▁1974/75	-12.3778
▁1982/83	-12.3778
▁Acharya	-12.3778
▁BEST	-12.3778
▁Behavior	-12.3778
▁Bulgaria	-12.3778
▁Carolina	-12.3778
▁Degrees	-12.3778
▁Division	-12.3778
▁Flip	-12.3778
▁Haryana	-12.3778
▁Hitler	-12.3778
▁Jehoiakim	-12.3778
▁Lakshmi	-12.3778
▁Policies	-12.3778
▁Protocol	-12.3778
▁Reference	-12.3778
▁altitude	-12.3778
▁circumcision	-12.3778
▁cloak	-12.3778
▁corridor	-12.3778
▁graduation	-12.3778
▁libraries	-12.3778
▁organizing	-12.3778
▁pharmaceutical	-12.3778
▁precision	-12.3778
▁premium	-12.3778
▁rectangle	-12.3778
▁reservoir	-12.3778
▁sanitary	-12.3778
▁scream	-12.3778
▁sculpture	-12.3778
▁summoned	-12.3778
▁sweep	-12.3778
▁CPN	-12.3778
▁Organize	-12.3778
▁Swiss	-12.3778
▁cheese	-12.3778
▁dragging	-12.3778
▁forefront	-12.3778
▁licence	-12.3778
▁Graphics	-12.3778
▁scam	-12.3778
▁shirt	-12.3778
▁swing	-12.3778
▁upgrading	-12.3778
▁12:11	-12.3778
▁shining	-12.3778
▁wrongdoing	-12.3778
▁zeal	-12.3778
▁psychology	-12.3778
alternate	-12.3778
▁abhor	-12.3778
▁chronicles	-12.3778
▁bail	-12.3778
▁profound	-12.3778
▁diplomatic	-12.3778
▁hazardous	-12.3779
▁scarce	-12.3779
▁unsafe	-12.3779
▁polar	-12.3779
▁Samson	-12.3779
▁Interest	-12.3779
▁condemnation	-12.378
▁deteriorated	-12.378
▁transferring	-12.378
▁Joshi	-12.378
▁drunken	-12.378
▁suck	-12.3781
▁sunset	-12.3781
▁Growth	-12.3783
▁firewood	-12.3783
▁apparently	-12.3784
▁Customers	-12.3784
▁Heart	-12.3787
▁0.2	-12.3788
▁compromised	-12.379
▁cheaper	-12.3792
▁governing	-12.3792
▁strongest	-12.3792
▁Limited	-12.3793
▁kicked	-12.3793
▁hopefully	-12.3795
▁sticky	-12.3795
▁Dum	-12.3797
▁Owner	-12.3797
300	-12.3799
▁specialized	-12.3799
▁coordinated	-12.3802
▁emotion	-12.3802
700	-12.3806
▁relaxed	-12.3807
▁Redo	-12.3808
▁wider	-12.3808
▁attackers	-12.3811
▁distressed	-12.3812
▁FOV	-12.3815
thirds	-12.3815
▁restarted	-12.3816
▁climbing	-12.3816
▁Determines	-12.3817
hua	-12.3819
▁Veer	-12.382
▁obtaining	-12.3825
▁Iraqi	-12.3837
mbo	-12.3838
▁Hur	-12.384
▁seasonal	-12.3842
▁lanes	-12.3843
▁scaled	-12.3854
▁assign	-12.3864
▁variations	-12.3864
▁Lee	-12.387
▁woe	-12.3875
▁avoiding	-12.3878
share	-12.3881
ipur	-12.3884
▁Bang	-12.3885
▁aiming	-12.3888
▁belly	-12.3898
▁Optional	-12.3908
▁titled	-12.3909
iph	-12.3922
▁Dai	-12.3927
▁flaw	-12.3928
▁messenger	-12.3933
▁shoe	-12.3933
▁saint	-12.3933
lop	-12.3985
quarter	-12.3986
Teacher	-12.3987
object	-12.3988
Type	-12.3988
security	-12.3988
America	-12.3988
burn	-12.3991
asan	-12.4002
81	-12.4004
▁supplying	-12.4011
Friend	-12.4035
▁stall	-12.4037
▁regulate	-12.4039
▁motivate	-12.4039
▁dedicate	-12.4039
▁successor	-12.4043
▁gracious	-12.4043
▁thorough	-12.4043
▁compute	-12.4046
▁Contain	-12.4047
▁teenage	-12.4048
▁1954	-12.4048
▁Barnabas	-12.4048
▁Caleb	-12.4048
▁Depending	-12.4048
▁Distribute	-12.4048
▁Euphrates	-12.4048
▁Fetch	-12.4048
▁Gandaki	-12.4048
▁Harvard	-12.4048
▁Kapoor	-12.4048
▁Laughter	-12.4048
▁Sync	-12.4048
▁Vitamin	-12.4048
▁adversary	-12.4048
▁blaspheme	-12.4048
▁bracket	-12.4048
▁brilliant	-12.4048
▁calamity	-12.4048
▁clause	-12.4048
▁franchise	-12.4048
▁grandparents	-12.4048
▁ignoring	-12.4048
▁inspection	-12.4048
▁lonely	-12.4048
▁maternity	-12.4048
▁measuring	-12.4048
▁placing	-12.4048
▁redemption	-12.4048
▁releasing	-12.4048
▁remanded	-12.4048
▁repetition	-12.4048
▁retrieving	-12.4048
▁speculation	-12.4048
▁sponsor	-12.4048
▁supplier	-12.4048
▁surrender	-12.4048
▁tobacco	-12.4048
▁tragic	-12.4048
▁Aviation	-12.4048
▁Smith	-12.4048
▁Early	-12.4048
▁Square	-12.4048
▁Dollar	-12.4048
▁entities	-12.4048
▁Papua	-12.4048
▁7:20	-12.4048
▁aloud	-12.4048
▁override	-12.4048
▁enlarge	-12.4048
▁intersection	-12.4048
▁Tension	-12.4049
▁recurring	-12.4049
▁thanksgiving	-12.4049
▁Henry	-12.4049
▁OFF	-12.4049
▁Saturn	-12.4049
▁lunch	-12.4049
▁ropeway	-12.4049
▁enrolment	-12.4049
▁conform	-12.4049
▁digestive	-12.4049
▁convertible	-12.4049
▁Overall	-12.4049
▁Hamath	-12.4049
▁Hadad	-12.4049
▁tempted	-12.405
▁notebook	-12.405
▁Messiah	-12.405
▁circumcised	-12.405
▁Body	-12.4051
▁1952	-12.4051
▁bitrate	-12.4051
▁MBA	-12.4052
▁Hydro	-12.4052
▁1936	-12.4052
▁shave	-12.4052
▁comparatively	-12.4053
▁Unless	-12.4054
▁Incorrect	-12.4054
▁mold	-12.4055
▁promptly	-12.4056
▁campuses	-12.4057
▁neglected	-12.4057
▁Pop	-12.4059
▁magician	-12.4059
▁flawed	-12.406
▁runway	-12.4061
▁indent	-12.4062
▁golf	-12.4062
▁accurately	-12.4065
▁clearance	-12.4065
▁delightful	-12.4068
▁2030	-12.4069
▁vowed	-12.407
▁mourned	-12.407
▁40%	-12.407
▁survivors	-12.4072
MO	-12.4073
election	-12.4076
▁falsely	-12.408
▁prophesying	-12.4085
▁Indra	-12.4085
▁adjusted	-12.4085
▁securely	-12.4092
▁individually	-12.4094
▁moreover	-12.4095
▁dressing	-12.4095
▁900	-12.4098
pra	-12.4105
94	-12.4106
▁labeled	-12.4112
▁switching	-12.4113
▁Ok	-12.4116
▁Pause	-12.4126
▁Bigg	-12.4127
▁donated	-12.4127
:28	-12.4135
Mar	-12.4145
third	-12.4151
▁filling	-12.4158
▁capitalist	-12.4159
▁sorted	-12.4163
▁laying	-12.4163
▁privilege	-12.4165
▁hue	-12.4167
▁lowly	-12.4172
▁Manu	-12.4183
CH	-12.4188
▁Changed	-12.4199
▁Anti	-12.4201
▁fasting	-12.4203
khu	-12.421
▁wicket	-12.421
▁Holi	-12.4219
▁shorter	-12.4226
59	-12.4229
dad	-12.423
▁Sheba	-12.4256
▁Chau	-12.4265
Nothing	-12.4266
disable	-12.4266
through	-12.4266
▁complain	-12.4267
Open	-12.4267
week	-12.4267
high	-12.4269
▁Hanan	-12.4269
track	-12.427
▁psych	-12.4271
who	-12.4273
▁rage	-12.4281
▁visitor	-12.4288
▁Val	-12.43
SL	-12.4301
▁renew	-12.4314
▁pluck	-12.4314
▁suspend	-12.4315
▁enforce	-12.4315
▁jar	-12.4317
▁wipe	-12.4317
▁Burn	-12.4322
▁diploma	-12.4325
▁Greet	-12.4326
▁Cross	-12.4326
▁ascertain	-12.4326
▁24/7	-12.4326
▁Administrative	-12.4326
▁Circuit	-12.4326
▁Competition	-12.4326
▁Conglomerate	-12.4326
▁Either	-12.4326
▁Executive	-12.4326
▁Existing	-12.4326
▁Future	-12.4326
▁Heritage	-12.4326
▁Irrawaddy	-12.4326
▁KWord	-12.4326
▁Manchester	-12.4326
▁Medicine	-12.4326
▁Mongolia	-12.4326
▁Mughal	-12.4326
▁Palette	-12.4326
▁Privacy	-12.4326
▁Summary	-12.4326
▁Syntax	-12.4326
▁THAT	-12.4326
▁Timothy	-12.4326
▁Urban	-12.4326
▁accelerator	-12.4326
▁autonomous	-12.4326
▁boolean	-12.4326
▁concentration	-12.4326
▁conducive	-12.4326
▁delegation	-12.4326
▁electoral	-12.4326
▁grievous	-12.4326
▁happily	-12.4326
▁hurdle	-12.4326
▁innovative	-12.4326
▁modifier	-12.4326
▁muslim	-12.4326
▁perpetual	-12.4326
▁stumbling	-12.4326
▁sunrise	-12.4326
▁terribly	-12.4326
▁tragedy	-12.4326
▁vomit	-12.4326
▁infinite	-12.4326
▁inspected	-12.4326
▁proverb	-12.4326
▁Discuss	-12.4326
▁Merari	-12.4326
▁chaos	-12.4326
▁detach	-12.4326
▁gaming	-12.4326
▁newsletter	-12.4326
▁recursive	-12.4326
▁termination	-12.4326
▁3/4	-12.4326
▁Purana	-12.4326
▁Distribution	-12.4326
▁patent	-12.4326
▁hardened	-12.4326
▁Stephen	-12.4326
▁alliance	-12.4326
▁Baasha	-12.4326
▁alphabet	-12.4326
▁Activity	-12.4326
▁Ahaziah	-12.4326
▁Caesarea	-12.4326
▁Coordinate	-12.4326
▁impressive	-12.4326
▁loyalty	-12.4326
▁NEW	-12.4327
▁Uriah	-12.4327
▁Mahabharata	-12.4327
▁Born	-12.4327
▁lightweight	-12.4327
▁NCB	-12.4327
▁Panama	-12.4327
▁Boaz	-12.4328
▁Anyway	-12.4328
▁submitting	-12.4328
▁Haiti	-12.4328
▁metres	-12.4328
▁Danish	-12.4328
▁Bhim	-12.4329
▁Mohan	-12.433
▁robbery	-12.4331
▁tenure	-12.4332
▁taskbar	-12.4332
▁consolidated	-12.4332
▁Notification	-12.4333
▁admired	-12.4334
▁Joel	-12.4336
▁Persian	-12.4338
▁asserted	-12.4339
▁weakened	-12.4339
▁MIME	-12.4342
▁collaborated	-12.4342
▁wandering	-12.4343
▁Movement	-12.4343
▁25%	-12.435
▁Sati	-12.4351
▁Whereas	-12.4354
▁Thu	-12.4356
▁spelling	-12.4358
▁fullness	-12.4361
▁historically	-12.4367
▁protested	-12.4373
▁Ever	-12.4374
▁Alia	-12.4375
▁Signing	-12.4376
▁immigrants	-12.4381
dependent	-12.4384
▁Cuba	-12.4395
▁joke	-12.4403
▁Till	-12.4427
▁deed	-12.4429
▁gaining	-12.443
▁simpler	-12.4436
data	-12.444
▁assisting	-12.4444
▁3:2	-12.445
Select	-12.4454
vari	-12.4458
▁hosting	-12.4464
▁specifying	-12.4469
▁Rate	-12.4489
▁Bag	-12.4491
▁barrier	-12.4496
▁Soon	-12.4513
▁bh	-12.4521
dium	-12.4525
kali	-12.454
▁bathe	-12.454
▁Van	-12.4541
determination	-12.4551
Which	-12.4552
match	-12.4552
writing	-12.4552
speaking	-12.4552
proof	-12.4553
Hide	-12.4554
5.1	-12.4558
▁fabric	-12.456
▁Geographic	-12.4564
Send	-12.4569
▁anoint	-12.4587
▁Fun	-12.4587
▁mile	-12.4593
▁Hag	-12.4594
close	-12.4597
▁disturb	-12.46
▁builder	-12.46
▁evolve	-12.4602
▁integrate	-12.4602
▁initiate	-12.4602
▁discourage	-12.4602
▁Jamaica	-12.4605
▁regulator	-12.4608
▁municipal	-12.461
▁procure	-12.4611
▁advert	-12.4611
Prefecture	-12.4612
arbitrage	-12.4612
▁9:6-7	-12.4612
▁Beersheba	-12.4612
▁Falgun	-12.4612
▁Kapil	-12.4612
▁Luckily	-12.4612
▁Measure	-12.4612
▁Nuwakot	-12.4612
▁OUR	-12.4612
▁Preparation	-12.4612
▁Publish	-12.4612
▁Sleep	-12.4612
▁Structure	-12.4612
▁Ukrainian	-12.4612
▁Updating	-12.4612
▁assumption	-12.4612
▁astonishment	-12.4612
▁concession	-12.4612
▁deficiency	-12.4612
▁distributing	-12.4612
▁elaborate	-12.4612
▁exploration	-12.4612
▁frozen	-12.4612
▁gratitude	-12.4612
▁immune	-12.4612
▁inevitable	-12.4612
▁injurious	-12.4612
▁molten	-12.4612
▁navigate	-12.4612
▁obstruct	-12.4612
▁philosopher	-12.4612
▁prevalent	-12.4612
▁pursuing	-12.4612
▁restructuring	-12.4612
▁Creator	-12.4612
▁burst	-12.4612
▁cereal	-12.4612
▁historian	-12.4612
▁supervisor	-12.4612
▁treacherous	-12.4612
▁vCard	-12.4612
▁Prevent	-12.4612
▁pioneer	-12.4612
▁Rastra	-12.4612
kalagi	-12.4612
▁17:7	-12.4612
▁Micro	-12.4612
▁Visit	-12.4612
▁Abijah	-12.4612
▁Totem	-12.4612
▁crystal	-12.4612
▁counterpart	-12.4612
▁coalition	-12.4612
▁Breakpoint	-12.4612
▁interference	-12.4612
▁owing	-12.4612
▁alright	-12.4612
▁stirring	-12.4612
▁Labor	-12.4613
▁dramatic	-12.4613
▁confer	-12.4613
▁china	-12.4613
▁Score	-12.4613
▁Norway	-12.4614
▁competent	-12.4614
▁couch	-12.4614
▁Rishi	-12.4615
▁exclusively	-12.4615
▁dominated	-12.4615
▁advancement	-12.4617
▁authorization	-12.4617
▁indoor	-12.4618
▁markup	-12.4618
▁screwed	-12.4618
▁cries	-12.4619
▁runlevel	-12.4619
▁devised	-12.4621
▁Completed	-12.4621
▁Researchers	-12.4621
▁regulated	-12.4622
▁distinguished	-12.4625
▁Tamar	-12.4625
▁writable	-12.4629
▁policemen	-12.4629
▁450	-12.463
Prepare	-12.4631
▁honestly	-12.4631
▁%4	-12.4632
▁rotated	-12.4633
▁Hello	-12.4633
▁discarded	-12.464
▁merger	-12.4642
▁spared	-12.4644
▁deserted	-12.4645
▁rented	-12.465
▁pushing	-12.4651
▁classical	-12.4653
▁nationality	-12.4654
▁focuses	-12.4657
▁Giri	-12.4666
▁conventional	-12.4671
▁outset	-12.4675
▁bored	-12.4679
help	-12.468
▁interviewed	-12.4682
▁donate	-12.4684
▁Reporting	-12.4687
▁Bell	-12.4689
▁Jail	-12.4697
vil	-12.4701
▁1,1	-12.4706
▁Dow	-12.4707
▁replicate	-12.4711
player	-12.4712
wind	-12.4721
▁phenomena	-12.4722
▁doubted	-12.4724
▁interrupt	-12.4736
▁Hol	-12.4747
▁Past	-12.4748
▁handler	-12.4761
▁Mau	-12.4771
aku	-12.4776
Daddy	-12.4786
jah	-12.479
▁devotee	-12.4793
▁Rani	-12.4796
▁Understand	-12.4798
▁respectful	-12.4813
bble	-12.4813
▁sq	-12.4824
▁Care	-12.4825
LO	-12.4828
both	-12.4833
▁Selector	-12.4841
employment	-12.4845
▁Viewer	-12.4845
giving	-12.4845
student	-12.4846
Next	-12.4846
function	-12.4846
Listen	-12.4846
auto	-12.4854
shore	-12.4858
File	-12.4868
tune	-12.487
hearted	-12.4885
layer	-12.4889
▁disconnect	-12.4895
▁Complete	-12.4896
▁assemble	-12.4896
▁constitute	-12.4896
▁Apollo	-12.4906
▁peculiar	-12.4906
▁splash	-12.4906
▁transplant	-12.4906
▁Adhikari	-12.4906
▁Azerbaijan	-12.4906
▁Beijing	-12.4906
▁Bonobo	-12.4906
▁Detailed	-12.4906
▁Dynamic	-12.4906
▁Expected	-12.4906
▁Hundreds	-12.4906
▁KSpread	-12.4906
▁LDAP	-12.4906
▁Ocean	-12.4906
▁Prophet	-12.4906
▁Stories	-12.4906
▁awoke	-12.4906
▁bubble	-12.4906
▁cartridge	-12.4906
▁consolidation	-12.4906
▁conspired	-12.4906
▁disparity	-12.4906
▁disposal	-12.4906
▁doctrine	-12.4906
▁feudal	-12.4906
▁germs	-12.4906
▁humility	-12.4906
▁incurred	-12.4906
▁magnificent	-12.4906
▁malware	-12.4906
▁nugget	-12.4906
▁obesity	-12.4906
▁philosophical	-12.4906
▁predecessor	-12.4906
▁prosecutor	-12.4906
▁sensation	-12.4906
▁seventeen	-12.4906
▁simplicity	-12.4906
▁syntax	-12.4906
▁tactic	-12.4906
▁testifies	-12.4906
▁twelfth	-12.4906
▁1958	-12.4906
▁temptation	-12.4906
▁Average	-12.4906
▁Smart	-12.4906
▁Tulsi	-12.4906
▁entreat	-12.4906
▁filth	-12.4906
▁nourish	-12.4906
▁meditate	-12.4906
▁Yellow	-12.4906
reliant	-12.4906
▁auction	-12.4906
▁flashcard	-12.4906
▁flew	-12.4906
▁pillow	-12.4906
▁Palpa	-12.4907
▁NASA	-12.4907
▁scrollbar	-12.4907
▁Ganeshman	-12.4907
▁Grace	-12.4907
▁cricketer	-12.4908
▁duck	-12.4908
▁torment	-12.4908
▁Obed	-12.4908
▁Philippi	-12.4908
▁tele	-12.4909
▁Punjabi	-12.491
▁2046	-12.4911
▁scr	-12.4911
▁1937	-12.4911
▁acceptance	-12.4912
▁Upon	-12.4912
▁Parliamentary	-12.4913
▁Plain	-12.4913
▁minimize	-12.4914
▁rental	-12.4914
▁5:13	-12.4915
▁owed	-12.4915
▁realization	-12.4915
▁breeding	-12.4918
▁stalled	-12.4919
▁pledged	-12.4919
▁provoked	-12.4921
▁cling	-12.4921
▁dumped	-12.4922
▁Arc	-12.4927
▁spy	-12.4929
▁justify	-12.4932
▁tense	-12.4934
▁Righteous	-12.4941
jana	-12.4944
▁disciplined	-12.4945
▁Mede	-12.4945
haruko	-12.495
▁Former	-12.4951
▁herbal	-12.4952
▁safest	-12.4956
▁Jaya	-12.4969
▁ramp	-12.497
Of	-12.4971
▁Cause	-12.4979
via	-12.4982
▁painter	-12.4988
▁2%	-12.4989
▁internationally	-12.499
▁Kamala	-12.499
▁Sale	-12.5
▁positively	-12.5005
▁danced	-12.5007
▁Rain	-12.5012
▁labored	-12.502
▁invert	-12.5021
▁Won	-12.5047
▁bevel	-12.5047
adha	-12.5067
root	-12.5076
▁Philistine	-12.5094
▁spice	-12.5097
▁Bern	-12.51
▁Mahesh	-12.5119
▁360	-12.5119
▁Jai	-12.512
riya	-12.5122
ppa	-12.5125
▁banker	-12.514
▁pitcher	-12.5143
maximize	-12.5149
First	-12.5149
Life	-12.5149
View	-12.5149
current	-12.515
sharing	-12.5152
trust	-12.5152
Tell	-12.5153
Make	-12.5155
▁Tao	-12.5155
▁sam	-12.5165
▁0.4	-12.517
▁2.2	-12.5172
▁1500	-12.5175
▁gall	-12.5178
▁uncover	-12.5197
▁spark	-12.5198
▁pronounce	-12.5198
▁chase	-12.5199
▁Jha	-12.5201
▁maid	-12.5206
▁compress	-12.5207
▁Democrat	-12.5208
ATION	-12.5209
▁Bhagwati	-12.5209
▁Budget	-12.5209
▁Cursor	-12.5209
▁Diwali	-12.5209
▁Except	-12.5209
▁Female	-12.5209
▁GConf	-12.5209
▁Integrated	-12.5209
▁NGO	-12.5209
▁Observing	-12.5209
▁Pattern	-12.5209
▁Sticky	-12.5209
▁Thumbnail	-12.5209
▁Venezuela	-12.5209
▁antibodies	-12.5209
▁compliance	-12.5209
▁cylinder	-12.5209
▁describing	-12.5209
▁enacted	-12.5209
▁entrusted	-12.5209
▁frequency	-12.5209
▁intercept	-12.5209
▁kernel	-12.5209
▁liberty	-12.5209
▁malnutrition	-12.5209
▁miserable	-12.5209
▁monsoon	-12.5209
▁persecution	-12.5209
▁sensitivity	-12.5209
▁snapshot	-12.5209
▁striking	-12.5209
▁unauthorized	-12.5209
▁valiant	-12.5209
▁ventilator	-12.5209
▁verdict	-12.5209
▁whilst	-12.5209
▁Carmel	-12.5209
▁assuming	-12.5209
▁banquet	-12.5209
▁injection	-12.5209
▁solemn	-12.5209
▁asteroid	-12.5209
▁skirt	-12.5209
▁slander	-12.5209
▁Reverse	-12.5209
▁descent	-12.5209
▁unstable	-12.5209
▁Better	-12.5209
▁gym	-12.5209
▁Beginning	-12.5209
▁fingerprint	-12.5209
Cursed	-12.5209
▁Diagram	-12.5209
▁Compress	-12.5209
▁Indent	-12.5209
▁squad	-12.5209
▁Ainu	-12.5209
▁falsehood	-12.521
▁immorality	-12.521
▁Tiger	-12.521
▁awakened	-12.521
▁Assam	-12.521
▁Estate	-12.521
▁spray	-12.521
▁minorities	-12.521
▁SSL	-12.5211
▁Alex	-12.5211
▁Protection	-12.5211
▁worsened	-12.5211
▁Backup	-12.5211
▁diary	-12.5212
▁blogger	-12.5212
▁Ganga	-12.5213
▁artwork	-12.5213
▁renowned	-12.5213
▁betting	-12.5214
▁Lago	-12.5215
▁abundantly	-12.5215
▁similarities	-12.5216
▁vanished	-12.5216
▁portrayed	-12.5219
▁sprinkled	-12.5221
▁shipment	-12.5221
▁marketplace	-12.5221
▁anchored	-12.5222
▁crushed	-12.5223
▁complaining	-12.5224
▁Musk	-12.5224
▁benefitted	-12.5226
▁innings	-12.5226
▁portal	-12.5231
▁Sad	-12.5231
▁Whenever	-12.5232
▁boiled	-12.5233
▁mandate	-12.5234
▁Fit	-12.5237
▁dough	-12.524
▁lightness	-12.5241
▁Thereafter	-12.5241
▁folding	-12.5244
▁irrigational	-12.5245
▁referenced	-12.5251
▁Deal	-12.5252
▁YOUR	-12.5254
▁jam	-12.5256
▁Tha	-12.5257
▁selector	-12.5262
▁Teen	-12.5273
clo	-12.5281
▁endless	-12.5281
▁technically	-12.5282
▁exited	-12.53
▁router	-12.5311
mani	-12.5322
▁Bala	-12.5325
▁Sindh	-12.5332
bound	-12.5335
May	-12.5336
yer	-12.5338
▁Pain	-12.534
▁Bio	-12.5373
▁Arun	-12.5404
▁organism	-12.5406
▁Ramesh	-12.5428
Up	-12.543
system	-12.5456
school	-12.5461
Will	-12.5461
normal	-12.5462
option	-12.5464
More	-12.5464
▁sigh	-12.5481
Isn	-12.5483
sky	-12.5484
▁shameful	-12.5488
▁rider	-12.5491
▁0.1	-12.5499
▁absorb	-12.551
▁devise	-12.5512
▁Comma	-12.5515
▁complement	-12.5521
▁Config	-12.5521
▁1980/81	-12.5521
▁Alternative	-12.5521
▁Atlantic	-12.5521
▁Closing	-12.5521
▁Croatia	-12.5521
▁DocBook	-12.5521
▁Emperor	-12.5521
▁Ezra	-12.5521
▁Fruit	-12.5521
▁Kadesh	-12.5521
▁Length	-12.5521
▁Norwegian	-12.5521
▁Provision	-12.5521
▁Rebekah	-12.5521
▁Received	-12.5521
▁Upadhyay	-12.5521
▁Valgrind	-12.5521
▁Widget	-12.5521
▁ambulance	-12.5521
▁bulb	-12.5521
▁burial	-12.5521
▁consecrate	-12.5521
▁contempt	-12.5521
▁cycling	-12.5521
▁diagnosis	-12.5521
▁disabilities	-12.5521
▁dishonor	-12.5521
▁estimation	-12.5521
▁exploring	-12.5521
▁fossil	-12.5521
▁horrific	-12.5521
▁inaugurated	-12.5521
▁indicating	-12.5521
▁proximity	-12.5521
▁salaries	-12.5521
▁severity	-12.5521
▁swimming	-12.5521
▁twist	-12.5521
▁CEO	-12.5521
▁Trading	-12.5521
▁dairy	-12.5521
▁handheld	-12.5521
▁scold	-12.5521
▁shrine	-12.5521
▁cream	-12.5521
▁Staple	-12.5521
▁Hanuman	-12.5521
▁Cubic	-12.5521
▁ambush	-12.5521
▁synchronization	-12.5521
▁Telephone	-12.5521
Daughter	-12.5522
▁trekking	-12.5522
▁pardon	-12.5522
▁multipurpose	-12.5522
▁gaze	-12.5522
▁Hyper	-12.5522
▁Scanning	-12.5522
▁misery	-12.5522
▁fuelwood	-12.5522
▁Colour	-12.5522
▁afar	-12.5522
▁correspondent	-12.5522
▁filing	-12.5522
▁Edge	-12.5523
▁Partner	-12.5523
▁interactive	-12.5523
▁undone	-12.5523
▁blink	-12.5524
▁adhere	-12.5524
▁suppression	-12.5525
▁unmount	-12.5525
▁Tibetan	-12.5525
▁boom	-12.5526
▁Fight	-12.5526
▁hub	-12.5527
▁tonnes	-12.5527
▁unified	-12.5527
▁KATHMANDU	-12.5528
."'"	-12.5528
▁maiden	-12.5528
▁clinical	-12.553
▁dashed	-12.553
▁worthless	-12.553
▁chased	-12.5531
ground	-12.5532
▁arouse	-12.5532
[...]
