<PAD>	0
<UNK>	0
<BOS>	0
<EOS>	0
<0x00>	0
<0x01>	0
<0x02>	0
<0x03>	0
<0x04>	0
<0x05>	0
<0x06>	0
<0x07>	0
<0x08>	0
<0x09>	0
<0x0A>	0
<0x0B>	0
<0x0C>	0
<0x0D>	0
<0x0E>	0
<0x0F>	0
<0x10>	0
<0x11>	0
<0x12>	0
<0x13>	0
<0x14>	0
<0x15>	0
<0x16>	0
<0x17>	0
<0x18>	0
<0x19>	0
<0x1A>	0
<0x1B>	0
<0x1C>	0
<0x1D>	0
<0x1E>	0
<0x1F>	0
<0x20>	0
<0x21>	0
<0x22>	0
<0x23>	0
<0x24>	0
<0x25>	0
<0x26>	0
<0x27>	0
<0x28>	0
<0x29>	0
<0x2A>	0
<0x2B>	0
<0x2C>	0
<0x2D>	0
<0x2E>	0
<0x2F>	0
<0x30>	0
<0x31>	0
<0x32>	0
<0x33>	0
<0x34>	0
<0x35>	0
<0x36>	0
<0x37>	0
<0x38>	0
<0x39>	0
<0x3A>	0
<0x3B>	0
<0x3C>	0
<0x3D>	0
<0x3E>	0
<0x3F>	0
<0x40>	0
<0x41>	0
<0x42>	0
<0x43>	0
<0x44>	0
<0x45>	0
<0x46>	0
<0x47>	0
<0x48>	0
<0x49>	0
<0x4A>	0
<0x4B>	0
<0x4C>	0
<0x4D>	0
<0x4E>	0
<0x4F>	0
<0x50>	0
<0x51>	0
<0x52>	0
<0x53>	0
<0x54>	0
<0x55>	0
<0x56>	0
<0x57>	0
<0x58>	0
<0x59>	0
<0x5A>	0
<0x5B>	0
<0x5C>	0
<0x5D>	0
<0x5E>	0
<0x5F>	0
<0x60>	0
<0x61>	0
<0x62>	0
<0x63>	0
<0x64>	0
<0x65>	0
<0x66>	0
<0x67>	0
<0x68>	0
<0x69>	0
<0x6A>	0
<0x6B>	0
<0x6C>	0
<0x6D>	0
<0x6E>	0
<0x6F>	0
<0x70>	0
<0x71>	0
<0x72>	0
<0x73>	0
<0x74>	0
<0x75>	0
<0x76>	0
<0x77>	0
<0x78>	0
<0x79>	0
<0x7A>	0
<0x7B>	0
<0x7C>	0
<0x7D>	0
<0x7E>	0
<0x7F>	0
<0x80>	0
<0x81>	0
<0x82>	0
<0x83>	0
<0x84>	0
<0x85>	0
<0x86>	0
<0x87>	0
<0x88>	0
<0x89>	0
<0x8A>	0
<0x8B>	0
<0x8C>	0
<0x8D>	0
<0x8E>	0
<0x8F>	0
<0x90>	0
<0x91>	0
<0x92>	0
<0x93>	0
<0x94>	0
<0x95>	0
<0x96>	0
<0x97>	0
<0x98>	0
<0x99>	0
<0x9A>	0
<0x9B>	0
<0x9C>	0
<0x9D>	0
<0x9E>	0
<0x9F>	0
<0xA0>	0
<0xA1>	0
<0xA2>	0
<0xA3>	0
<0xA4>	0
<0xA5>	0
<0xA6>	0
<0xA7>	0
<0xA8>	0
<0xA9>	0
<0xAA>	0
<0xAB>	0
<0xAC>	0
<0xAD>	0
<0xAE>	0
<0xAF>	0
<0xB0>	0
<0xB1>	0
<0xB2>	0
<0xB3>	0
<0xB4>	0
<0xB5>	0
<0xB6>	0
<0xB7>	0
<0xB8>	0
<0xB9>	0
<0xBA>	0
<0xBB>	0
<0xBC>	0
<0xBD>	0
<0xBE>	0
<0xBF>	0
<0xC0>	0
<0xC1>	0
<0xC2>	0
<0xC3>	0
<0xC4>	0
<0xC5>	0
<0xC6>	0
<0xC7>	0
<0xC8>	0
<0xC9>	0
<0xCA>	0
<0xCB>	0
<0xCC>	0
<0xCD>	0
<0xCE>	0
<0xCF>	0
<0xD0>	0
<0xD1>	0
<0xD2>	0
<0xD3>	0
<0xD4>	0
<0xD5>	0
<0xD6>	0
<0xD7>	0
<0xD8>	0
<0xD9>	0
<0xDA>	0
<0xDB>	0
<0xDC>	0
<0xDD>	0
<0xDE>	0
<0xDF>	0
<0xE0>	0
<0xE1>	0
<0xE2>	0
<0xE3>	0
<0xE4>	0
<0xE5>	0
<0xE6>	0
<0xE7>	0
<0xE8>	0
<0xE9>	0
<0xEA>	0
<0xEB>	0
<0xEC>	0
<0xED>	0
<0xEE>	0
<0xEF>	0
<0xF0>	0
<0xF1>	0
<0xF2>	0
<0xF3>	0
<0xF4>	0
<0xF5>	0
<0xF6>	0
<0xF7>	0
<0xF8>	0
<0xF9>	0
<0xFA>	0
<0xFB>	0
<0xFC>	0
<0xFD>	0
<0xFE>	0
<0xFF>	0
।	-2.5198
▁छ	-4.17206
,	-4.21271
को	-4.26741
▁यो	-4.28606
▁र	-4.32486
▁पनि	-4.34269
मा	-4.68829
▁हो	-4.81333
▁लागि	-5.01788
का	-5.05192
▁थियो	-5.17676
ले	-5.21722
▁गर्न	-5.22171
▁छन्	-5.27828
▁	-5.32076
लाई	-5.38158
▁धेरै	-5.47394
▁म	-5.47601
▁भएको	-5.47608
▁भने	-5.50806
▁उनी	-5.51016
?	-5.51126
▁छैन	-5.51505
▁उनले	-5.52077
▁थिए	-5.52976
▁तर	-5.5378
▁हामी	-5.63466
▁एक	-5.64459
▁नै	-5.64964
▁मैले	-5.68662
▁सबै	-5.69302
▁कुरा	-5.76508
बाट	-5.78818
▁मेरो	-5.82648
▁मलाई	-5.84469
हरू	-5.86544
▁कुनै	-5.87165
▁एउटा	-5.8794
▁गर्नुहोस्	-5.87956
▁त्यो	-5.91189
▁यस	-5.92013
▁केही	-5.93016
▁हुन्छ	-5.97009
▁गरिएको	-5.97411
▁कि	-6.0062
.	-6.03005
▁'	-6.05733
▁काम	-6.06681
▁अनि	-6.07074
▁थाहा	-6.1036
▁हुन	-6.12575
▁गर्ने	-6.14017
▁के	-6.16631
-	-6.17151
▁गरेको	-6.18296
▁भयो	-6.20131
▁त	-6.26113
▁भन्ने	-6.27194
▁आफ्नो	-6.27893
▁वा	-6.28907
▁मा	-6.28957
▁तपाईं	-6.32447
▁अहिले	-6.33818
▁यसको	-6.35804
▁प्रयोग	-6.36398
न	-6.43851
▁उनको	-6.45747
▁दुई	-6.46304
▁हुन्	-6.48892
▁"	-6.49365
▁गरेका	-6.50448
▁दिन	-6.52532
▁समय	-6.53077
▁यी	-6.53995
▁वर्ष	-6.55102
▁हामीले	-6.57611
▁होइन	-6.57894
▁गरे	-6.58844
▁मात्र	-6.62161
▁रूपमा	-6.62358
▁हुने	-6.63444
▁यदि	-6.65868
▁छु	-6.66006
▁यसलाई	-6.66148
सँग	-6.67504
▁ती	-6.67745
हरु	-6.68052
!	-6.69025
▁को	-6.6963
▁भन्दा	-6.70605
▁थिएन	-6.70685
▁राम्रो	-6.72445
▁हाम्रो	-6.72555
▁हुनुहुन्छ	-6.75303
▁पहिलो	-6.75837
▁नयाँ	-6.76095
ी	-6.77064
▁,	-6.78104
▁रहेको	-6.78746
▁जुन	-6.78919
▁तथा	-6.80653
▁यहाँ	-6.8097
▁त्यहाँ	-6.8214
▁अब	-6.84076
▁ठूलो	-6.843
▁तपाईंको	-6.85063
▁अन्य	-6.86302
म	-6.86346
▁यस्तो	-6.86416
▁भनेर	-6.86759
▁सक्छ	-6.87617
▁तिनीहरू	-6.91416
▁छौं	-6.91567
▁गर्नु	-6.91788
र	-6.92028
▁भए	-6.92717
▁हुनेछ	-6.9322
▁यसले	-6.96469
▁तिनीहरूले	-6.9708
▁“	-6.97307
▁बारेमा	-7.00751
▁हामीलाई	-7.00859
▁उनीहरु	-7.01062
े	-7.01614
▁कसरी	-7.01671
▁बढी	-7.04318
▁अर्को	-7.04326
▁कारण	-7.04986
▁थिएँ	-7.05021
▁सन्	-7.06479
▁पछि	-7.07756
▁किन	-7.09342
▁न	-7.10103
▁उहाँले	-7.10735
▁उनीहरू	-7.1095
▁चयन	-7.10984
▁उनलाई	-7.112
▁(	-7.11243
▁जब	-7.12924
:।	-7.1344
क	-7.13675
▁नाम	-7.14216
)	-7.15304
▁आवश्यक	-7.16457
▁खेल	-7.17334
▁तपाईंलाई	-7.17881
▁त्यस	-7.19974
▁पर्छ	-7.2006
▁जना	-7.20181
ँ	-7.20306
'	-7.21192
▁-	-7.21196
▁रुपमा	-7.21243
▁घर	-7.22046
▁गर्दछ	-7.22143
▁सबैभन्दा	-7.2287
▁तपाईंले	-7.23011
▁भएका	-7.2341
▁जो	-7.23593
▁:	-7.23879
ै	-7.25569
▁फाइल	-7.26174
▁त्यसपछि	-7.28522
▁सुरु	-7.28998
▁गर्दै	-7.30354
स	-7.30371
▁तिनीहरूलाई	-7.30575
▁तीन	-7.30909
▁गरी	-7.32424
▁मानिसहरू	-7.33101
▁उसले	-7.33546
▁परिवर्तन	-7.34225
▁गर्दा	-7.344
▁वर्षको	-7.34456
▁समयमा	-7.36312
▁सक्नुहुन्छ	-7.36428
▁आएको	-7.38047
▁जसले	-7.38444
▁विभिन्न	-7.39214
▁जीवन	-7.393
▁समस्या	-7.39401
ु	-7.39597
हरूको	-7.40431
...	-7.40787
▁देखि	-7.4162
▁छैनन्	-7.44339
▁उहाँ	-7.44437
▁आज	-7.44509
▁दुवै	-7.44782
▁मृत्यु	-7.45423
ा	-7.45567
▁कार्य	-7.45715
ल	-7.4636
▁भनेको	-7.47339
▁उनीहरूले	-7.47593
▁यही	-7.48092
▁तपाईँले	-7.4811
▁प्राप्त	-7.48232
▁विकास	-7.49271
▁आफ्नै	-7.49551
▁कम	-7.50777
▁तपाई	-7.51556
ः	-7.53508
▁आफ्ना	-7.53536
।”	-7.53566
▁किनभने	-7.54544
यो	-7.55856
▁हरेक	-7.5623
▁१	-7.56713
▁उसलाई	-7.56734
▁घरमा	-7.5708
▁निम्ति	-7.57088
▁क्षेत्रमा	-7.57703
▁जस्तै	-7.58029
▁फेरि	-7.58574
ता	-7.58592
▁उनीहरूको	-7.58965
▁गर्छ	-7.59098
त	-7.59189
कै	-7.59225
▁मानिस	-7.59337
▁हुन्छन्	-7.59725
▁लामो	-7.60034
▁हुँदैन	-7.60501
हरूले	-7.61408
छ	-7.6197
▁त्यसको	-7.62101
▁प्रयास	-7.62401
▁तयार	-7.62553
▁यसमा	-7.6272
▁उनीहरुले	-7.62879
▁मेरा	-7.63685
▁अघि	-7.63843
ह	-7.64079
▁सकिन्छ	-7.64691
▁विषयमा	-7.64731
▁उसको	-7.651
▁निर्माण	-7.65597
▁सेवा	-7.65725
▁साथ	-7.65747
▁उक्त	-7.66593
ि	-7.66629
भन्दा	-7.66664
▁बाहिर	-7.67048
▁निकै	-7.67505
▁योजना	-7.68208
▁छोरा	-7.69004
▁आमा	-7.69071
देखि	-7.69284
ं	-7.70057
▁विवाह	-7.70116
▁त्यसैले	-7.70198
▁गरिरहेका	-7.70368
▁साथै	-7.70543
▁पटक	-7.70563
▁लाग्छ	-7.70668
▁हुनु	-7.70991
▁प्रत्येक	-7.71691
न्	-7.71791
▁गरेर	-7.72411
▁.	-7.72477
▁उहाँको	-7.73962
हरूलाई	-7.74271
▁त्यही	-7.74495
▁सिर्जना	-7.74779
▁अझै	-7.75098
▁आशा	-7.7544
▁अर्थ	-7.75577
:	-7.75596
▁अरु	-7.7573
प	-7.75966
"	-7.76068
▁तब	-7.76666
्	-7.76817
▁जानकारी	-7.76939
▁जस्तो	-7.77038
▁आएका	-7.77437
▁उनीहरुको	-7.78235
▁तपाईको	-7.78939
▁विश्वास	-7.79043
▁बन्द	-7.79946
▁तपाईँ	-7.79968
▁पूरा	-7.80266
▁पहिले	-7.80338
▁अरू	-7.8039
▁चार	-7.80431
ट	-7.8096
▁२	-7.81051
▁फरक	-7.81082
▁जे	-7.81266
▁मात्रै	-7.8161
/	-7.81997
▁होला	-7.82362
▁उहाँलाई	-7.83445
सम्म	-7.84812
▁कति	-7.85468
▁भाग	-7.8552
▁केहि	-7.85616
▁परमप्रभु	-7.85972
▁निर्णय	-7.86679
ो	-7.87076
हरूमा	-7.87222
▁किनकि	-7.87553
▁यस्तै	-7.87938
▁मानिसहरूलाई	-7.88252
की	-7.88741
▁सहयोग	-7.88867
हरुको	-7.89238
▁तिमीहरू	-7.89672
▁गर्छन्	-7.90047
▁रहेका	-7.90121
▁उपलब्ध	-7.90316
▁कार्यक्रम	-7.90654
▁अनुसार	-7.90748
▁मद्दत	-7.90973
▁उनीहरूलाई	-7.90976
▁मानिसहरूले	-7.91122
▁अन्तिम	-7.91308
▁मन	-7.91826
ला	-7.92047
▁कहाँ	-7.92549
▁जहाँ	-7.92596
▁भिडियो	-7.92668
▁परिवार	-7.92685
▁थिइन्	-7.92809
▁जीवनमा	-7.92866
▁बचत	-7.931
▁राजा	-7.93185
▁सम्म	-7.93391
▁अनुभव	-7.93529
▁नि	-7.93769
▁लागेको	-7.93844
▁तपाईले	-7.941
▁भइरहेको	-7.9418
पछि	-7.94331
▁दोस्रो	-7.94778
▁हुनुपर्छ	-7.94994
▁स्थापना	-7.95793
▁तिमी	-7.95793
▁फिल्म	-7.95944
▁हुँ	-7.95975
▁गरिनेछ	-7.96011
▁यस्ता	-7.96382
▁पानी	-7.96552
▁विशेष	-7.96645
ज	-7.96786
▁यसका	-7.97374
▁त्रुटि	-7.9747
▁उनका	-7.97961
▁समेत	-7.98076
▁अगाडि	-7.98109
▁थप	-7.98188
ब	-7.9834
▁गरिन्छ	-7.98869
▁जवाफ	-7.9888
द	-7.99134
▁गीत	-7.99894
▁पैसा	-8.00213
▁तपाईँको	-8.00384
▁कहिल्यै	-8.00552
▁पाँच	-8.00554
▁...	-8.00569
▁पर्ने	-8.00677
▁गरिरहेको	-8.00907
द्वारा	-8.01039
▁१०	-8.0156
▁हाम्रा	-8.01638
▁उत्पादन	-8.01942
▁दिएको	-8.01944
▁अ	-8.02
▁देश	-8.02091
▁कसैले	-8.02429
▁घटना	-8.02495
▁तिमीहरूले	-8.02606
▁भएन	-8.02816
▁जन्म	-8.02939
▁अवस्था	-8.02964
▁सो	-8.03004
▁सकेन	-8.03065
मै	-8.03248
,'	-8.0327
▁अहिलेसम्म	-8.03441
▁गर	-8.0452
▁उत्तर	-8.05692
▁प्रदान	-8.05933
▁कुराहरू	-8.06098
ौ	-8.06259
▁प्रेम	-8.06335
▁प्रतिशत	-8.0641
▁सन्देश	-8.06679
▁उ	-8.06691
▁उनीहरुलाई	-8.06846
▁कोही	-8.07312
▁बनाउन	-8.07371
▁रङ	-8.07426
▁५	-8.07476
▁ठाउँमा	-8.07763
▁सेट	-8.08465
▁३	-8.08658
▁सबैलाई	-8.08707
▁व्यवस्था	-8.08877
▁परमेश्वरले	-8.09105
▁भित्र	-8.0923
▁आ	-8.09591
व	-8.09694
▁गरिएका	-8.09717
▁तिमीहरूलाई	-8.09832
▁पुस्तक	-8.1031
▁प्रश्न	-8.10402
▁वटा	-8.10505
▁भनिन्छ	-8.10941
▁महिला	-8.11097
▁छौँ	-8.1132
▁त्यसलाई	-8.11398
▁परमप्रभुले	-8.1144
▁स्थानीय	-8.11849
▁परमेश्वरको	-8.11916
माथि	-8.12601
छन्	-8.12659
▁तपाईलाई	-8.12673
▁तिम्रो	-8.12714
▁सञ्चालन	-8.13279
▁गत	-8.13424
▁सजिलो	-8.13429
▁चाहनुहुन्छ	-8.13704
ण	-8.13828
▁गर्नुपर्छ	-8.14103
▁मुख्य	-8.1442
च	-8.14445
▁आवश्यकता	-8.14726
▁पाठ	-8.14816
▁आर्थिक	-8.14971
▁सक्छन्	-8.15021
▁माथि	-8.1507
ित	-8.15969
▁दिए	-8.16
▁त्यस्तो	-8.16175
▁क्षेत्र	-8.16216
▁२०	-8.16293
▁सक्षम	-8.16652
▁केवल	-8.17206
▁यसो	-8.17298
ेर	-8.17453
▁स	-8.17589
▁1	-8.17868
▁अध्ययन	-8.18085
▁भन्न	-8.1817
▁लक्ष्य	-8.18192
▁शक्ति	-8.18207
▁छन	-8.1826
▁अनुमति	-8.18359
▁लिन	-8.18848
▁भन्नुभयो	-8.18901
▁स्पष्ट	-8.19064
▁सुधार	-8.19278
▁सक्ने	-8.19931
▁सफल	-8.19994
▁परमेश्वर	-8.20009
▁लेख	-8.20127
▁कथा	-8.20256
▁विषय	-8.20562
▁प्रदर्शन	-8.20767
▁स्थानमा	-8.20884
ग	-8.20908
▁सही	-8.21658
▁ऊ	-8.21661
ना	-8.2206
▁यसरी	-8.22196
;	-8.22471
▁त्यस्तै	-8.22489
▁व्यक्ति	-8.23033
▁पूर्ण	-8.23314
▁देशमा	-8.23656
▁सम्भव	-8.23809
▁प	-8.24219
▁महिना	-8.24226
▁सूची	-8.24328
▁विकल्प	-8.24528
▁छौ	-8.24687
्न	-8.24754
ड	-8.2478
▁देखिन्छ	-8.24895
▁४	-8.25162
श	-8.25195
▁गरियो	-8.2571
▁तेस्रो	-8.25758
्ने	-8.25808
स्	-8.26296
▁कृपया	-8.26383
▁खुसी	-8.26479
▁ग	-8.26559
▁गलत	-8.26835
▁स्थान	-8.27123
▁तिमीलाई	-8.27219
▁तिनीहरूको	-8.27242
▁फोन	-8.27949
▁थिएनन्	-8.28011
▁गरिने	-8.28072
▁शहर	-8.28378
▁हाल	-8.28531
▁वर्षदेखि	-8.28564
▁जीवनको	-8.28687
▁असर	-8.28741
▁अवधिमा	-8.28904
▁गएको	-8.28979
▁उच्च	-8.29041
▁अधिकार	-8.29181
▁छोरी	-8.29753
ने	-8.30028
▁स्वास्थ्य	-8.30171
▁जाँच	-8.30187
▁का	-8.30576
▁खोजी	-8.3082
▁कहिले	-8.30858
तिर	-8.30873
▁गर्नुहुन्छ	-8.30884
▁कसैलाई	-8.30999
▁गए	-8.31065
▁फेला	-8.31362
▁अनुमान	-8.31466
▁भारत	-8.3152
▁समावेश	-8.31634
▁हुँदा	-8.32249
▁कारणले	-8.32278
▁सुरक्षित	-8.32294
▁एउटै	-8.32295
▁भएर	-8.32428
▁संख्या	-8.32592
▁हात	-8.32592
▁असफल	-8.32618
ू	-8.32755
▁या	-8.32759
▁खुशी	-8.32833
▁मध्ये	-8.33032
▁६	-8.33177
▁जान	-8.33252
▁कुन	-8.33694
▁देशको	-8.34377
▁वस्तु	-8.3439
▁अवस्थामा	-8.34421
▁शिक्षा	-8.34661
रा	-8.34963
सित	-8.35077
▁लाग्यो	-8.35418
▁प्रभाव	-8.35898
▁बर्ष	-8.36066
▁विचार	-8.36138
▁नेपाल	-8.36229
▁छवि	-8.36264
▁सामान्य	-8.36554
▁यात्रा	-8.37082
ेको	-8.37341
▁मान	-8.37511
री	-8.37554
▁निम्न	-8.37635
▁दिनमा	-8.38311
▁कुञ्जी	-8.38508
▁दिनु	-8.38513
▁दिने	-8.38547
▁आदेश	-8.3872
य	-8.39033
▁सूचना	-8.39352
▁नियम	-8.39623
▁हेर्न	-8.39672
▁पढ्न	-8.39859
▁उमेर	-8.39943
▁महसुस	-8.4006
▁उनीसँग	-8.40061
▁समर्थन	-8.40069
▁बताए	-8.40266
िङ	-8.40486
▁तिमीले	-8.40594
▁अनुसन्धान	-8.4076
▁त्यसो	-8.41023
▁बाट	-8.41285
▁समूह	-8.41398
▁भनी	-8.4157
▁महत्वपूर्ण	-8.41869
▁हजार	-8.41955
▁जसलाई	-8.4198
▁भेट	-8.42702
▁परेको	-8.42843
▁सुन	-8.43056
▁गर्छु	-8.43342
बारे	-8.43382
▁देखेको	-8.43404
ाई	-8.43452
▁प्रकारको	-8.43488
▁गरेकी	-8.43577
▁निश्चित	-8.43817
▁बाँकी	-8.43915
▁लागू	-8.43972
▁हुनसक्छ	-8.44082
▁वृद्धि	-8.44147
▁यद्यपि	-8.44186
▁सबैले	-8.44343
▁सत्य	-8.44459
ौं	-8.44503
▁वर्षमा	-8.44533
▁फोल्डर	-8.44643
िक	-8.44648
▁अझ	-8.44675
▁सम्पूर्ण	-8.44716
संग	-8.44961
▁सानो	-8.45099
▁क	-8.45224
▁देख्न	-8.45406
▁सक्रिय	-8.45562
▁देखिएको	-8.45571
▁कम्पनी	-8.45637
▁कस्तो	-8.45749
▁वास्तवमा	-8.46144
▁प्रति	-8.46147
▁हे	-8.46157
▁नीति	-8.46159
▁भनेका	-8.46181
▁खर्च	-8.46914
▁विगत	-8.47123
▁प्रणाली	-8.47283
▁मूल्य	-8.4747
▁ठाउँ	-8.4758
▁छिन्	-8.47767
▁बजार	-8.47843
▁प्रकार	-8.48031
▁उपचार	-8.48036
▁हुँदै	-8.48041
%	-8.48313
▁बच्चा	-8.48348
हरुलाई	-8.48864
▁गर्नुभएको	-8.48944
▁ध्यान	-8.49196
▁गर्नुभयो	-8.4932
▁ह	-8.49431
▁लिएर	-8.49582
▁जाने	-8.49764
▁पवित्र	-8.50069
▁भइसकेको	-8.50412
▁ए	-8.50495
▁हालको	-8.50579
िन	-8.50967
▁क्लिक	-8.50974
▁सबैको	-8.51123
▁जनाको	-8.51321
▁सार्वजनिक	-8.51471
▁तल	-8.51801
▁रु	-8.52034
▁चिन्ता	-8.52054
▁खाली	-8.52221
▁इस्राएलका	-8.52408
▁जसको	-8.52412
▁कार	-8.52809
▁यसै	-8.52876
▁१५	-8.52928
▁सरकारी	-8.53152
▁सरकारले	-8.53201
▁सम्बन्ध	-8.5327
भित्र	-8.53479
▁भन्नु	-8.53557
▁%	-8.53887
▁फुटबल	-8.54061
▁यसअघि	-8.54186
▁रोग	-8.54431
्यो	-8.54538
▁पर्दछ	-8.54609
▁पार्न	-8.54714
▁बताइएको	-8.54734
▁यति	-8.54792
▁अस्पताल	-8.54899
▁भन्छन्	-8.54939
▁१२	-8.55033
▁डर	-8.55388
हरुले	-8.5542
ली	-8.55634
▁सब	-8.55767
▁बेला	-8.55768
▁९	-8.55788
▁द्वारा	-8.5588
▁विस्तार	-8.56134
▁सरकार	-8.56419
ख	-8.56523
▁बारे	-8.56712
▁प्रक्रिया	-8.56944
▁आफूलाई	-8.56979
▁एकदमै	-8.56979
▁नेपाली	-8.57184
▁होस्	-8.57361
▁बनेको	-8.57545
▁माग	-8.57545
▁स्थिति	-8.57569
▁ठीक	-8.5764
▁१९	-8.57809
▁राख्न	-8.57837
▁वि	-8.57857
▁गर्नुपर्ने	-8.57952
▁समाधान	-8.58016
▁मानिसहरु	-8.58038
▁८	-8.58076
▁नजिक	-8.58126
▁खेलमा	-8.5836
▁बाटो	-8.58481
िएको	-8.58586
▁परमप्रभुको	-8.58603
▁भाषा	-8.58667
▁गर्यो	-8.58755
▁जडान	-8.58785
▁कठिन	-8.59047
▁यसबाट	-8.59147
इ	-8.59175
हरुमा	-8.59213
ए	-8.59255
▁बनाउने	-8.59286
▁‘	-8.59335
▁दिइएको	-8.59372
▁नभएको	-8.59387
भ	-8.59601
▁बीचमा	-8.59616
▁अथवा	-8.59645
्दै	-8.59771
▁सम्पर्क	-8.59846
▁मानिसको	-8.5994
ाइ	-8.60201
▁कुल	-8.60284
▁धन्यवाद	-8.60463
▁उल्लेख	-8.60472
▁स्रोत	-8.60612
▁साथी	-8.60721
▁बस	-8.60757
▁सक्दैन	-8.61177
▁दुबै	-8.6124
▁प्र	-8.61517
▁आउने	-8.61632
▁यसकारण	-8.61695
▁उद्देश्य	-8.61907
▁कृषि	-8.62157
▁प्रमुख	-8.62173
या	-8.62794
▁सदस्य	-8.62808
▁त्यसमा	-8.63287
▁सकेको	-8.63436
उ	-8.6345
▁चलचित्र	-8.63571
▁उपयुक्त	-8.63578
▁समाचार	-8.63684
▁पिता	-8.63778
▁शब्द	-8.6378
▁गर्नका	-8.64123
▁संसारमा	-8.64281
▁मतलब	-8.6429
▁सय	-8.64398
▁सामाजिक	-8.64431
▁११	-8.64556
▁रहेछ	-8.64618
▁सम्पादन	-8.64625
▁पाउन	-8.64899
▁ब	-8.65001
▁उदाहरण	-8.65173
▁अवसर	-8.65192
▁पाएको	-8.65309
▁खेल्न	-8.65321
▁तपाइँ	-8.65546
▁जारी	-8.65613
▁डेटा	-8.65681
▁गरें	-8.65699
▁त्यति	-8.65797
▁देखाउनुहोस्	-8.65936
▁अस्पतालमा	-8.66146
▁१८	-8.66254
▁राज्य	-8.66594
▁७	-8.66804
▁परीक्षण	-8.66877
▁हुनुहुन्थ्यो	-8.671
ई	-8.67366
▁हुनेछन्	-8.67414
▁आए	-8.67584
वा	-8.67827
▁प्रविष्ट	-8.67868
▁दिएका	-8.67891
▁नियन्त्रण	-8.67987
▁उमेरमा	-8.6812
▁अमेरिका	-8.68131
▁जनताको	-8.68296
▁चीन	-8.68349
▁येशूले	-8.68548
छु	-8.68587
▁ज्ञान	-8.68622
▁खाना	-8.68691
▁एकै	-8.69035
▁तयारी	-8.69241
▁भूमिका	-8.69345
के	-8.6966
▁व्यापार	-8.69732
▁दिन्छ	-8.69764
▁अवस्थित	-8.69806
▁दिनको	-8.6989
▁इ	-8.69949
▁सक्नुहुनेछ	-8.70014
▁व्यक्तिगत	-8.70273
▁चाहन्छु	-8.70347
▁जरुरी	-8.70399
▁पुरानो	-8.7075
▁समयदेखि	-8.70799
▁ख	-8.70844
▁उपयोग	-8.70901
▁राखिएको	-8.71032
▁प्रयोगकर्ता	-8.71132
▁कुराहरु	-8.71142
▁मानिसले	-8.71691
▁आफू	-8.71849
▁प्रवेश	-8.71864
▁मसँग	-8.72058
हामी	-8.72234
नन्	-8.72252
्स	-8.72362
▁गाउँ	-8.72513
▁नम्बर	-8.72546
१	-8.72547
्नु	-8.72799
प्रति	-8.72828
अनुसार	-8.72838
▁करोड	-8.72954
▁जति	-8.73
▁निजी	-8.73077
▁हत्या	-8.73177
▁कसले	-8.73298
सी	-8.73306
▁बा	-8.73341
मलाई	-8.73362
▁असल	-8.7339
▁निर्दिष्ट	-8.73421
▁भ्रमण	-8.73456
▁समाप्त	-8.7348
▁आयोजना	-8.73584
▁लगानी	-8.73613
▁सम्मान	-8.7378
▁पुगेको	-8.73835
▁कम्पनीले	-8.73847
▁संग	-8.73849
सा	-8.73851
▁आधारमा	-8.73948
▁लागी	-8.74038
▁०	-8.7404
सँगै	-8.74354
▁स्वीकार	-8.74427
▁पुन	-8.74436
▁३०	-8.74668
फ	-8.74711
्य	-8.74806
▁लेख्न	-8.74858
▁सकिँदैन	-8.74859
▁अति	-8.75298
तर्फ	-8.75774
▁पूर्व	-8.76291
▁युद्ध	-8.76447
▁खबर	-8.76542
▁उपकरण	-8.76657
▁क्रममा	-8.7666
▁ले	-8.76784
▁अन्त्य	-8.76976
▁जसमा	-8.76991
मैले	-8.7702
▁वर्षका	-8.77513
▁तिनले	-8.77524
▁ज	-8.77574
▁भारतमा	-8.77665
▁थियौं	-8.77672
▁पछिल्लो	-8.77752
▁सरकारको	-8.78092
▁नाउँ	-8.78201
▁पहिला	-8.78355
▁फोटो	-8.78397
▁सम्बन्धित	-8.78581
▁हामीसँग	-8.78622
▁आँखा	-8.78764
▁पाउने	-8.78791
▁परिवारको	-8.78827
▁सम्भावना	-8.78846
▁हुन्थ्यो	-8.78869
▁गर्नेछ	-8.78941
नै	-8.79083
▁सहज	-8.79158
▁उपयोगी	-8.79166
▁बताएका	-8.79328
▁सपना	-8.79331
▁लगभग	-8.79374
▁टाढा	-8.79462
▁भारतको	-8.79517
▁तरिका	-8.79919
थ	-8.79957
▁सञ्झ्याल	-8.79958
▁क्षमता	-8.80238
▁दृश्य	-8.80382
▁येशू	-8.80574
▁राजनीतिक	-8.80633
ेका	-8.8074
▁कार्यान्वयन	-8.80754
▁गाडी	-8.80815
▁तिनी	-8.81091
▁सि	-8.81178
▁बुझ्न	-8.81262
▁पुरुष	-8.81384
▁बस्ने	-8.81521
▁ओ	-8.81595
▁सडक	-8.81611
▁पूर्वनिर्धारित	-8.81697
▁परिवारका	-8.81734
▁गरेँ	-8.81737
▁शुरु	-8.8181
ीय	-8.8185
▁खान	-8.82064
▁)	-8.8208
▁शरीर	-8.82106
▁सँगै	-8.82497
▁श्री	-8.82529
▁गर्दैन	-8.82648
▁त्यसै	-8.82656
▁सङ्ख्या	-8.8279
▁चौथो	-8.8301
▁केडीई	-8.83011
▁भन्दै	-8.83044
▁आयो	-8.83226
▁रमाइलो	-8.83471
▁प्रभु	-8.83486
नी	-8.83601
रो	-8.83809
▁घण्टा	-8.83935
▁लोड	-8.84056
▁कुरामा	-8.84137
▁मन्दिर	-8.84215
▁हप्ता	-8.84247
▁अमेरिकी	-8.84355
▁बनाएको	-8.84465
▁भारतीय	-8.84527
▁त्यसले	-8.84571
▁इच्छा	-8.84899
▁एकजना	-8.84902
▁सात	-8.84922
▁बस्न	-8.85205
िने	-8.85269
▁ल	-8.85285
▁प्रस्ताव	-8.85511
▁बजारमा	-8.85574
▁१३	-8.85721
▁आयात	-8.85767
▁भूमि	-8.85797
हरूका	-8.85874
▁रकम	-8.86337
दा	-8.86521
अ	-8.86616
▁लेखिएको	-8.86704
▁बुबा	-8.86705
▁सुविधा	-8.86747
▁आवाज	-8.86759
▁विदेशी	-8.86922
बीच	-8.8721
▁वर्णन	-8.8722
▁सफलता	-8.87239
▁मानव	-8.87704
▁जम्मा	-8.87743
▁थाले	-8.87777
▁छोरो	-8.87825
▁पछाडि	-8.87842
▁राष्ट्रिय	-8.88326
▁हौं	-8.88392
▁विश्व	-8.88419
▁डलर	-8.88466
▁सहभागी	-8.88486
▁बि	-8.88924
▁क्षेत्रको	-8.88958
▁आउन	-8.89033
▁बीच	-8.89116
▁भनिन्	-8.89176
▁महत्त्वपूर्ण	-8.89321
▁पार्नुहोस्	-8.89418
▁सन्तान	-8.89588
,"	-8.89651
▁मे	-8.89936
्र	-8.89954
लो	-8.90094
▁रेकर्ड	-8.90405
▁यसर्थ	-8.90415
जी	-8.90479
▁बिना	-8.9066
िएका	-8.90694
▁गल्ती	-8.90796
▁लाख	-8.90822
▁संसार	-8.90836
▁नेपालमा	-8.91024
▁सक्छौं	-8.91026
▁युवा	-8.91235
▁सायद	-8.91262
▁जोड	-8.9132
▁सुरक्षा	-8.91422
▁पार	-8.91693
▁सुन्न	-8.91866
▁काममा	-8.92374
▁कर	-8.92404
▁सहायता	-8.92469
▁लग	-8.92516
▁हातमा	-8.92621
▁विद्यालय	-8.92659
▁प्रस्तुत	-8.92689
आ	-8.92947
ती	-8.93093
वि	-8.93164
▁लाई	-8.93186
▁सोच	-8.93189
▁लिने	-8.93261
▁घोषणा	-8.93417
▁अपेक्षा	-8.93589
▁प्रभावित	-8.93642
▁सम्पन्न	-8.93691
▁देशका	-8.93695
टी	-8.93735
िरहेको	-8.93738
▁प्रतिक्रिया	-8.93768
▁कुराकानी	-8.93769
▁याद	-8.93817
▁प्रायः	-8.93866
▁तिमीहरूको	-8.94
▁अधिक	-8.94047
▁बृद्धि	-8.94208
▁१४	-8.944
▁सम्झौता	-8.94486
▁फिल्मको	-8.9454
▁रहन	-8.94619
▁पाएका	-8.95087
▁तिमीहरूका	-8.95146
▁पक्ष	-8.95196
▁पालन	-8.95257
▁आदि	-8.95423
▁पृष्ठ	-8.95552
िया	-8.95889
▁मुद्रण	-8.95896
्दा	-8.96045
▁बटन	-8.9605
िन्	-8.96184
▁पर्दैन	-8.96185
▁पार्टी	-8.96208
नु	-8.96236
▁मानिसलाई	-8.96332
▁समयको	-8.96395
▁व्यवसाय	-8.9648
ङ्ग	-8.9658
▁पुनः	-8.96581
▁दक्षिण	-8.9723
▁अनुरोध	-8.97237
ियो	-8.97315
▁सु	-8.9739
▁भवन	-8.97464
ाउन	-8.97564
र्	-8.97568
नि	-8.97623
▁सारा	-8.97706
▁उद्योग	-8.97914
▁पत्र	-8.97966
▁जनता	-8.98007
▁नगर	-8.9807
▁लेखेका	-8.98083
▁सूचीमा	-8.98293
▁मानिसहरूको	-8.98358
▁जान्न	-8.98469
▁परियोजना	-8.98518
▁दिनुहोस्	-8.98703
▁खोल्न	-8.98742
▁तिनीहरूका	-8.9877
▁सुन्दर	-8.98821
▁मिति	-8.9893
▁यसैले	-8.99189
▁मूल	-8.99309
▁आमाको	-8.99356
▁इतिहास	-8.99549
▁साइज	-8.99646
▁बिक्री	-8.99712
▁साथमा	-8.99732
ाउने	-8.99788
समेत	-8.99936
▁कागजात	-8.99962
▁नष्ट	-8.99962
▁सेटिङ	-8.99971
▁उत्तम	-8.99996
▁भाइ	-9.00039
▁आज्ञा	-9.00091
▁गम्भीर	-9.00175
▁आरोप	-9.00239
▁सीमा	-9.00648
▁शैली	-9.00721
▁नेपालको	-9.00811
▁१६	-9.00835
▁मेरी	-9.00865
▁संलग्न	-9.01244
▁कुराको	-9.01311
▁ठेगाना	-9.01399
▁च	-9.01479
▁नराम्रो	-9.01494
▁चाहेको	-9.01608
▁भन	-9.01611
▁जन	-9.01663
▁कविता	-9.01905
▁नजिकै	-9.0196
▁पर्याप्त	-9.01964
▁भएमा	-9.02044
▁तपाईँलाई	-9.02086
▁रहने	-9.02197
▁पो	-9.02236
▁चाहिन्छ	-9.02262
▁करिब	-9.02346
▁चरणमा	-9.02464
▁जानु	-9.02546
▁त्यसका	-9.0273
▁वर्षअघि	-9.02789
▁लेखेको	-9.02809
▁न्याय	-9.02875
▁अक्षम	-9.02928
▁पर	-9.03045
▁हालै	-9.03106
▁साँच्चै	-9.0315
▁आधार	-9.03161
▁रिलिज	-9.03205
▁समान	-9.03284
▁गर्छौं	-9.03329
▁आधारित	-9.03523
▁सक्दछ	-9.03529
▁रात	-9.03616
रे	-9.03759
्छ	-9.03821
▁पुष्टि	-9.03881
▁शिक्षक	-9.03915
▁डिजाइन	-9.03977
ष	-9.04122
हा	-9.04152
▁आगामी	-9.04171
▁स्तर	-9.04368
▁तह	-9.04403
▁मान्छे	-9.04411
२	-9.04473
हो	-9.04533
▁तिनलाई	-9.04571
▁कम्पनीको	-9.04608
▁पाए	-9.0465
▁भेट्न	-9.0482
▁अमेरिकामा	-9.0498
▁निर्भर	-9.05021
▁तालिम	-9.05154
▁हटाउन	-9.05239
▁फ	-9.05322
▁चोट	-9.05446
▁कतिपय	-9.0549
▁आगो	-9.05519
▁अस्वीकार	-9.0554
▁किताब	-9.05582
▁५०	-9.05653
बा	-9.05701
▁द	-9.05749
▁गर्दछौं	-9.05876
डी	-9.0596
▁केन्द्र	-9.05982
▁भागमा	-9.06761
▁भाषामा	-9.06787
▁देखा	-9.06917
▁कमजोर	-9.0693
मध्ये	-9.07041
▁पासवर्ड	-9.07126
▁प्रतिलिपि	-9.07245
ति	-9.07333
टा	-9.07362
▁खास	-9.07505
कालागि	-9.07529
▁अनुप्रयोग	-9.07606
▁सरल	-9.07811
▁सुरुवात	-9.07835
▁बल	-9.07856
▁फिल्ममा	-9.07875
▁प्रार्थना	-9.08029
छौ	-9.0847
▁बैठक	-9.08524
▁प्रगति	-9.0858
▁हासिल	-9.08636
▁खेलाडी	-9.08667
▁हौ	-9.08772
▁बाल	-9.088
ङ	-9.08947
▁हेर	-9.09
▁भविष्यमा	-9.09188
जा	-9.0923
▁भिन्न	-9.09332
▁मौका	-9.09356
▁चीजहरू	-9.09455
▁साधारण	-9.09469
▁प्रभावकारी	-9.09569
▁शुरू	-9.09784
▁भर्ना	-9.09872
▁चाहन्छन्	-9.0988
▁व	-9.10021
▁गोल	-9.10025
▁पहुँच	-9.10068
▁खराब	-9.10143
▁वितरण	-9.10185
▁ख्रीष्ट	-9.10227
▁नियमित	-9.1033
▁पत्ता	-9.10383
ंग	-9.10442
▁घरको	-9.10683
कहाँ	-9.10779
रि	-9.10814
ओ	-9.10816
▁ठूला	-9.10844
७	-9.10942
▁भर	-9.10965
▁तिर	-9.11105
▁शहरमा	-9.11127
▁देखे	-9.11277
▁महत्व	-9.11303
▁निर्यात	-9.11832
▁भई	-9.1184
▁संसारको	-9.11857
▁मार्ग	-9.11863
▁२५	-9.1187
▁जिल्ला	-9.11875
▁संवाद	-9.1188
▁दुईवटा	-9.11903
▁देखाउन	-9.12029
▁प्रकारका	-9.12107
▁औषधि	-9.12153
▁आफूले	-9.12221
▁गएका	-9.12245
▁बढाउन	-9.12386
▁तपाईंसँग	-9.12436
▁मानिन्छ	-9.12542
▁साझा	-9.12569
▁क्षति	-9.12674
▁आउँछ	-9.1295
▁पाप	-9.13077
▁पहिचान	-9.1331
▁दुष्ट	-9.13327
▁योजनाको	-9.13669
▁आफै	-9.13757
सम्बन्धी	-9.13803
▁वास्तविक	-9.13845
▁भन्नुहुन्छ	-9.13871
▁उत्कृष्ट	-9.14164
▁गराउन	-9.14193
▁लेखक	-9.14215
▁अलग	-9.14239
▁बनाउनु	-9.14303
ौँ	-9.14706
▁चीज	-9.14722
▁गरि	-9.14747
▁खाने	-9.14806
▁सामना	-9.14927
▁परिणाम	-9.14941
▁छोराहरू	-9.14956
▁व्यवहार	-9.15086
०	-9.151
▁अभाव	-9.15105
▁आधा	-9.15179
▁आउनु	-9.15182
▁सधैं	-9.15257
▁छोटो	-9.15362
▁फिर्ता	-9.1546
▁गर्दछन्	-9.15567
▁दुइ	-9.15771
▁जस्ता	-9.15933
▁सामग्री	-9.16229
▁दैनिक	-9.16475
▁चरण	-9.165
▁रुचि	-9.16559
ुपर्छ	-9.16771
▁धर्म	-9.16846
▁बिन्दु	-9.16885
▁बढ	-9.16925
▁होइनन्	-9.17037
▁सुरुमा	-9.17168
▁नदी	-9.17254
ाउ	-9.17275
▁खेलको	-9.1733
▁परिवारमा	-9.17334
▁पद	-9.17473
▁मौसम	-9.17515
▁खुला	-9.17587
▁दायाँ	-9.17671
▁दिनुभएको	-9.17686
▁भनिएको	-9.17794
कार	-9.17879
▁दर	-9.1792
▁पत्नी	-9.17921
०००	-9.17934
▁सहर	-9.17947
▁सम्बन्धमा	-9.18089
▁स्कुल	-9.18137
▁दुःख	-9.18228
ध	-9.18317
▁प्रकाशित	-9.18344
▁सा	-9.18598
▁तिनका	-9.18612
्या	-9.18638
▁जिम्मेवारी	-9.18694
▁वन	-9.18716
▁विभाजन	-9.18773
▁व्यवस्थापन	-9.18798
▁वर्षपछि	-9.1882
▁पहिलोपटक	-9.18921
▁बोल	-9.19038
▁प्राथमिकता	-9.19096
डा	-9.19175
▁गर्दैछ	-9.19274
▁भएपछि	-9.19482
▁आक्रमण	-9.19546
▁उचित	-9.19569
▁विरोध	-9.19592
▁शान्ति	-9.19729
▁यसबारे	-9.19907
▁एवं	-9.20016
▁फिल्टर	-9.20016
▁ल्याउन	-9.20027
▁निर्धारण	-9.20029
▁ट	-9.20066
▁छैनौं	-9.20101
▁चुनौती	-9.20268
▁लगाउन	-9.20272
▁शासन	-9.20361
▁सकिने	-9.20408
छौं	-9.20592
▁मुद्दा	-9.20657
जस्तै	-9.20686
▁वचन	-9.20739
▁आठ	-9.20828
▁गयो	-9.20833
▁गाउँमा	-9.20891
िए	-9.20918
▁कदम	-9.20922
▁गर्नेछन्	-9.20952
ठ	-9.21297
▁स्वतन्त्र	-9.21319
दिन	-9.21385
▁जान्छ	-9.21394
▁सालमा	-9.21449
▁१७	-9.21539
८	-9.21589
▁उपाय	-9.21618
▁निरन्तर	-9.21653
▁हुनुहुन्न	-9.21918
▁आजको	-9.22038
▁बायाँ	-9.22092
▁रिपोर्ट	-9.22095
िरहेका	-9.22337
▁महिनाको	-9.22371
▁स्वस्थ	-9.22555
▁आत्मा	-9.22586
▁हैन	-9.22717
▁ठुलो	-9.22782
▁मिडिया	-9.22905
▁ताकि	-9.22905
▁तरिकाले	-9.22908
▁पीडा	-9.23022
▁व्यक्तिको	-9.23083
मी	-9.23169
▁दिनुभयो	-9.23259
▁पुग्न	-9.23332
▁प्रशंसा	-9.23368
ष्ट	-9.23464
▁योजनामा	-9.23491
▁भन्यो	-9.23635
▁उनीहरूका	-9.23674
▁अभिनय	-9.23722
▁उत्पन्न	-9.23722
▁समूहमा	-9.23754
▁बढेको	-9.23842
▁थप्नुहोस्	-9.23872
जस्तो	-9.23961
▁सहमति	-9.2397
▁साना	-9.24007
▁निर्देशन	-9.24025
▁तेल	-9.24101
▁चिन्ह	-9.24121
▁सहमत	-9.24303
▁पाइन्छ	-9.24524
▁डाउनलोड	-9.24551
▁साइट	-9.24802
▁भविष्य	-9.24815
▁उहाँका	-9.24878
▁सँग	-9.24938
▁डाटा	-9.2504
िन्छ	-9.25043
▁भ	-9.25234
▁लागे	-9.25257
▁फाइदा	-9.25278
▁पक्राउ	-9.25282
ुभएको	-9.25341
▁व्यस्त	-9.25389
▁नागरिक	-9.25424
▁बनाए	-9.25671
▁लाभ	-9.25675
▁डा	-9.25681
पी	-9.25714
▁संस्करण	-9.25765
▁सर्भर	-9.25804
घ	-9.25861
▁हिस्सा	-9.25869
लि	-9.26055
गा	-9.26097
▁शुल्क	-9.26352
▁साँचो	-9.26474
▁त्यस्ता	-9.26487
▁कायम	-9.26651
▁व्यापक	-9.26716
३	-9.26777
एको	-9.26875
▁छैन्	-9.26916
▁रेखा	-9.2724
▁पाउनु	-9.27286
▁थाह	-9.27317
▁अप	-9.27371
▁राष्ट्रपति	-9.27394
▁मोड	-9.27453
▁सोधे	-9.27522
▁मुक्त	-9.27536
▁गरिन्	-9.27574
▁निधन	-9.27706
▁वस्तुहरू	-9.27719
▁सक्नु	-9.27728
▁राख्ने	-9.28001
▁विवरण	-9.28021
▁कसैको	-9.28045
हे	-9.28107
▁बन्न	-9.28271
▁अधिकांश	-9.28434
▁वर्षसम्म	-9.28436
▁फल	-9.28555
▁गाह्रो	-9.28557
▁स्वचालित	-9.28557
▁लिएको	-9.2857
नो	-9.28581
▁दण्ड	-9.28668
▁गोली	-9.28744
▁बर्षको	-9.28782
▁कु	-9.29062
५	-9.2917
▁प्रमाण	-9.29274
▁वरिपरि	-9.2956
▁बनाइएको	-9.29563
पनि	-9.29639
▁लगाइएको	-9.29691
४	-9.29701
म्	-9.29843
▁मिनेट	-9.29884
▁जोखिम	-9.29892
▁श	-9.29907
▁प्रश्नको	-9.29947
▁जेल	-9.30154
▁चाहिएको	-9.30295
▁घृणा	-9.30306
▁स्थापित	-9.30358
▁बसेको	-9.30387
▁मेल	-9.30433
▁परिवारलाई	-9.30472
▁सक्छु	-9.30517
▁चल	-9.30682
▁जोडिएको	-9.30712
बी	-9.30715
▁--	-9.30763
िय	-9.30908
▁खेलेका	-9.31041
▁संगीत	-9.31065
▁राष्ट्र	-9.31197
▁बाबु	-9.31215
▁धनी	-9.31259
▁अंश	-9.31324
▁बुझ	-9.31325
▁सं	-9.31457
▁चलिरहेको	-9.31587
▁अवधि	-9.31695
▁आनन्द	-9.31958
▁४०	-9.32113
▁स्कूल	-9.32176
▁संरक्षण	-9.32226
▁फाइलहरू	-9.32393
▁पढ	-9.32588
▁कामको	-9.32592
▁बैंक	-9.3261
▁बन	-9.32692
▁यहि	-9.32758
▁विकासको	-9.329
ाउँदै	-9.33108
▁आन्तरिक	-9.33117
▁दोष	-9.33236
?”	-9.33268
▁ढाँचा	-9.33274
▁पि	-9.33385
▁रक्षा	-9.33457
▁खाता	-9.3348
▁पर्यो	-9.33555
्दछ	-9.33566
▁अतिरिक्त	-9.33661
▁नेता	-9.33891
▁लाग्ने	-9.339
न्छ	-9.34041
▁एकदम	-9.34091
▁थोरै	-9.3416
▁विधि	-9.34295
▁बोल्न	-9.34302
▁उहाँहरु	-9.3431
▁अत्यन्त	-9.34483
▁नौ	-9.34497
▁ब्लग	-9.34501
▁खेल्ने	-9.34502
▁महिलाको	-9.34512
▁तथ्य	-9.34517
कर्ता	-9.34609
▁उप	-9.34657
▁संकेत	-9.34665
▁सुरू	-9.34739
▁/	-9.34827
▁योग्य	-9.3493
▁फन्ट	-9.34956
▁अवैध	-9.34964
सहित	-9.35142
▁छनौट	-9.35213
▁क्षण	-9.35273
▁पानीको	-9.35379
▁परेका	-9.35391
▁बे	-9.355
▁आफैं	-9.35636
▁गणना	-9.35744
ुपर्ने	-9.35857
▁बलियो	-9.35924
▁चाल	-9.35999
▁क्लब	-9.3605
▁घरमै	-9.36153
▁बच्चाहरु	-9.36398
मेरो	-9.3648
▁रद्द	-9.36859
िंग	-9.3688
▁कम्प्युटर	-9.36956
▁नेतृत्व	-9.36992
्छन्	-9.37145
▁चाहानुहुन्छ	-9.37219
▁संयुक्त	-9.37222
▁तिनीहरु	-9.37247
▁हुनुपर्दछ	-9.37326
▁जल	-9.37331
▁पुत्र	-9.37339
▁लगे	-9.37342
▁अध्यक्ष	-9.37502
▁जि	-9.37519
▁शक्तिशाली	-9.37627
▁उसका	-9.3764
ान	-9.37641
्नुहोस्	-9.37717
▁संघर्ष	-9.37761
▁वर्तमान	-9.37805
पन	-9.37808
▁शीर्षक	-9.37842
▁तिनको	-9.37887
▁अघिल्लो	-9.37906
▁हेर्नुहोस्	-9.37927
▁मु	-9.37945
▁लोकप्रिय	-9.38018
६	-9.38096
▁मालिक	-9.38174
▁सुनेको	-9.38238
▁पा	-9.38319
▁सल्लाह	-9.38366
▁गराउने	-9.38461
▁कमी	-9.38465
▁पृथ्वी	-9.38517
▁दिनदेखि	-9.3855
▁गुण	-9.38576
▁चाहना	-9.38592
▁कडा	-9.38611
पूर्ण	-9.3868
▁चाहिँ	-9.38807
▁आई	-9.38844
▁प्ले	-9.38847
▁एक्लै	-9.38852
▁गति	-9.38854
▁उपन्यास	-9.38906
▁तपाइँको	-9.38946
:%	-9.38958
▁कानून	-9.39014
हरूबाट	-9.3905
▁गर्नुपर्दछ	-9.39119
▁वास्तवमै	-9.39266
▁रचना	-9.39293
▁उनीहरूसँग	-9.39315
▁धन	-9.39655
▁टिप्पणी	-9.39746
▁जीवित	-9.39792
▁खरिद	-9.39818
▁खतरा	-9.3988
▁आग्रह	-9.39961
▁डि	-9.39974
▁प्रहरीले	-9.40116
प्र	-9.40133
▁देखेर	-9.40147
▁गरिसकेका	-9.40165
▁एप	-9.40258
▁तत्काल	-9.403
▁प्रतिवेदन	-9.40307
▁प्लगइन	-9.40374
ाइएको	-9.40493
हामीले	-9.40529
▁अभ्यास	-9.40653
▁श्रीमती	-9.40679
▁कन्फिगर	-9.40683
▁खोज	-9.40793
▁कार्यालय	-9.40985
▁गर्व	-9.40988
तर	-9.4101
▁राख्नु	-9.41024
▁सम्पत्ति	-9.41065
▁ड	-9.4109
▁चुनाव	-9.41208
▁साल	-9.41259
शा	-9.41269
▁बाहेक	-9.41292
▁प्रधान	-9.41368
▁चलाउन	-9.41542
▁भएँ	-9.41677
▁होटल	-9.41811
▁पूरै	-9.41919
▁बसेका	-9.42009
▁सर	-9.42045
▁व्यक्तिहरू	-9.42178
▁सुझाव	-9.42215
▁लागत	-9.42234
▁लिएका	-9.42294
▁आइ	-9.42382
(	-9.42425
▁वर्षा	-9.4256
▁लाग्न	-9.4257
▁थालेको	-9.42601
▁प्रविधि	-9.42682
ुहुन्छ	-9.42804
ुभयो	-9.43052
▁खोल्नुहोस्	-9.4307
▁ला	-9.43158
▁हार	-9.43165
▁प्रत्यक्ष	-9.43204
▁हस्ताक्षर	-9.43209
▁झैं	-9.43219
▁२१	-9.43241
▁बग	-9.4329
कोलागि	-9.43336
बाटै	-9.43345
ही	-9.43345
▁आकाश	-9.43427
▁गर्नेछु	-9.43499
▁वेब	-9.43591
▁रगत	-9.43638
▁सकिएन	-9.43657
▁स्तम्भ	-9.43659
▁सुरुआत	-9.43774
▁प्रविष्टि	-9.43892
▁यन्त्र	-9.43944
▁प्रतियोगिता	-9.43947
▁थियौ	-9.43949
खा	-9.43981
सि	-9.44051
ाउनु	-9.44184
▁साधन	-9.44328
▁उहाँहरुले	-9.44373
▁तिम्रा	-9.44377
▁जिम्मेवार	-9.44455
▁पर्दा	-9.44483
▁बनाएका	-9.44562
▁तालिका	-9.446
▁महान	-9.44661
▁बच्चाको	-9.44734
▁संस्था	-9.44742
▁चिन्तित	-9.44936
▁सेयर	-9.44944
▁औं	-9.45017
▁लाइन	-9.45023
▁बढ्दै	-9.45182
▁डाइरेक्टरी	-9.45261
▁साथीहरू	-9.45261
▁रूप	-9.45296
▁वातावरण	-9.45423
▁महिमा	-9.45526
गत	-9.4554
▁राम्रोसँग	-9.45542
▁लि	-9.45651
▁जनालाई	-9.45759
▁सिक्न	-9.45815
▁इमेल	-9.45969
▁थिइनँ	-9.46017
▁हेर्ने	-9.46029
▁काठमाडौं	-9.46107
▁कार्ड	-9.46128
▁अनुवाद	-9.46158
▁रहन्छ	-9.46244
▁कन्फिगरेसन	-9.46261
▁पार्ने	-9.46305
▁गर्दछु	-9.46386
▁ग्रामीण	-9.46406
▁गर्थे	-9.46543
▁विस्तृत	-9.46702
▁परिचित	-9.46729
▁लिनु	-9.46732
▁चर्चा	-9.46757
▁देखेका	-9.46874
▁अत्यन्तै	-9.46931
हरूसँग	-9.46961
▁बसे	-9.47015
▁विद्यालयमा	-9.47367
डि	-9.47533
पा	-9.47606
▁चीनमा	-9.47774
▁पढेको	-9.48011
▁कामहरू	-9.48019
यदि	-9.48028
नको	-9.48079
1	-9.48158
▁रे	-9.4817
▁शब्दहरू	-9.48217
▁विज्ञान	-9.48275
▁पुस्तकमा	-9.48311
्यौं	-9.48318
▁पर्यटन	-9.48349
▁अनलाइन	-9.4835
▁तुलनामा	-9.48351
▁अफ	-9.48367
▁कुरालाई	-9.48377
▁गएर	-9.4844
▁राखेको	-9.48462
▁जनसंख्या	-9.48503
▁धारणा	-9.48544
▁छन्ः	-9.48595
▁कमजोरी	-9.48645
▁भन्छ	-9.48766
▁आम	-9.48864
एस	-9.48944
▁मिलेर	-9.48998
▁सडकमा	-9.49036
▁उठ	-9.49128
▁मध्य	-9.4914
▁अमेरिकाको	-9.49159
िस	-9.49229
अघि	-9.49235
▁पुगेका	-9.49286
▁परमेश्वरलाई	-9.49397
▁पुरस्कार	-9.49411
▁निर्वाचन	-9.49452
▁हालसम्म	-9.49578
▁डाक्टर	-9.49585
बि	-9.49705
▁विगतमा	-9.49792
स्ट	-9.49844
▁चेतावनी	-9.4987
▁तापनि	-9.49881
▁अज्ञात	-9.4989
▁भरिएको	-9.49903
▁रह्यो	-9.50025
▁यौन	-9.50026
▁सत्र	-9.50053
▁ति	-9.50079
▁वर्ग	-9.50185
▁उहाँसँग	-9.50261
▁विद्यार्थी	-9.5033
▁परे	-9.50371
▁२२	-9.50442
▁प्राकृतिक	-9.50485
▁नाममा	-9.5053
▁सातौं	-9.50533
▁बिरामी	-9.51048
रुपमा	-9.51101
▁दोषी	-9.51158
▁एन	-9.51169
कर	-9.5128
▁नहुने	-9.51388
▁शारीरिक	-9.51414
▁कक्षा	-9.51463
▁एस	-9.51503
पत्र	-9.51642
▁हुन्न	-9.51858
▁जापान	-9.51986
▁कतै	-9.52046
▁अहिलेको	-9.52097
▁विरुद्ध	-9.52127
▁चलचित्रमा	-9.52187
▁२४	-9.5219
▁जाँदै	-9.52273
▁बनेका	-9.5231
▁कार्यहरू	-9.5247
▁मानसिक	-9.52499
ेल	-9.52638
▁साथीहरु	-9.52666
▁खरीद	-9.52668
▁हुँदैछ	-9.52785
एल	-9.52979
▁पुरा	-9.53097
▁आय	-9.53117
▁अन्त्यमा	-9.53183
लाइ	-9.53232
यस	-9.53314
▁गरेनन्	-9.53323
▁जहाज	-9.5352
▁प्रयोगकर्ताहरू	-9.53567
▁कार्यक्रममा	-9.53574
▁तर्फ	-9.53588
▁गो	-9.53683
▁पशु	-9.53692
▁ग्रह	-9.53742
▁प्रमाणित	-9.53813
▁सञ्जाल	-9.53831
▁गर्यौं	-9.54004
▁पर्न	-9.54156
▁अदालतमा	-9.54281
▁पु	-9.5429
▁लेख्ने	-9.54308
्यु	-9.54346
▁सम	-9.54356
पर	-9.54407
▁भएकी	-9.54453
▁कारोबार	-9.54487
▁नहुन	-9.54577
▁शुद्ध	-9.54577
▁नियमहरू	-9.54676
▁सामान्यतया	-9.54741
▁कल	-9.54848
▁विरूद्ध	-9.54849
▁क्रम	-9.54878
▁प्राविधिक	-9.54898
▁कलेज	-9.55086
▁य	-9.55124
▁उनि	-9.55176
▁पृष्ठभूमि	-9.55204
▁टोली	-9.55389
▁अधिकतम	-9.55398
रु	-9.55693
▁बढ्न	-9.55816
▁राजाले	-9.55841
▁बाकस	-9.5585
से	-9.55889
▁सन्तुष्ट	-9.55899
ीको	-9.55924
▁आएर	-9.55955
▁छलफल	-9.56033
▁हु	-9.56045
▁स्तरमा	-9.5607
▁विमानस्थल	-9.56124
▁कहाँबाट	-9.56136
▁गरिसकेको	-9.56186
▁पक्कै	-9.562
चा	-9.56384
▁उस्तै	-9.56524
▁सबैका	-9.56593
▁रहनेछ	-9.56605
▁प्रतिशतले	-9.56643
▁विकसित	-9.56691
▁से	-9.56695
▁प्रकाशन	-9.56751
▁परेन	-9.56761
▁भिडियोमा	-9.56875
▁घट	-9.56993
▁जनाएको	-9.57019
▁त्यसरी	-9.57095
▁स्वागत	-9.57183
▁उपहार	-9.57207
▁प्रकाश	-9.57245
▁उपस्थित	-9.57248
▁जा	-9.57287
▁तपाईंका	-9.57291
▁उनीहरुका	-9.57453
▁सम्झना	-9.57577
▁मार्फत	-9.57604
▁मुख	-9.57686
ल्	-9.57767
▁मेट्न	-9.57809
▁पठाउन	-9.57838
्यौ	-9.5797
▁जसरी	-9.5802
▁आकार	-9.58062
▁भावना	-9.58085
▁ठिक	-9.58131
▁सन्दर्भमा	-9.58338
▁कला	-9.58384
ाएर	-9.58385
टर	-9.58392
▁आमालाई	-9.58392
▁मनमा	-9.58429
▁शहरहरू	-9.58459
▁बताएको	-9.58482
▁सीमित	-9.58494
ाएको	-9.58601
▁मन्त्री	-9.58677
▁जटिल	-9.58679
▁यहूदाका	-9.5871
▁पति	-9.58724
▁सफा	-9.58828
▁चित्र	-9.58864
▁चीनको	-9.58892
▁ई	-9.58906
▁धार्मिक	-9.58915
▁छुट	-9.58937
▁विश्वको	-9.59072
▁दिनपछि	-9.591
▁रोचक	-9.59179
▁पहिल्यै	-9.59179
▁सक्छौ	-9.59199
द्	-9.59269
▁फ्रेम	-9.59299
ेड	-9.59337
▁सार्नुहोस्	-9.59356
▁हटाउनुहोस्	-9.59357
▁स्क्रिप्ट	-9.59392
▁मित्र	-9.59433
ताको	-9.5944
न्ड	-9.5953
▁तस्वीर	-9.59552
▁निकासी	-9.59559
▁कलाकार	-9.5984
▁ता	-9.59894
▁अन्तर्गत	-9.59952
▁समस्याको	-9.59956
९	-9.6001
▁लागेका	-9.6008
▁सक्दैनन्	-9.60145
त्र	-9.60187
▁डाटाबेस	-9.60193
▁गठन	-9.60193
▁सजाय	-9.60194
▁दल	-9.60256
र्क	-9.60278
कि	-9.60353
▁रूपले	-9.60358
▁केन्द्रित	-9.60412
▁लाग्दैन	-9.60465
ेज	-9.60481
▁घरबाट	-9.60522
▁बढि	-9.60542
▁रहे	-9.60651
▁भीड	-9.60714
▁उनकी	-9.60717
▁पत्रकार	-9.60831
▁प्रहरी	-9.60833
▁सक	-9.60835
▁औद्योगिक	-9.60875
▁प्रतिस्पर्धा	-9.6089
▁सुने	-9.60927
▁समयपछि	-9.60963
▁कागज	-9.61043
क्स	-9.61186
झ	-9.61192
▁कार्यमा	-9.61213
▁मेहनत	-9.61218
▁बस्दै	-9.61352
▁देखिने	-9.61449
▁उडान	-9.61523
▁सम्बन्धी	-9.61537
▁सी	-9.61547
▁मिलियन	-9.61567
▁विवाद	-9.61681
ण्ड	-9.6175
▁विदेश	-9.61958
▁बालक	-9.62054
▁प्राथमिक	-9.621
▁पृथ्वीमा	-9.62214
तिहासिक	-9.62253
▁समाज	-9.62356
▁आफ्नी	-9.6243
▁कर्मचारी	-9.6251
▁मिश्र	-9.62625
▁ने	-9.62634
▁पूजा	-9.6268
▁राजधानी	-9.62775
▁जनतालाई	-9.62779
▁पक्षमा	-9.6281
▁अन्त	-9.62834
▁दिनसम्म	-9.6285
▁खासै	-9.62898
▁आधुनिक	-9.62944
▁चाहन्छौं	-9.62979
▁दश	-9.63024
▁बचाउन	-9.63169
▁पी	-9.63191
ाऊ	-9.63194
▁प्रतिमा	-9.63204
▁सचेत	-9.63308
▁माध्यम	-9.63325
▁अवश्य	-9.63486
▁राज	-9.63536
▁अंक	-9.63582
▁माछा	-9.63602
▁की	-9.6364
▁महा	-9.63693
▁रंग	-9.63763
▁अर्कै	-9.63845
▁गरेपछि	-9.63885
▁अनुसरण	-9.64003
▁पश्चिम	-9.64017
ार	-9.64193
▁प्रकारले	-9.64309
हि	-9.64346
▁रोक्न	-9.64362
▁तर्क	-9.644
▁आमाले	-9.6446
▁सोचेको	-9.64498
▁पढ्ने	-9.64529
▁राम्ररी	-9.64534
▁विश्वका	-9.64613
▁प्याकेज	-9.6463
▁खडा	-9.64738
वाद	-9.64748
▁पुल	-9.64775
्ला	-9.64799
जि	-9.64836
▁प्रतिबन्ध	-9.64866
▁सकारात्मक	-9.6489
▁आधारभूत	-9.64892
▁लगाउने	-9.64926
ात्मक	-9.64988
वादी	-9.6499
▁वैज्ञानिक	-9.65026
▁बहिनी	-9.6504
▁थप्न	-9.65049
▁खेती	-9.65157
▁शरीरको	-9.65237
दै	-9.65311
सु	-9.65355
▁कुरो	-9.65459
▁मत	-9.65491
▁त्यहाँबाट	-9.65588
▁हतियार	-9.65605
▁रेडियो	-9.65645
▁परिभाषित	-9.65652
▁जनाइएको	-9.65677
्रो	-9.6574
▁पाल	-9.65788
▁यूहन्ना	-9.65819
▁सृष्टि	-9.65964
▁कार्यक्रमको	-9.65975
रको	-9.66225
▁लिङ्क	-9.66382
▁भोजन	-9.66432
ोस्	-9.66512
▁पीडित	-9.66535
▁घ	-9.66568
▁अभियान	-9.66576
मात्र	-9.66581
▁बराबर	-9.66659
▁विषयवस्तु	-9.66699
▁पोस्ट	-9.66763
▁राख	-9.66764
▁शहरको	-9.66905
▁सदा	-9.66941
▁घटनाको	-9.67037
▁छोराछोरी	-9.67071
▁छिटो	-9.67077
▁बच्चाहरू	-9.67131
▁दाऊदले	-9.67156
▁किसिमको	-9.67183
▁मार्न	-9.6721
▁अद्यावधिक	-9.67232
▁प्रमाणपत्र	-9.67243
्‍	-9.67294
▁शिर	-9.6733
▁महिनामा	-9.67404
▁गृह	-9.6747
दि	-9.67526
▁अन्न	-9.67612
▁धेरैजसो	-9.67682
▁मोशाले	-9.6777
▁कसलाई	-9.67788
र्स	-9.67789
▁निको	-9.67796
▁अंग्रेजी	-9.67809
▁८०	-9.67814
ृ	-9.67856
▁मात्रामा	-9.67879
▁समयसम्म	-9.67902
▁२००	-9.67941
▁चर्च	-9.6803
▁शत्रु	-9.68056
▁पारेको	-9.68117
▁हुदैन	-9.68147
त्	-9.68285
▁तपाईहरु	-9.68379
▁छोडेर	-9.6841
▁संरचना	-9.68517
▁आराम	-9.68537
▁कसको	-9.68739
धि	-9.68772
तपाईं	-9.68822
▁जानुहोस्	-9.69098
▁नगर्ने	-9.69164
▁ध	-9.69179
▁जापानी	-9.69204
▁भनेँ	-9.69236
▁बीचको	-9.69247
त्त	-9.69254
वे	-9.69296
दी	-9.69388
▁परमेश्वरका	-9.69471
▁डेस्कटप	-9.69479
▁कार्यरत	-9.69479
▁छोड	-9.6951
▁सबभन्दा	-9.6959
▁पालना	-9.69623
▁माध्यमबाट	-9.69624
▁युद्धमा	-9.69648
▁सकेनन्	-9.69691
▁भन्छु	-9.69718
▁रेल	-9.69799
▁अन्तर	-9.69807
▁शायद	-9.69818
”	-9.69831
▁६०	-9.69833
ाव	-9.69842
▁हर	-9.69873
▁तयारीमा	-9.69902
▁बनाउँछ	-9.69939
▁सहित	-9.7
▁२०१६	-9.70016
▁२०२०	-9.70029
▁परिवारले	-9.70166
▁आपूर्ति	-9.70194
▁महिनादेखि	-9.702
▁पढाइ	-9.70201
▁्	-9.70281
न्द	-9.70323
▁यरूशलेम	-9.70445
▁२३	-9.70447
▁अनेक	-9.70465
▁सेना	-9.7052
0	-9.70537
▁उपलब्धि	-9.70604
▁बजे	-9.70632
मान	-9.70643
▁संसारका	-9.70658
▁कानुन	-9.70715
▁चि	-9.70728
▁वित्तीय	-9.70761
▁राख्नुहोस्	-9.70817
▁उपभोक्ता	-9.70829
जन	-9.70839
▁छः	-9.70905
▁दिनेछु	-9.70934
▁परम्परा	-9.70939
ढ	-9.70949
▁उत्पादनहरू	-9.70982
▁राखे	-9.71047
ायो	-9.71057
▁लिए	-9.71062
▁भू	-9.71084
▁मेरै	-9.71143
▁बुवा	-9.71177
▁व्यक्तिले	-9.71219
▁विशेषता	-9.71225
▁भनें	-9.71311
▁सक्नुहुन्न	-9.71326
▁साक्षी	-9.71326
अन्तर्गत	-9.71393
▁प्रबन्धक	-9.71407
▁बालबालिका	-9.71424
▁थालेका	-9.7148
▁छैठौं	-9.71521
पुर	-9.71529
▁मानिसहरूका	-9.71547
▁भारतले	-9.71597
▁प्रथम	-9.71602
मि	-9.71622
▁बेलामा	-9.71688
▁मृत्युको	-9.7169
▁च्यानल	-9.71706
▁योगदान	-9.71708
▁मदत	-9.71709
▁प्रचार	-9.71724
▁वार्ता	-9.71777
सन	-9.71894
▁धेरैले	-9.71899
म्प	-9.71935
',	-9.72025
▁सङ्केत	-9.72071
▁बसेर	-9.72126
▁चाहे	-9.72161
चार	-9.72169
स्क	-9.72184
▁समिति	-9.72188
▁दुर्घटना	-9.72296
▁राजनीति	-9.72442
▁दुवैले	-9.72511
▁गर्नेछौं	-9.72526
दार	-9.72526
▁सकेका	-9.72625
▁हुनाले	-9.72655
▁एल्बम	-9.72664
▁चालक	-9.72858
▁स्विच	-9.72859
▁खण्ड	-9.7296
ेस	-9.72978
▁मै	-9.73033
▁माया	-9.73074
▁फ्रान्स	-9.73096
▁बन्ने	-9.73131
▁सैनिक	-9.73144
▁बनाउनुहोस्	-9.73471
थ्यो	-9.73478
▁अरूलाई	-9.73479
▁हजारौं	-9.73518
▁हुनुपर्ने	-9.73531
▁खोजेको	-9.73562
▁बित	-9.73575
▁किनकी	-9.73585
▁सफ्टवेयर	-9.73631
▁स्कुलमा	-9.73654
ास	-9.73658
▁वर्षभन्दा	-9.73787
▁हृदय	-9.73812
गो	-9.73816
▁परीक्षा	-9.73822
▁अवार्ड	-9.7383
▁विदेशमा	-9.73874
▁व्यक्त	-9.73921
▁परि	-9.7398
▁शरीरमा	-9.7406
ेन	-9.74097
▁कालो	-9.74111
गर	-9.74158
▁जवान	-9.74241
▁ढोका	-9.74296
▁एकल	-9.74296
▁जिल्लामा	-9.74339
▁वेबसाइट	-9.74498
▁मो	-9.74501
▁प्रकार्य	-9.74504
▁ऊर्जा	-9.74601
▁स्थिर	-9.74842
ामा	-9.74873
▁चलचित्रको	-9.75041
▁जन्मिएको	-9.75097
ाए	-9.75098
मो	-9.75128
टो	-9.75167
▁मेनु	-9.75196
▁दियो	-9.75318
▁राजाको	-9.75334
▁प्रशासन	-9.75368
▁वार्षिक	-9.75396
▁यहूदा	-9.75424
▁विश्वमा	-9.75447
▁भइसकेका	-9.75532
▁अपराध	-9.75548
▁गर्छौ	-9.75568
▁ल्याउने	-9.756
▁त्यसकारण	-9.75615
▁बाध्य	-9.75672
▁लगाएको	-9.75694
▁रोजगारी	-9.75725
▁दशक	-9.75739
▁थिइन	-9.75865
िज	-9.75918
▁गर्भवती	-9.75992
▁शाखा	-9.75996
▁सुनिश्चित	-9.76191
▁मेट्नुहोस्	-9.76203
▁उनीहरुसँग	-9.76237
▁आफैलाई	-9.76247
भा	-9.76393
टन	-9.76447
▁जेलमा	-9.76458
▁प्रधानमन्त्री	-9.76478
▁गैर	-9.76514
▁दौड	-9.76597
▁तत्व	-9.76599
▁सिक	-9.76604
▁बोल्ने	-9.76639
▁२८	-9.76718
▁खोप	-9.76727
▁राष्टि्रय	-9.76791
▁अभिव्यक्ति	-9.76819
▁कार्यक्रमहरु	-9.76839
▁अंग	-9.76901
एक	-9.76952
▁अनुकूल	-9.76953
▁मास्क	-9.76987
▁यु	-9.77077
▁अडियो	-9.77198
स्त	-9.77204
्क	-9.77226
▁पार्छ	-9.7735
▁छोड्न	-9.77362
▁येशूको	-9.77376
▁परिमार्जन	-9.77394
▁घरेलु	-9.77394
▁दर्ता	-9.774
▁भन्नुभएको	-9.77401
▁समुद्र	-9.77501
▁पाएँ	-9.77557
▁गरिब	-9.77576
▁रहस्य	-9.77592
▁भूमिमा	-9.77775
▁फूल	-9.77796
▁नाटक	-9.77898
▁ग्राहक	-9.77905
▁शेयर	-9.78005
▁१००	-9.78038
िएर	-9.78044
▁गुणस्तर	-9.7807
▁अलि	-9.78083
▁नियन्त्रणमा	-9.78084
▁सम्पादक	-9.78095
▁सरकारलाई	-9.78119
▁ना	-9.78139
▁येशूलाई	-9.78194
▁तनाव	-9.78197
▁प्रोफाइल	-9.78206
ूर	-9.78292
▁बस्नु	-9.78309
▁पूजाहारी	-9.78442
▁छेउमा	-9.78497
▁भगवान	-9.78589
भर	-9.78614
न्त	-9.78639
िसकेको	-9.78671
▁आलोचना	-9.78817
▁नतिजा	-9.78817
▁भौतिक	-9.78833
▁भन्नुभयोः	-9.78876
▁पेश	-9.79013
▁हेरचाह	-9.79022
▁परिवर्तनहरू	-9.79093
▁पुगे	-9.79099
▁पुलिस	-9.79119
▁रोटी	-9.79238
▁उमेरका	-9.79305
▁खेलेको	-9.79358
▁एल	-9.79414
▁टुक्रा	-9.79431
▁गरीब	-9.79581
▁व्याख्या	-9.79639
▁विमान	-9.79794
▁परिचालन	-9.79846
▁माउस	-9.7992
▁भेडा	-9.79942
▁देखिन	-9.80033
▁प्रतिज्ञा	-9.80056
▁विजयी	-9.80157
रू	-9.80239
▁सम्भवतः	-9.80292
▁बिहान	-9.80398
▁हा	-9.80403
▁देखाउने	-9.80455
▁अर्थात्	-9.80497
▁तर्जुमा	-9.80677
▁सेवाहरू	-9.80742
विरुद्ध	-9.80793
▁दाऊद	-9.80844
▁चीनले	-9.8087
▁प्रकट	-9.80889
▁उद्धार	-9.80899
▁क्या	-9.80972
▁राज्यको	-9.80995
▁दा	-9.81049
▁महिलालाई	-9.81076
▁गुप्तिकरण	-9.81096
बीचको	-9.81126
▁सक्दछौं	-9.81141
▁हुनुभयो	-9.81225
▁मह	-9.81244
▁सोच्न	-9.8149
जना	-9.81584
▁मिल	-9.81613
▁प्रकृति	-9.81623
बल	-9.81735
▁सक्दछन्	-9.81828
▁"%	-9.81879
▁एशिया	-9.81916
▁एक्लो	-9.82043
▁कष्ट	-9.82064
▁खोज्न	-9.82148
▁चिनिन्छ	-9.82159
जस्ता	-9.822
▁व्यक्तिलाई	-9.82265
▁टिम	-9.82301
▁देखिएका	-9.82333
▁सोध	-9.82335
▁चौडाइ	-9.82364
▁अन्तमा	-9.824
▁जापानमा	-9.82518
▁रोक	-9.82545
▁भनि	-9.82605
▁अदालतले	-9.82647
▁चाहन्थे	-9.82664
▁होस्ट	-9.82699
▁गरौं	-9.827
ुहुनेछ	-9.82776
▁खतरनाक	-9.82784
▁स्मृति	-9.82803
ेक	-9.82911
▁जनताले	-9.82979
▁सहकार्य	-9.83
▁एउटी	-9.83008
▁ब्राउजर	-9.8307
▁विचारमा	-9.8307
ाको	-9.83078
▁चाहनु	-9.83108
▁सम्झ	-9.83205
▁विशाल	-9.83211
▁फोनमा	-9.83418
▁दायित्व	-9.83425
▁खाद्य	-9.83428
▁बहस	-9.83472
▁थ	-9.83528
▁संगठन	-9.83564
▁पाठक	-9.83624
▁''	-9.83755
▁करार	-9.83781
▁ठ	-9.83784
▁युद्धको	-9.83794
▁पदार्थ	-9.83799
▁ल्याए	-9.83827
▁यिनीहरु	-9.8387
▁सहभागिता	-9.83881
▁भारतका	-9.83913
▁डे	-9.83945
▁एकदिन	-9.8403
ियन	-9.84058
▁कपडा	-9.84078
▁आफैले	-9.8408
▁भण्डारण	-9.84107
▁मि	-9.84166
िङ्ग	-9.84199
द्ध	-9.8421
▁सकिदैन	-9.84288
▁लगइन	-9.84299
ाल	-9.84357
▁अस्तित्व	-9.84422
▁गर्यौ	-9.84426
▁भेला	-9.84521
▁इन्टरनेट	-9.84555
▁मुलुक	-9.84589
▁यि	-9.84596
्थे	-9.84679
▁टेलिभिजन	-9.8468
▁विद्युत	-9.8475
▁भएकोले	-9.84906
▁फैसला	-9.84937
▁किसान	-9.85048
▁भनेः	-9.8509
बे	-9.851
▁लेखे	-9.85218
▁संघ	-9.85295
▁दाबी	-9.85383
आज	-9.85387
▁कोठा	-9.85451
जे	-9.85513
▁पार्टीको	-9.85657
▁सम्पर्कमा	-9.85709
००	-9.85782
▁पाउँदा	-9.85834
▁भइन्	-9.85835
कु	-9.85879
वर	-9.85899
▁छाड	-9.85956
▁संख्यामा	-9.86047
▁भिन्नता	-9.86052
▁बसिरहेका	-9.86066
▁ट्याब	-9.86165
▁यातायात	-9.86192
▁लेखन	-9.8624
ीकरण	-9.86341
▁सन्दर्भ	-9.86476
▁नगर्नुहोस्	-9.86495
▁रोगको	-9.86671
नौ	-9.86707
▁दिएर	-9.86721
▁हुनेछैन	-9.86764
▁मार्च	-9.86778
▁प्रिय	-9.86803
▁मुद्रा	-9.86866
▁घटनाहरू	-9.86972
▁क्षेत्रका	-9.86983
▁पाना	-9.86992
▁राति	-9.87101
▁जग्गा	-9.87126
▁लगातार	-9.87137
▁सुनेका	-9.87162
▁भनाइ	-9.87301
▁जित	-9.8732
▁भण्डार	-9.87348
▁बीमा	-9.87352
▁दुख	-9.87428
▁गु	-9.87429
▁भि	-9.87546
▁गते	-9.87596
▁संस्कृति	-9.87828
▁थियौँ	-9.87924
▁जितेको	-9.87996
▁इस्राएल	-9.88039
▁चिनियाँ	-9.88039
ष्	-9.88117
न्ट	-9.8817
▁फाइलमा	-9.88251
▁सर्वेक्षण	-9.88256
▁भन्दछु	-9.88271
▁हप्तामा	-9.88342
▁दायरा	-9.88487
▁प्रदेश	-9.88502
▁यसपछि	-9.88547
▁संविधान	-9.88642
▁कल्पना	-9.88671
▁तुलना	-9.887
▁लुगा	-9.88783
▁देऊ	-9.88791
िनु	-9.88901
▁जनाले	-9.88908
्ट	-9.88932
▁रू	-9.88974
▁ग्रहण	-9.88983
▁मन्दिरको	-9.88996
▁दया	-9.88999
▁हप्ताको	-9.89007
▁वैध	-9.89019
▁गर्दैनन्	-9.89063
▁अव	-9.89169
▁थाल्यो	-9.89172
▁समाजमा	-9.89174
▁पूर्वावलोकन	-9.89179
▁कोठामा	-9.89194
▁पुग्ने	-9.89267
▁विभाजित	-9.89387
▁गरेन	-9.89438
▁सजिलै	-9.89489
▁घटनामा	-9.89513
▁दिन्छु	-9.89517
▁गेम	-9.89522
▁छिमेकी	-9.89666
▁खेले	-9.89825
▁बैठकमा	-9.89825
▁बढ्दो	-9.89849
▁तेरो	-9.8989
▁तपाईका	-9.89922
▁अदालत	-9.89949
▁बढाउने	-9.89964
▁घाइते	-9.90072
▁बलि	-9.90074
▁रुप	-9.90092
▁लागु	-9.90115
एका	-9.9012
इन	-9.90124
▁परमप्रभुलाई	-9.90148
▁निर्वाचित	-9.90301
▁परिस्थिति	-9.90313
▁फेसबुक	-9.90341
हु	-9.90359
▁स्वत	-9.90367
▁किनारा	-9.90391
▁भइ	-9.90391
▁न्यून	-9.90434
▁स्व	-9.90496
िर	-9.90502
▁राम्रा	-9.90535
▁२६	-9.90575
▁यरूशलेममा	-9.90583
वटा	-9.90658
फा	-9.90751
▁ध्वनि	-9.90762
▁भविष्यको	-9.90766
▁फर्केर	-9.9085
▁जर्मनी	-9.91001
▁युवती	-9.91062
▁स्त्री	-9.91083
▁रहनु	-9.91158
▁सुरक्षाको	-9.91197
▁राम्रै	-9.91224
▁दशकमा	-9.91357
▁औसत	-9.91456
▁प्रशस्त	-9.91461
▁महिलाहरु	-9.91533
▁वे	-9.91592
▁एकपटक	-9.91684
▁त्यसबाट	-9.91687
▁प्रशिक्षण	-9.91689
▁स्टक	-9.91762
▁किसिमका	-9.91767
िट	-9.91789
न्स	-9.91808
▁सार्न	-9.91834
शि	-9.91879
▁मात्रा	-9.91884
्रा	-9.9191
▁छोरीको	-9.92074
टि	-9.92097
▁क्रमशः	-9.92155
▁स्थितिमा	-9.92316
▁विधेयक	-9.9239
▁चढ	-9.92473
▁मार	-9.92553
य्	-9.92599
▁पाइएको	-9.92675
▁जसो	-9.92789
▁कक्ष	-9.92795
▁७०	-9.9292
▁सफलताको	-9.93058
▁रहेछन्	-9.93063
▁सम्बोधन	-9.93096
▁सूर्य	-9.93132
▁प्रेरित	-9.93157
▁सेवाको	-9.9332
▁असम्भव	-9.93332
▁बी	-9.9334
▁दिनुहुन्छ	-9.93345
▁आखिर	-9.93375
▁हल	-9.93397
▁यथार्थ	-9.93426
▁सुनाए	-9.93432
▁खोल	-9.93467
▁दिइनेछ	-9.93515
▁औपचारिक	-9.93569
▁किलोमिटर	-9.93569
▁खा	-9.93672
▁अनु	-9.93773
▁स्थायी	-9.93806
▁मरे	-9.93816
▁समूहका	-9.93818
▁आन्दोलन	-9.93906
▁सिनेमा	-9.94046
▁रूख	-9.94099
▁तिमीहरु	-9.9422
▁लड	-9.94246
▁हि	-9.94337
▁बस्छन्	-9.94339
▁नियुक्त	-9.94477
▁सन्देशहरू	-9.94639
▁विकल्पहरू	-9.9467
▁पारिवारिक	-9.94762
सं	-9.9479
▁संचालन	-9.94814
▁खुट्टा	-9.94925
▁सह	-9.9493
नले	-9.94966
▁उमेरदेखि	-9.94976
▁भरोसा	-9.95003
▁ज्यादै	-9.95004
▁२०१५	-9.95021
▁कोष	-9.95028
▁हेर्दै	-9.95102
▁अचम्म	-9.95111
▁देशहरूमा	-9.95148
▁शान्त	-9.95164
▁यता	-9.9517
▁छैनौ	-9.95189
▁छोराको	-9.9532
▁सुनेर	-9.95332
▁ल्याएको	-9.95351
▁मृत	-9.95412
▁मिडियामा	-9.95454
▁पारिएको	-9.95545
▁संक्रमण	-9.95562
▁भै	-9.95574
▁यहाँको	-9.95578
▁खानेकुरा	-9.9573
▁अर्कालाई	-9.95781
▁दिनुपर्छ	-9.95818
ुहोस्	-9.95899
▁अर्काको	-9.95947
▁अत्यधिक	-9.9597
▁२०१२	-9.95987
▁जितेका	-9.9605
▁देखें	-9.96078
▁उड	-9.96113
▁भन्छिन्	-9.9624
▁देशहरू	-9.96271
▁प्रतीक्षा	-9.9628
▁पङ्क्ति	-9.96296
▁क्यारेक्टर	-9.96356
▁जीत	-9.96393
▁मेट	-9.96417
पि	-9.96431
▁तपाईंहरु	-9.96434
▁शंका	-9.96458
▁हुँदैनन्	-9.96524
िलो	-9.96587
▁नभए	-9.96612
▁राजनीतिमा	-9.96632
▁दिएँ	-9.96662
▁दो	-9.96687
▁आयोजनाहरु	-9.967
▁सिद्धान्त	-9.96704
▁हवाई	-9.96706
▁बने	-9.96741
▁चाहन्छ	-9.96771
▁पुस्तकहरू	-9.96774
▁सन	-9.96837
▁भो	-9.9684
▁कै	-9.9685
▁स्ट्रिङ	-9.96855
२०	-9.96891
हरुका	-9.9695
▁झ	-9.9696
▁खुलेको	-9.96962
▁मासु	-9.96964
▁सदस्यहरू	-9.96971
▁तय	-9.97007
▁दर्शन	-9.97008
ग्	-9.97047
▁९०	-9.97072
▁हुनुहुनेछ	-9.97085
▁आफैँ	-9.97103
▁राखी	-9.97104
▁गिरफ्तार	-9.97192
▁संकलन	-9.97192
▁समाविष्ट	-9.97192
▁करीब	-9.97193
▁पुग्यो	-9.97205
▁तारा	-9.97221
▁दोश्रो	-9.97221
▁निश्चय	-9.9724
देश	-9.97246
▁कारणहरू	-9.9732
▁कान	-9.9739
▁उत्तिकै	-9.97439
▁रूपान्तरण	-9.97439
▁सहायक	-9.97439
▁सामान	-9.97466
▁जमीन	-9.97591
गु	-9.97612
▁अरुलाई	-9.97683
▁२००८	-9.97699
िका	-9.97701
▁प्रारम्भिक	-9.97702
▁निराश	-9.97736
▁हिंसा	-9.97786
▁अर्ब	-9.97826
िसकेका	-9.97864
ीत	-9.97868
▁अनिवार्य	-9.97933
वी	-9.97975
▁उचाइ	-9.98017
▁पहाड	-9.98018
▁पुलिसले	-9.98088
▁कर्म	-9.98142
▁सकिएको	-9.98174
▁जान्नु	-9.9818
▁असक्षम	-9.98181
▁पाकिस्तान	-9.98343
▁लिखित	-9.98464
▁क्रिकेट	-9.98519
योग्य	-9.98536
▁विजय	-9.98554
▁भइरहेका	-9.98565
▁प्रेमको	-9.98566
▁जन्मेको	-9.98579
▁जनावर	-9.98635
▁बुबाको	-9.98647
▁एम	-9.98684
▁निकट	-9.98698
टे	-9.98698
▁टाइप	-9.98724
▁भाइरस	-9.98743
रण	-9.98757
▁शीर्ष	-9.98796
▁अर्का	-9.988
ुल	-9.98864
क्ष	-9.98919
▁अगाडी	-9.98933
▁व्यावसायिक	-9.98934
▁कार्यालयमा	-9.99045
▁साझेदारी	-9.99049
▁पहाडी	-9.99051
▁विश्लेषण	-9.9918
▁बार	-9.99201
▁इरान	-9.9924
▁तिनीहरुले	-9.99243
ाउँछन्	-9.99256
▁विकासमा	-9.99282
्व	-9.99298
▁अनुहार	-9.993
▁प्रश्नहरू	-9.99317
सो	-9.99386
▁साँझ	-9.99402
▁सर्तहरू	-9.9941
क्	-9.99509
▁श्रम	-9.99588
▁अगमवक्ता	-9.99623
▁समूहको	-9.99654
▁दुवैको	-9.99671
▁निःशुल्क	-9.99683
▁राजस्व	-9.99687
▁लुक	-9.99724
तिमीहरू	-9.9975
▁गर्छिन्	-9.99842
▁दाज्यू	-9.99938
▁मतदान	-9.9994
▁परम्परागत	-9.99946
▁मन्दिरमा	-10.0002
▁खोज्दै	-10.0004
▁प्रतिक्षा	-10.0005
▁गाई	-10.0008
▁गतिविधि	-10.0008
▁सभा	-10.0012
▁पठाए	-10.0012
▁पर्नेछ	-10.0028
▁मूल्यमा	-10.0028
▁चिज	-10.0029
िनेछ	-10.0038
▁अस्थायी	-10.0044
▁आधिकारिक	-10.0044
▁साह्रै	-10.0044
▁निर्देशक	-10.0044
▁चासो	-10.0045
▁आइरहेको	-10.0046
▁जबकि	-10.0057
जब	-10.0059
▁लगाए	-10.0068
▁मौलिक	-10.007
▁सहरमा	-10.0072
▁गा	-10.0072
▁उही	-10.0075
नेछ	-10.0078
▁रातो	-10.008
▁चिन	-10.0085
ाले	-10.0086
▁टाउको	-10.009
▁विकासका	-10.009
▁थुप्रै	-10.0095
▁२०१७	-10.0097
र्थ	-10.01
▁मानिसहरुलाई	-10.0105
▁पशुहरू	-10.011
्ती	-10.0112
▁उपकरणहरू	-10.0113
▁उठाउन	-10.0113
▁मोडल	-10.0114
▁पल्ट	-10.012
▁न्यूनतम	-10.0121
▁बिभिन्न	-10.0121
▁लिइएको	-10.0121
▁सिक्ने	-10.0128
▁बाली	-10.0141
▁देख	-10.0142
▁नभई	-10.0146
▁तीनवटा	-10.0154
▁गुरु	-10.0156
▁बज	-10.0172
▁साँच्चिकै	-10.0173
▁पुराना	-10.0177
▁कोड	-10.019
▁ढुङ्गा	-10.0191
ँदा	-10.0192
▁विज्ञापन	-10.0192
▁अधिकारीहरू	-10.0198
▁कर्जा	-10.0199
▁बढिरहेको	-10.0202
▁स्प	-10.021
▁रिहा	-10.0213
▁नारी	-10.0214
यु	-10.0219
▁स्वास्थ्यको	-10.0231
▁स्	-10.0233
▁जिन्दगी	-10.0238
▁बोर्ड	-10.024
था	-10.0245
▁एक्स	-10.0249
▁हुलाक	-10.025
▁रोज्नुहोस्	-10.025
एन	-10.0253
▁नसक्ने	-10.0254
▁दि	-10.0256
▁दर्शक	-10.0265
म्ब	-10.0269
▁हावा	-10.0271
▁उर्जा	-10.0276
▁चाँडै	-10.0276
्यू	-10.0285
▁ख्रीष्टको	-10.0311
▁तथापि	-10.0314
▁अफ्रिका	-10.0315
▁जनवरी	-10.0316
▁अन्तर्राष्ट्रिय	-10.0328
▁भाग्य	-10.033
मे	-10.0336
▁मापन	-10.0339
▁फोल्डरमा	-10.0341
▁जोडी	-10.0347
▁आवेदन	-10.0354
▁खाद्यान्न	-10.0354
▁रोकिएको	-10.036
ोस	-10.037
▁बढ्ने	-10.0375
▁बोलाए	-10.0381
▁भु	-10.0383
छैन	-10.0384
▁चलेको	-10.0387
▁पे	-10.0391
हर	-10.0402
▁आर	-10.0403
▁२७	-10.0406
▁जिम्मा	-10.0407
▁1"	-10.0409
▁विद्युत्	-10.0427
▁ज्यान	-10.0428
▁वस्तुको	-10.0429
▁स्मरण	-10.0431
▁समन्वय	-10.0432
▁झगडा	-10.0435
▁उपस्थिति	-10.045
▁भा	-10.0453
▁कार्यको	-10.0454
▁शिशु	-10.0455
▁युग	-10.0458
▁बुझ्ने	-10.0462
▁मान्यता	-10.0463
▁बजेट	-10.0468
▁देख्नु	-10.0482
▁सामाग्री	-10.0486
▁२०१८	-10.0488
हाल	-10.0493
▁३५	-10.0501
▁गर्नुहुनेछ	-10.0503
▁आगलागी	-10.0509
▁धन्यबाद	-10.0513
▁थोक	-10.0513
िल	-10.0514
▁तथ्याङ्क	-10.0522
▁युरोप	-10.0528
▁पास	-10.053
पो	-10.0533
▁प्रतिनिधि	-10.0539
▁पक्का	-10.0539
▁कारखाना	-10.054
▁पृथ्वीको	-10.054
▁बताउनुभयो	-10.054
▁पठाएको	-10.0551
िम	-10.0552
▁वर्षकी	-10.0558
सकेको	-10.056
ँदै	-10.0563
▁गइरहेको	-10.0567
?'	-10.0567
▁रङ्ग	-10.0569
▁शिक्षाको	-10.0569
▁नामको	-10.057
▁सञ्चार	-10.0571
▁जाऊ	-10.0573
▁जाति	-10.0585
▁सुन्नु	-10.0591
▁आश्चर्य	-10.0593
▁सिफारिस	-10.0593
▁चेलाहरू	-10.0593
ुवा	-10.06
िला	-10.0603
▁ः	-10.0603
▁हेर्नु	-10.0606
तो	-10.0612
▁राखेका	-10.0614
▁जमिन	-10.0618
▁दिशामा	-10.062
▁स्वयं	-10.0627
▁डिस्क	-10.064
▁ल्याउनु	-10.0643
▁पुजारी	-10.0647
▁प्रयत्न	-10.0647
▁संसूचक	-10.0647
▁कम्पनीहरू	-10.0658
▁दास	-10.0661
▁सुरुदेखि	-10.0666
▁बाटोमा	-10.0666
▁हेरेको	-10.0667
▁बहु	-10.067
थे	-10.0671
▁कोरोना	-10.0674
▁प्रा	-10.0684
▁साइन	-10.0697
▁पर्यटक	-10.0698
रहेका	-10.0698
▁समायोजन	-10.0701
▁फेरी	-10.0702
▁एकसाथ	-10.0703
▁पोष्ट	-10.0703
▁समुदाय	-10.0711
▁व्यवसायमा	-10.0729
▁प्रसारण	-10.073
आई	-10.0741
▁विभाग	-10.0748
जु	-10.0753
▁यहाँबाट	-10.0753
▁गरिरहनु	-10.0754
▁हिसाबले	-10.0754
▁घन्टा	-10.0754
▁प्रतियोगितामा	-10.0763
ाँ	-10.0771
▁क्यान्सर	-10.0771
▁विरुद्धमा	-10.0777
ङ्	-10.0781
▁सम्भावित	-10.0782
▁मोबाइल	-10.0782
▁तसर्थ	-10.0782
▁भएकाले	-10.0784
▁फाइलनाम	-10.0788
▁यिनीहरू	-10.0792
▁इन	-10.0797
▁सिंह	-10.0797
▁बाबा	-10.0798
तिमी	-10.0804
▁देखियो	-10.0812
▁महान्	-10.0819
वर्ष	-10.0826
▁कुराले	-10.0826
▁इतिहासमा	-10.0829
▁सञ्झ्यालमा	-10.083
ुन	-10.0831
▁थिई	-10.0835
▁पुस्तकको	-10.084
▁घुम	-10.0852
्वा	-10.0853
ाउँदा	-10.0861
कारी	-10.0864
▁फिल्ड	-10.0866
मार्फत	-10.0868
▁सक्तैन	-10.0869
▁सोही	-10.0871
▁शाऊल	-10.0876
▁आएकी	-10.088
▁अन	-10.0886
▁व्यवसायी	-10.0886
▁हौँ	-10.089
▁आमाबाबु	-10.0894
▁उत्साहित	-10.0894
▁पार्नु	-10.0899
▁सार	-10.0916
भित्रै	-10.0919
▁क्यामेरा	-10.0921
बाहिर	-10.0927
कन	-10.0928
▁मोशा	-10.0933
▁इस्राएली	-10.0941
▁टर्मिनल	-10.0948
▁टेम्प्लेट	-10.0948
▁लगाएका	-10.0964
▁राती	-10.0967
▁मैदान	-10.0972
्दछन्	-10.0975
▁फोकस	-10.0976
▁निर्गत	-10.0976
▁खालको	-10.0976
▁आत्महत्या	-10.0977
ऊ	-10.0982
▁छविहरू	-10.0985
▁संस्थान	-10.0988
▁लक्षण	-10.0991
क्रम	-10.0992
▁तपाइँले	-10.1008
नमा	-10.1024
▁मिनेटमा	-10.1028
▁प्रसिद्ध	-10.1032
▁बाँच्न	-10.1033
▁बुझे	-10.1037
▁मानिसहरुले	-10.105
▁लोक	-10.1053
▁नोट	-10.1054
▁पैसाको	-10.1057
▁नगरेको	-10.1062
▁बेर	-10.1065
त्यो	-10.1066
▁समस्याहरू	-10.1067
▁अधिकारी	-10.1071
▁तपाईंहरू	-10.1072
अब	-10.1073
▁खाए	-10.1079
▁उपेक्षा	-10.1088
▁शुरुवात	-10.1088
▁सेतो	-10.1089
▁देखाउनु	-10.1091
▁टा	-10.1093
हरुबाट	-10.1093
▁चाहिने	-10.1093
भि	-10.1102
▁चाहिं	-10.1114
▁प्रेरणा	-10.1116
▁हेर्दा	-10.112
▁लेखमा	-10.1125
▁ठोस	-10.1135
▁जी	-10.1137
दर	-10.1138
▁प्या	-10.1145
▁खेलहरू	-10.1155
▁कांग्रेस	-10.1159
▁उन्नत	-10.116
▁सिकेको	-10.1164
▁सके	-10.1166
▁उत्पादनमा	-10.1167
▁मर्मत	-10.1169
▁हाम्रै	-10.1173
▁पुस्तिका	-10.1173
▁भइसक्यो	-10.1173
▁दावी	-10.1174
रमा	-10.1174
▁केटी	-10.1179
▁पर्खाल	-10.1185
▁पर्वत	-10.1188
▁देखाउँछ	-10.1191
र्ड	-10.1193
▁तपाइँलाई	-10.1199
▁आकर्षित	-10.1202
▁पेशा	-10.1209
▁मिटर	-10.1215
▁सेवक	-10.1221
▁स्थल	-10.1223
▁औ	-10.1225
▁कप	-10.1226
▁इन्	-10.1228
ुर	-10.123
ाउँछ	-10.1246
बर	-10.1249
▁ख्याल	-10.125
▁बाह्य	-10.1259
▁पोर्ट	-10.126
▁अरब	-10.1264
भरि	-10.1268
किन	-10.127
ुपर्दछ	-10.1274
▁चा	-10.1274
▁खानु	-10.1282
▁प्रतिनिधित्व	-10.1288
▁चकित	-10.1288
▁कफी	-10.1288
▁त्यहि	-10.129
▁रुपले	-10.1291
▁रो	-10.1294
▁स्वभाव	-10.1309
▁सोध्न	-10.1311
▁विद्यालयको	-10.1313
▁दु	-10.1316
▁पठाइएको	-10.1317
▁ट्रयाक	-10.1319
▁महिलाहरू	-10.132
▁आठौं	-10.1322
▁सधैँ	-10.1325
्दैन	-10.1329
▁राज्यमा	-10.133
दो	-10.1333
▁पराजित	-10.1345
▁विश्वव्यापी	-10.1345
▁लडाइँ	-10.1347
▁२०१४	-10.1347
▁पर्व	-10.1348
▁बच्चालाई	-10.1351
▁पठाउनु	-10.1354
▁कम्पनीमा	-10.1364
▁नभएका	-10.1367
▁समस्याहरु	-10.1367
▁बताउन	-10.1369
▁कारणहरु	-10.1373
▁पत्रिका	-10.1373
▁दाहिने	-10.1374
▁लगाउनुहोस्	-10.1377
▁इस्राएलको	-10.1377
लको	-10.1382
▁भएकै	-10.1383
ल्ड	-10.1384
▁गई	-10.1385
डो	-10.1387
▁सोधेँ	-10.1392
ात	-10.1392
▁बु	-10.1396
चे	-10.1399
▁सम्मेलन	-10.14
▁प्रवाह	-10.1406
▁दिमागमा	-10.1415
मु	-10.1421
प्	-10.1424
र्ट	-10.1428
▁त्यसबेला	-10.1433
▁राजमार्ग	-10.1433
▁1।	-10.1435
▁समीक्षा	-10.1462
▁खुल्ला	-10.1462
▁मिल्ने	-10.1462
▁स्कूलमा	-10.1463
▁आफैंले	-10.1463
बो	-10.1467
▁भाषाको	-10.1468
▁निकाय	-10.147
हार	-10.147
▁जु	-10.147
ीहरू	-10.1473
▁मूर्ख	-10.1478
▁निः	-10.1481
▁गर्नुपर्नेछ	-10.1483
▁दुईजना	-10.1484
▁तपाईँहरु	-10.1486
हीन	-10.1487
यर	-10.1487
▁आम्दानी	-10.1491
▁दिई	-10.1493
▁निर्माता	-10.1494
▁चोर	-10.1514
▁छनोट	-10.1521
▁एकअर्कालाई	-10.1529
▁कानुनी	-10.1529
▁नमूना	-10.1534
▁यू	-10.1549
▁कार्यहरु	-10.1559
▁बुबाले	-10.1568
▁दिन्छन्	-10.1573
▁तरिकाहरू	-10.1575
▁लाग्थ्यो	-10.158
▁मानिसहरुको	-10.1582
▁शत्रुहरू	-10.1583
▁विविध	-10.1597
▁प्रजातन्त्र	-10.1608
▁आउँदै	-10.1615
हाम्रो	-10.162
▁चिनो	-10.1628
तु	-10.1638
▁अर्डर	-10.1639
▁पारित	-10.1639
▁महिलाले	-10.164
▁देख्ने	-10.1644
▁चिनेको	-10.1646
▁तपाईसँग	-10.1648
जर	-10.1648
ेन्ट	-10.1659
▁शरीरलाई	-10.1664
▁ट्याग	-10.1669
▁दूध	-10.1669
▁माथिल्लो	-10.167
लु	-10.1676
▁नामकरण	-10.1676
▁बाँच्ने	-10.1684
▁प्रोजेक्ट	-10.1698
▁विशिष्ट	-10.1699
▁वास्तविकता	-10.1701
▁मल	-10.1718
▁भएनन्	-10.1718
▁दिशा	-10.1722
छौँ	-10.1727
▁विश्वविद्यालय	-10.1729
▁क्षेत्रीय	-10.174
▁बढेर	-10.1741
शी	-10.1741
▁राम	-10.1748
▁बोट	-10.1749
▁असमर्थ	-10.1757
▁जान्दछु	-10.1761
▁बरु	-10.1765
ाय	-10.1768
ंक	-10.1773
▁थाहै	-10.1776
▁सहयोगी	-10.1776
▁अवधिको	-10.1783
▁शर्त	-10.1788
▁स्थगित	-10.1789
▁सहि	-10.1794
▁फुट	-10.1817
▁सृजना	-10.1819
▁अनुगमन	-10.1819
▁उदाहरणका	-10.182
▁जोखिममा	-10.1826
▁सवारी	-10.1836
▁जुलाई	-10.1836
▁पारे	-10.1836
▁सबैजना	-10.1838
▁छाप	-10.1838
▁उमेरको	-10.1841
▁रणनीति	-10.1847
▁२०१३	-10.1852
▁ध्वंश	-10.188
▁अर्थात	-10.1881
▁टगल	-10.1881
▁पद्धति	-10.1885
▁जन्मिएका	-10.1889
▁सोचे	-10.1895
स्थित	-10.19
▁चरणको	-10.1907
घर	-10.1908
▁क्रमबद्ध	-10.1911
▁टि	-10.1912
▁टेस्ट	-10.1912
▁उपकरणपट्टी	-10.1912
ठा	-10.1916
▁दै	-10.192
▁उहाँहरू	-10.1927
युक्त	-10.1932
▁गीतको	-10.1942
पट्टि	-10.1952
▁फर्किए	-10.1957
▁बाहिरी	-10.196
▁कर्तव्य	-10.1972
▁जाँदा	-10.1973
▁बो	-10.1975
▁राजालाई	-10.198
ाम	-10.198
▁उपाधि	-10.2003
▁परिचय	-10.2003
▁इन्टरनेटमा	-10.2007
▁पेट	-10.2011
राम	-10.2012
▁साम	-10.2017
▁मसित	-10.2019
▁चु	-10.2019
▁सर्भरमा	-10.2019
▁शि	-10.2029
▁प्रोत्साहित	-10.2034
▁लक्षित	-10.2035
▁देखाइएको	-10.2036
▁क्षमा	-10.204
▁क्षेत्रलाई	-10.2043
▁सिद्ध	-10.2043
▁पठाउने	-10.2047
▁नदीको	-10.2048
▁बोलेको	-10.2059
▁पर्ख	-10.2064
▁सङ्ग्रह	-10.2065
ीमा	-10.2067
▁होटलमा	-10.2077
धार	-10.2081
▁ठहर	-10.2081
▁तर्फबाट	-10.2083
▁बजारको	-10.2087
▁पूँजी	-10.2096
▁यिनै	-10.2099
▁मुक्ति	-10.21
▁ट्रे	-10.2101
▁रि	-10.2101
क्क	-10.2101
▁मानहरू	-10.2102
▁प्रेममा	-10.2117
▁बिताउन	-10.2117
▁राखेर	-10.2118
▁ईमेल	-10.2128
▁सुख	-10.2136
चो	-10.215
▁महत्त्व	-10.2158
▁हालसालै	-10.2159
▁मिस	-10.2161
▁रुस	-10.2164
▁फाँट	-10.2165
लै	-10.2166
▁पार्क	-10.2167
▁भय	-10.2177
▁क्रियाकलाप	-10.2179
▁यसबाहेक	-10.2185
हामीलाई	-10.2188
▁संग्रहालय	-10.219
▁हानि	-10.2191
▁प्रारम्भ	-10.2192
▁बनायो	-10.2193
▁हट	-10.22
सबै	-10.2201
▁कामदार	-10.2202
▁कसै	-10.2213
▁सेवामा	-10.2214
▁अदालतको	-10.2216
▁बनाएर	-10.222
▁सत्ता	-10.2221
▁नकारात्मक	-10.2222
▁आपसमा	-10.2222
▁अङ्क	-10.2224
▁क्र	-10.2231
▁आउट	-10.2232
▁सुन्ने	-10.2232
▁पुर्याउन	-10.2253
▁सङ्कलन	-10.2254
▁कुञ्जीहरू	-10.2255
▁अभिभावक	-10.2256
▁मुद्रक	-10.2257
▁दिल्ली	-10.2258
ट्	-10.2275
▁चाँदी	-10.2275
गी	-10.2281
▁मोडेल	-10.2287
▁किन्न	-10.2299
िदिए	-10.2306
▁गर्छन	-10.2309
ोर	-10.2313
्ज	-10.2314
▁आशीर्वाद	-10.2317
▁त्याग	-10.2319
▁४५	-10.2321
▁छोरालाई	-10.2321
▁ठाडो	-10.2323
▁सवाल	-10.2329
▁योग	-10.2329
▁पञ्चायत	-10.2332
▁विवाहित	-10.2334
▁तिमीहरुलाई	-10.2335
आर	-10.2336
▁विद्यार्थीहरू	-10.2344
▁सेनाले	-10.2345
▁बेच्न	-10.2361
बाहेक	-10.2362
दे	-10.2367
▁३१	-10.237
▁औषधी	-10.2374
न्न	-10.238
▁झन्	-10.238
▁हानिकारक	-10.2381
▁यशैया	-10.2381
▁कम्तिमा	-10.2381
▁पढ्दै	-10.2382
▁निद्रा	-10.2383
▁२०११	-10.2384
▁पढ्दा	-10.2384
समा	-10.2389
▁स्वतन्त्रता	-10.2389
▁भारी	-10.2398
औं	-10.2398
▁कप्तान	-10.2413
▁चिकित्सा	-10.2413
▁डिग्री	-10.2413
▁शक्तिको	-10.2416
▁काठ	-10.2418
▁कक्षामा	-10.2429
▁सेकेन्ड	-10.243
▁लेखिएका	-10.2435
▁निकाल	-10.2438
▁विनिमय	-10.2446
▁परिणत	-10.2446
▁भित्री	-10.2447
▁दिनहरू	-10.2448
ोन	-10.2457
▁२०००	-10.2463
▁भन्नेबारे	-10.2464
▁लायक	-10.2478
त्व	-10.248
▁गरिरहेकी	-10.2484
पु	-10.2485
▁एड	-10.2488
▁केस	-10.2493
▁जान्छन्	-10.2497
▁चक्र	-10.2498
वल	-10.2499
▁सिकाउन	-10.2505
नौं	-10.251
▁सामेल	-10.2512
▁मोडमा	-10.2524
▁तीव्र	-10.2529
▁पुरुषको	-10.2535
▁बच	-10.2537
▁फर्क	-10.2542
▁दबाब	-10.2543
▁ससुरा	-10.2543
▁२०१	-10.2546
▁आउनेछ	-10.2549
▁सदस्यता	-10.2556
▁तपाईँसँग	-10.2564
▁यहूदी	-10.2569
▁कूल	-10.2574
▁है	-10.2575
▁सँधै	-10.2576
▁घाटा	-10.2576
▁वाणिज्य	-10.2578
करण	-10.2581
▁टाढाको	-10.2581
▁अवरोध	-10.2591
▁त्यहीँ	-10.2592
▁गुणा	-10.2592
▁हुन्थे	-10.2595
चि	-10.2601
▁फैलिएको	-10.2603
▁गरिए	-10.2608
▁सांसद	-10.2608
▁कहिलेकाहीँ	-10.2609
▁कैद	-10.2613
▁दृष्टिकोण	-10.2618
▁बन्दै	-10.2621
▁बेच	-10.2625
▁तरीका	-10.2625
▁डिजिटल	-10.2641
▁परिश्रम	-10.2641
▁खेलाडीहरू	-10.2641
िरहेकी	-10.2642
▁वर्षहरूमा	-10.2646
रिया	-10.2649
▁सेक्स	-10.2649
▁देवता	-10.2655
▁छाला	-10.2656
▁दिनेछ	-10.2668
साथ	-10.267
▁प्रक्रियामा	-10.2672
▁बतायो	-10.2674
धी	-10.268
▁शो	-10.2681
५०	-10.2685
▁बाढी	-10.2688
▁म्याद	-10.269
्छौं	-10.269
▁जसका	-10.269
▁काट	-10.2694
▁राख्छ	-10.2694
▁प्रोत्साहन	-10.2707
▁विरोधमा	-10.2707
▁थिच्नुहोस्	-10.2707
▁शासक	-10.2711
▁सकिन	-10.2716
▁लिंक	-10.2721
▁विगतका	-10.2726
ाइरहेको	-10.2734
▁नेपालका	-10.2734
राज	-10.2735
▁डी	-10.2735
▁दान	-10.2737
मय	-10.2739
▁अधिलेखन	-10.2741
▁कुञ्जीपाटी	-10.2741
▁२९	-10.2744
▁पुरै	-10.2745
▁तल्लो	-10.2751
▁मारे	-10.2752
▁हटाउने	-10.2753
▁गएँ	-10.276
▁बचाउनु	-10.2765
▁अवधारणा	-10.2774
▁सर्वोच्च	-10.2774
▁गर्मी	-10.2774
▁परिवारसँग	-10.2775
▁छाउनी	-10.2776
▁कार्यकाल	-10.2784
▁भनेकी	-10.2787
ल्ला	-10.279
▁सधै	-10.2795
▁माझ	-10.2801
▁मर्ने	-10.2803
▁संक्रमित	-10.2807
▁हाइलाइट	-10.2807
▁जर्मन	-10.2809
▁उपचारका	-10.2811
▁अर्थतन्त्र	-10.2817
सार	-10.2821
▁आउँछन्	-10.2822
दैन	-10.2834
▁चरणहरू	-10.2834
डे	-10.2838
▁अशुद्ध	-10.2841
▁बनाई	-10.2846
▁'%	-10.2849
▁पृष्ठमा	-10.2849
▁हिंड	-10.2849
▁भेट्ने	-10.285
▁फाइनल	-10.2851
जो	-10.2855
▁लिग	-10.286
▁खण्डमा	-10.2863
ाइरहेका	-10.2866
▁तीनै	-10.2867
▁मेडिकल	-10.2875
▁निर्धारित	-10.2875
▁पुस्तकालय	-10.2876
▁हदसम्म	-10.2876
▁दुवैलाई	-10.2876
▁पात्रो	-10.2878
्का	-10.288
र्म	-10.2885
▁भुक्तानी	-10.2889
▁जनताका	-10.2892
▁मरेका	-10.2893
▁घोडा	-10.2899
▁पूजाहारीहरू	-10.2906
सर	-10.2908
▁सदस्यहरु	-10.2912
▁;	-10.2922
▁देखाए	-10.2923
▁बुद्धि	-10.2923
▁तरवार	-10.2924
▁सीप	-10.2927
▁साइटमा	-10.2929
▁जान्ने	-10.293
▁नेपालले	-10.294
▁फ्याँक	-10.2942
▁भैरहेको	-10.2943
▁संकट	-10.2951
▁रिस	-10.2952
▁गरिनु	-10.296
▁मजा	-10.2971
▁लडाई	-10.2975
▁गहिरो	-10.2976
▁गराउनु	-10.2977
▁झूटो	-10.2978
▁शून्य	-10.298
▁बादल	-10.2981
▁हुनुको	-10.2981
▁होईन	-10.2986
▁जीवनलाई	-10.2987
च्च	-10.2988
्टो	-10.2991
▁खै	-10.2991
▁आफैंलाई	-10.2991
▁उहाँहरुलाई	-10.2996
▁पल	-10.3004
सकेका	-10.3007
परमप्रभु	-10.301
▁समर्पित	-10.301
▁सम्मिलित	-10.301
▁प्रतिस्थापन	-10.3014
▁आवश्यकताहरू	-10.3017
▁विश्वभर	-10.3023
▁लिन्छ	-10.3023
▁मार्ने	-10.3035
▁थाल	-10.3036
ुहोस	-10.3043
ानी	-10.3044
▁प्रदर्शित	-10.3045
▁संग्रह	-10.3045
▁कृति	-10.3053
▁रोप	-10.3056
पात	-10.3058
▁जनशक्ति	-10.3065
▁चोरी	-10.3069
▁जित्न	-10.307
▁घरहरू	-10.3076
्नुभयो	-10.3079
▁प्यानल	-10.3079
▁अन्ततः	-10.3079
▁दुःखी	-10.308
▁भेटघाट	-10.308
▁दृष्टि	-10.3081
▁शिकार	-10.3082
▁विश्वस्त	-10.3085
▁घण्टाको	-10.3092
▁ब्राजिल	-10.3092
्छु	-10.3097
▁निरन्तरता	-10.3104
्री	-10.3109
▁बर्षदेखि	-10.3111
▁दिनअघि	-10.3112
▁संसद	-10.3113
▁शैक्षिक	-10.3114
▁केन्द्रीय	-10.3119
▁नेताहरू	-10.3119
▁गतिमा	-10.3123
▁जन्मेका	-10.3125
▁सेन्ट	-10.3132
▁सन्तानहरू	-10.3142
▁कानूनी	-10.3142
च्छ	-10.3149
▁ब्या	-10.315
▁त्यसोभए	-10.315
▁वैकल्पिक	-10.3152
▁जान्दछन्	-10.3153
▁देखाएको	-10.3154
▁भाइहरू	-10.316
▁भोग	-10.3166
रहेको	-10.3172
▁पुरूष	-10.3174
पाल	-10.3175
▁विजेता	-10.3175
▁खोज्ने	-10.3177
▁मारिएका	-10.3177
▁थपे	-10.3178
▁हुनुभएको	-10.318
▁मौन	-10.3182
▁ईश्वर	-10.3182
▁हल्का	-10.3183
्नुपर्ने	-10.3197
▁अक्सर	-10.3218
▁आकर्षक	-10.3219
▁त्यतिबेला	-10.3219
▁दूरी	-10.3222
अगाडि	-10.3224
वाला	-10.3225
▁चिया	-10.3232
▁महल	-10.3232
▁तिनीहरुलाई	-10.3241
सक	-10.3241
▁साता	-10.3246
▁योजनाकालमा	-10.3256
▁देव	-10.3256
ोल	-10.3258
हेर	-10.3261
मूलक	-10.3266
▁नक्सा	-10.3267
▁सैनिकहरू	-10.3269
आफ्नो	-10.3271
▁उनिहरु	-10.3272
▁प्रतीक	-10.3273
▁उत्पादनको	-10.3278
▁रोगी	-10.3278
▁लु	-10.3279
▁वकिल	-10.3288
▁बहुमत	-10.3288
▁पठाउनुहोस्	-10.3289
▁टो	-10.3291
▁धेरैलाई	-10.3292
▁मुलुकमा	-10.3292
▁छविको	-10.3293
▁खस	-10.3294
▁प्रहार	-10.3298
▁अधिकारीहरूले	-10.3299
▁तराई	-10.3302
▁मूर्ति	-10.3302
00	-10.3303
▁शोक	-10.3309
▁फि	-10.3311
▁नभएर	-10.3315
▁मूर्तिहरू	-10.3316
▁उत्तरी	-10.3318
▁कठोर	-10.3323
▁ज्योति	-10.3323
▁कोशिश	-10.3323
▁सङ्गीत	-10.3323
▁टीम	-10.3332
▁देशबाट	-10.3334
▁अन्यथा	-10.3337
धन	-10.3358
▁दुइवटा	-10.336
िन्छन्	-10.3362
▁आदर	-10.3362
▁लिनुहोस्	-10.3363
▁लेख्नु	-10.3364
▁प्रबन्ध	-10.3388
▁निमित्त	-10.3394
▁कवि	-10.3394
▁वजन	-10.3396
न्ज	-10.3402
▁बुझेका	-10.3408
▁छोडे	-10.3412
▁कथाहरू	-10.3423
▁आँखामा	-10.3425
▁मर्न	-10.3429
▁हुन्छु	-10.3439
▁अनुपात	-10.3446
▁चिकित्सक	-10.3447
▁लगाउनु	-10.3447
▁प्रविधिको	-10.3453
▁अवसरमा	-10.3456
▁अल	-10.3458
▁उपलव्ध	-10.3458
▁सन्तुलन	-10.3465
▁स्वाभाविक	-10.3465
▁सैन्य	-10.3465
▁हमला	-10.3465
▁आगमन	-10.3466
▁विश्राम	-10.347
▁सावधान	-10.3483
१९	-10.3486
▁1'	-10.3499
▁यूरोप	-10.3501
▁खोजिरहेका	-10.3504
▁पाइ	-10.3504
पटक	-10.3514
▁चलाउने	-10.3522
ाक	-10.3528
▁प्रयोगकर्ताको	-10.3528
▁विद्यार्थीहरु	-10.3529
बार	-10.353
▁छायांकन	-10.3537
▁अनुदान	-10.3537
▁हिजो	-10.3537
▁मोटर	-10.3538
▁ग्राहकहरु	-10.3538
▁चन्द्रमा	-10.3541
रह	-10.3545
▁पिताको	-10.3547
▁खेल्दै	-10.3547
▁अफिस	-10.3547
त्य	-10.3548
्नुपर्छ	-10.3551
ीले	-10.3552
▁उद्देश्यले	-10.3554
▁दस	-10.3554
▁मन्त्रालय	-10.356
▁विस्फोट	-10.3561
▁शहरी	-10.3563
▁भागे	-10.3566
▁गुप्त	-10.3567
▁अमेरिकाले	-10.3571
▁यूआरएल	-10.3573
▁पिउन	-10.3573
▁लाभदायक	-10.3573
▁भैसकेको	-10.3574
▁पुग	-10.3578
▁दिवस	-10.3579
ताका	-10.3584
▁शा	-10.3585
▁भएकोछ	-10.3588
▁स्वामित्व	-10.3591
.1	-10.3595
▁समक्ष	-10.3595
▁ठान	-10.3596
पहिलो	-10.3597
▁बैंकको	-10.3597
▁छोरीहरू	-10.3599
▁नामले	-10.3602
स्थान	-10.3603
यौ	-10.3607
्म	-10.3609
▁अचानक	-10.3609
▁समाजको	-10.3614
▁स्वर्ग	-10.3615
▁पुस्तकचिनो	-10.3616
▁सर्व	-10.3618
▁स्पेन	-10.3619
▁आफु	-10.362
▁तहमा	-10.3621
▁सक्छौँ	-10.3624
▁वर्ण	-10.3625
▁चालु	-10.3626
काल	-10.3627
▁ड्राइभर	-10.3632
▁नानीहरू	-10.3635
▁जिनोम	-10.3646
▁पर्	-10.3651
भएन	-10.3656
▁फुटबलमा	-10.3657
▁स्वास्थ्यमा	-10.3659
▁ट्रम्पले	-10.3662
▁अप्रिल	-10.3664
▁चाहने	-10.3666
▁विवाहको	-10.3668
▁शहरका	-10.3679
▁बुझ्नु	-10.368
▁डुङ्गा	-10.3682
▁२००९	-10.3683
▁बाँध	-10.3684
थि	-10.3684
▁आईडी	-10.3685
▁अस	-10.3688
▁चारवटा	-10.3689
▁समाप्ति	-10.3689
▁तलको	-10.369
▁बाबेल	-10.3699
्त	-10.3704
▁कोर	-10.3704
▁पढ्नु	-10.3705
▁अचम्मको	-10.3708
▁हाले	-10.3714
▁लाग्नु	-10.3717
▁प्रवर्द्धन	-10.3719
▁चाह	-10.3722
▁घटेको	-10.3724
▁मुटु	-10.3728
▁गर्नै	-10.3728
▁हक	-10.3729
▁यात्रु	-10.373
▁निस्क	-10.3732
▁हेरेर	-10.3737
▁हृदयमा	-10.3743
▁मध्यम	-10.3743
ाइट	-10.3748
▁निषेध	-10.3755
▁सिस्टम	-10.3755
▁अनुभूति	-10.3757
▁सेटअप	-10.3758
▁ग्राहकहरू	-10.3762
▁जीवनका	-10.3763
▁रुको	-10.3763
▁ट्रक	-10.3764
▁ल्याइ	-10.3766
▁गराई	-10.3769
खो	-10.377
▁पहिलेको	-10.3771
▁व्यापारिक	-10.3772
▁खोज्नु	-10.3773
▁सालको	-10.3789
शील	-10.3789
▁दाखरस	-10.3792
▁अनन्त	-10.3793
▁बुझेको	-10.3795
▁प्रणालीमा	-10.3802
स्थल	-10.3802
▁हिँड	-10.3803
▁टे	-10.3807
▁परिमाण	-10.3816
ाका	-10.3818
▁रोक्ने	-10.3821
र्न	-10.3824
▁ट्रम्प	-10.3824
कल	-10.3826
▁अनौठो	-10.3829
▁नोभेम्बर	-10.3829
▁साइकल	-10.383
▁क्षेत्रबाट	-10.3832
▁बीउ	-10.3832
▁ध्यानमा	-10.3834
▁फिट	-10.3834
वार	-10.3839
▁मानक	-10.385
लिक	-10.3851
▁छाडे	-10.3863
एम	-10.3863
▁स्त्रीहरू	-10.3863
▁छेउ	-10.3864
▁गन्तव्य	-10.3867
▁झण्डै	-10.3867
▁विज्ञ	-10.3867
▁हस्तान्तरण	-10.3867
▁द्रुत	-10.3867
▁मोड्युल	-10.3867
▁बैंकमा	-10.3867
▁प्रर्दशन	-10.3868
▁२००७	-10.3869
▁मैदानमा	-10.3873
▁खोजीमा	-10.3881
यी	-10.3883
ाएका	-10.3889
ेकी	-10.3891
▁अनुरुप	-10.3895
▁प्राय	-10.3896
▁अवलोकन	-10.3904
▁दिनका	-10.3905
▁तौल	-10.3906
▁बताइन्	-10.3908
▁डो	-10.3913
उहाँ	-10.3915
लागि	-10.3917
▁प्रभुको	-10.3918
▁नजिकको	-10.3919
▁लगाएर	-10.3921
ल्य	-10.3927
▁क्रोध	-10.3939
▁इजरायल	-10.3941
▁चट्टान	-10.3941
▁समुह	-10.3941
▁राहत	-10.3942
▁लम्बाइ	-10.3942
▁भोलि	-10.3943
▁उपचारको	-10.3943
▁विचारहरू	-10.3944
▁महामारी	-10.3954
मेल	-10.3956
फि	-10.3963
▁दिमाग	-10.3963
▁भाई	-10.3964
▁खु	-10.3969
▁कर्मचारीहरू	-10.397
ेछ	-10.3978
▁कैयाफाका	-10.3979
▁सन्दूक	-10.3979
▁नृत्य	-10.3979
▁सुपर	-10.398
▁उल्लेखनीय	-10.3981
▁फाइलको	-10.3982
▁बुद्ध	-10.3983
▁कस्ता	-10.3984
▁३२	-10.3985
▁पिताले	-10.3991
▁टी	-10.3992
▁फैल	-10.3992
धा	-10.4004
▁वायु	-10.4006
▁चिन्ताको	-10.4011
भाग	-10.4015
▁सजावट	-10.4017
▁हन्नासकहाँ	-10.4017
▁वरपर	-10.4017
▁नेटवर्क	-10.4017
▁उत्सव	-10.4019
लमा	-10.4021
▁लागेर	-10.4023
▁नगरी	-10.4024
▁बालिका	-10.4024
▁गराइनेछ	-10.4028
▁हुनसक्ने	-10.4029
▁दिनभर	-10.4032
▁लैजान	-10.4033
पट्टी	-10.4035
फ्	-10.4038
▁आजसम्म	-10.404
▁पैठारी	-10.4055
▁ह्यान्डल	-10.4055
▁सीडी	-10.4057
िड	-10.4063
▁चाप	-10.4068
▁हकमा	-10.4074
▁समग्र	-10.4078
▁कोरिया	-10.4079
ुहुन्न	-10.4081
▁जापानको	-10.4082
▁मुलुकको	-10.4083
▁भारतबाट	-10.4083
हरुसँग	-10.4092
▁अपवाद	-10.4095
▁जस	-10.4095
▁पठाउनुभएको	-10.4095
▁बन्यो	-10.4098
▁बताउँदै	-10.4099
▁साधनको	-10.4099
▁देखिन्छन्	-10.41
संगै	-10.41
▁तिनै	-10.4103
▁मानिएको	-10.4107
ाप	-10.4108
▁माफ	-10.4116
▁हुन्छौं	-10.4123
ेन्स	-10.413
▁बलिदान	-10.4133
▁क्रोधित	-10.4134
▁सम्ममा	-10.4138
▁किशोर	-10.4138
▁अक्षर	-10.414
▁दक्ष	-10.4144
त्ति	-10.4145
▁हेडर	-10.4146
्छौ	-10.4152
नाम	-10.4153
▁पुग्छ	-10.416
▁पढाउन	-10.4163
▁मरेको	-10.4165
्याप	-10.4166
▁इच्छुक	-10.4169
▁दुइटा	-10.4173
▁ज्ञानी	-10.4182
▁अक्टोबर	-10.4193
▁बिषय	-10.4194
▁दुर्घटनामा	-10.4197
▁बनाइ	-10.42
▁राजनैतिक	-10.4208
▁नजर	-10.4208
रहेछ	-10.4217
▁ड्राइभ	-10.4222
दु	-10.4228
ून	-10.4233
▁श्रेणी	-10.4246
▁खालका	-10.4246
म्म	-10.4248
▁हरियो	-10.4252
ेसन	-10.426
▁वेदी	-10.4265
ढी	-10.4268
क्षा	-10.4274
▁मलाइ	-10.4275
▁निर्वाचनमा	-10.4282
▁सूचित	-10.4288
▁गर्दैछन्	-10.429
स्थ	-10.4291
▁यात्रामा	-10.4292
थो	-10.4296
▁फिल्मले	-10.4297
▁सिके	-10.4298
▁भेटिएको	-10.4299
▁बिषयमा	-10.4299
▁टु	-10.4302
▁घटाउन	-10.4303
▁लाग	-10.4315
्ना	-10.4318
▁प्रवृत्ति	-10.4324
▁बारम्बार	-10.4324
▁अनियमित	-10.4324
▁तोकिएको	-10.4325
▁सञ्झ्यालको	-10.4326
▁सङ्केतन	-10.4328
▁बिहे	-10.4328
▁क्षेत्रहरूमा	-10.4329
▁दाऊदलाई	-10.4331
ियर	-10.4332
वान	-10.4335
▁सालदेखि	-10.4337
▁सक्दिन	-10.4337
रत	-10.4344
▁पेज	-10.4348
आउट	-10.4352
▁छोरीलाई	-10.4359
▁अभिनेत्री	-10.4363
▁सुसमाचार	-10.4363
▁लकडाउन	-10.4369
ग्र	-10.4369
▁हातले	-10.4374
▁चार्ज	-10.4376
▁सम्	-10.4382
▁व्य	-10.4393
▁घातक	-10.4397
▁रोजगार	-10.4398
▁बसोबास	-10.4402
▁खेलकुद	-10.4402
▁दाँत	-10.4402
▁पार्टीमा	-10.4402
▁तेर्सो	-10.4408
▁माथिको	-10.4408
▁सामु	-10.4408
▁बानी	-10.4416
▁दिइन्छ	-10.4422
▁दे	-10.4429
निक	-10.4433
▁लो	-10.4434
▁बताइ	-10.4437
ारी	-10.4438
ुहुन्थ्यो	-10.4438
▁यहाँका	-10.4438
▁उज्यालो	-10.4441
▁तैपनि	-10.4442
▁हुनुहोस्	-10.4442
▁डबल	-10.4443
▁अरूले	-10.4444
▁मुनि	-10.4447
▁बेलायत	-10.4451
ब्र	-10.4453
नीय	-10.4458
▁अभि	-10.4461
▁खोजे	-10.4472
▁तपाईहरुले	-10.4476
▁हारून	-10.4476
▁उनीमाथि	-10.4476
▁दृश्यात्मक	-10.4484
▁काल	-10.4487
▁दुवैजना	-10.4492
त्ता	-10.4494
उन	-10.4495
हरूमध्ये	-10.4505
▁बाइबल	-10.4507
▁खेलिरहेका	-10.4507
..	-10.4508
▁भनेकै	-10.4509
िरहे	-10.4511
▁नाप	-10.4519
▁प्रो	-10.452
आमा	-10.4521
▁हटाइएको	-10.4522
▁चारैतिर	-10.4522
▁आवास	-10.4523
▁तुरुन्तै	-10.4524
▁रहर	-10.4525
▁तिनीहरूसँग	-10.4529
स्ता	-10.4532
▁द्वार	-10.4536
▁स्थानको	-10.4538
ेश	-10.454
▁पढाई	-10.4541
▁होलान्	-10.4543
मको	-10.4552
मात्रै	-10.4553
▁गएकी	-10.4553
▁चाड	-10.4558
▁कोसिस	-10.4566
▁छाडेर	-10.4568
▁नगरिएको	-10.4569
▁जग	-10.4571
▁स्टार	-10.4572
▁सेवकहरू	-10.4574
तामा	-10.4589
▁बिल	-10.459
नेर	-10.4591
▁नम्बरमा	-10.4592
▁सोच्नु	-10.4594
सँगको	-10.46
▁शौचालय	-10.46
▁बूढा	-10.4601
ाब	-10.4601
ुन्	-10.4602
▁उनकै	-10.4605
▁बिगत	-10.4607
▁सूचक	-10.4609
पूर्वक	-10.4613
रले	-10.4615
▁पाइने	-10.4615
वाट	-10.4629
द्द	-10.4629
लले	-10.4634
▁बास	-10.4634
ेशन	-10.4637
▁बिजुली	-10.4641
▁सांस्कृतिक	-10.4641
▁अञ्चल	-10.4641
▁संसाधन	-10.4641
▁समस्त	-10.4642
▁साथसाथै	-10.4643
एर	-10.4644
▁भर्खरै	-10.4645
ची	-10.4646
अर	-10.4647
▁प्रश्नहरूको	-10.465
▁हुन्छन	-10.465
▁हुनै	-10.4653
वन	-10.4657
▁प्रेस	-10.4657
▁मन्त्रालयले	-10.466
▁अपमान	-10.4661
▁तिनीहरुको	-10.4665
▁लेवी	-10.4667
▁अष्ट्रेलिया	-10.4671
िदिनु	-10.4672
▁नो	-10.4676
▁पठाइ	-10.4677
▁सुविधाहरू	-10.4678
▁प्राचीन	-10.4681
▁ढ	-10.4683
▁उठाउनु	-10.4684
▁२०१०	-10.4684
बद्ध	-10.4686
▁बनाउँदछ	-10.4686
▁राष्ट्रको	-10.469
▁लुकाउनुहोस्	-10.469
▁अगुवाहरू	-10.4691
▁मिलाउन	-10.4695
▁दुईपटक	-10.4699
ङ्क	-10.4701
▁बताउनु	-10.4708
▁चौ	-10.4714
▁तरिकामा	-10.4716
▁देशहरु	-10.4716
▁लाइब्रेरी	-10.4721
▁संस्कार	-10.4721
▁डरलाग्दो	-10.4722
▁परास्त	-10.4723
▁खासमा	-10.4724
▁रानी	-10.4729
▁चेक	-10.473
▁पृष्ठहरू	-10.4734
▁सतह	-10.4738
▁चुनावमा	-10.4739
▁आयोग	-10.4744
▁सवार	-10.4745
ल्क	-10.4747
▁भेक्टर	-10.4747
▁कम्प्युटरमा	-10.4751
▁गर्दैछौं	-10.4753
चन	-10.4762
▁आकर्षण	-10.4763
▁छोराहरु	-10.4764
▁समयमै	-10.4767
धान	-10.4769
▁एकीकृत	-10.4778
▁खेत	-10.4779
्रे	-10.4779
▁अफिसमा	-10.4783
हन	-10.4788
▁हामीहरु	-10.4795
▁परिभाषा	-10.4803
ेपछि	-10.4806
▁तस्विर	-10.4812
▁भे	-10.4821
▁हुनेछौ	-10.4822
▁कार्डहरू	-10.4828
▁पहिलेदेखि	-10.4828
▁विच्छेद	-10.4835
थी	-10.4836
▁जानेछ	-10.4843
▁साउदी	-10.4844
▁चरित्र	-10.4844
▁महँगो	-10.4844
▁दिनहरूमा	-10.4848
ूल	-10.4849
▁टिकट	-10.4853
▁परिवारबाट	-10.4855
ें	-10.4855
कार्य	-10.4864
▁छुट्टी	-10.4865
ञ्ज	-10.4866
▁राष्ट्रहरू	-10.4867
▁पिउने	-10.4867
▁फाल	-10.487
▁सुनको	-10.4875
ाउँ	-10.4877
▁हेक्टर	-10.4878
▁स्वास्थ्यका	-10.4878
▁यहीँ	-10.488
▁कहिलेकाँही	-10.4885
▁ताल्चा	-10.4885
▁आउँदा	-10.4885
▁केन्द्रमा	-10.4889
▁प्रष्ट	-10.4891
▁प्याकेजहरू	-10.4904
▁नर्स	-10.4906
▁देखिए	-10.4912
▁पानीमा	-10.4913
▁व्यवसायको	-10.4914
याह	-10.4914
ीन	-10.4916
▁दिइ	-10.4918
▁मुम्बई	-10.4918
▁अबको	-10.4921
▁दुनियाँ	-10.4924
▁प्रमाणीकरण	-10.4928
▁बताउँछन्	-10.4929
▁कामहरु	-10.493
▁कुनैपनि	-10.4937
▁नानी	-10.4938
▁सघाउ	-10.4944
▁नसकेको	-10.4946
▁पत्रुस	-10.4956
▁जबसम्म	-10.4957
▁आज्ञाहरू	-10.4965
▁पाउनुहुनेछ	-10.4968
ैं	-10.4969
वास	-10.4972
▁सचिव	-10.4976
▁परिषद्	-10.4977
▁बिताए	-10.4983
▁जात	-10.4985
▁देशले	-10.4986
▁देवी	-10.4987
▁सुलेमान	-10.4993
▁अब्राहाम	-10.4993
▁मार्गमा	-10.4994
लन	-10.4997
▁सुन्दरता	-10.4998
वस्तु	-10.5
ाइन	-10.5001
▁महिनापछि	-10.5002
▁अभिवादन	-10.501
▁चाँहि	-10.5011
▁मूल्याङ्कन	-10.5013
▁बिट	-10.502
▁लाखौं	-10.502
▁शाही	-10.5022
▁स्ट	-10.5025
▁नव	-10.5025
▁स्वरूप	-10.5029
्रि	-10.5029
▁यात्राको	-10.5029
▁तिनीहरूसित	-10.5037
▁पसल	-10.504
ाउनुहोस्	-10.5041
▁गेट	-10.505
▁तिन	-10.5051
▁अवयव	-10.5051
▁औजार	-10.5051
▁साबित	-10.5051
▁अध्याय	-10.5051
▁सेवन	-10.5052
▁गरेकै	-10.5052
▁छैनौँ	-10.5053
▁गराएको	-10.5057
▁ज्ञानको	-10.5058
▁बस्थे	-10.5064
ते	-10.507
▁कुकीहरू	-10.508
▁गाडीमा	-10.5082
▁भेटे	-10.5083
▁खिच	-10.5086
▁दिदी	-10.5093
लर	-10.5093
▁कुकुर	-10.5093
▁यर्दन	-10.5093
▁शिक्षण	-10.5094
▁शुभ	-10.5097
▁देशलाई	-10.5098
▁लाइनमा	-10.5103
यन	-10.5104
▁सुलेमानले	-10.5106
दान	-10.5107
▁गि	-10.5113
▁अस्पतालको	-10.5113
स्व	-10.5114
▁पाँचौं	-10.5123
ोप	-10.5126
▁जनावरहरू	-10.513
▁क्षेत्रहरू	-10.5131
▁भाग्न	-10.5135
▁इभोल्युसन	-10.5136
▁जगेडा	-10.5136
▁इन्जिनियर	-10.5136
ेट	-10.5147
▁गाउँको	-10.5148
▁पाएकी	-10.5153
▁चिन्न	-10.5155
▁डलरको	-10.5158
▁अस्पतालबाट	-10.5164
▁सडकको	-10.5166
▁प्रसार	-10.5174
▁जानकार	-10.5174
▁जहिले	-10.5178
्याउन	-10.5178
▁ओपन	-10.5183
णको	-10.5184
तिमीहरूले	-10.5185
▁प्राण	-10.5188
▁हुनेछु	-10.5199
▁सरकारमा	-10.5208
्थ्यो	-10.5209
रहरू	-10.5215
▁रा	-10.5217
▁टेबल	-10.5222
▁गराइएको	-10.5231
▁सक्दैनौं	-10.5237
▁अर्थमा	-10.5238
▁साझेदार	-10.5243
!”	-10.5249
▁उत्पादक	-10.5253
▁युवक	-10.526
▁सुदृढ	-10.5262
▁चुनौति	-10.5263
कुनै	-10.5264
▁निक्कै	-10.5265
▁आयोजनाहरुको	-10.5265
▁भरि	-10.5265
▁औँ	-10.5267
▁वाक्य	-10.5271
▁पात्र	-10.5273
िकरण	-10.5273
कको	-10.5282
▁भगवान्	-10.5287
क्षेत्र	-10.5291
▁असफलता	-10.5296
▁युवाहरु	-10.5297
▁वृद्ध	-10.5298
सको	-10.5299
▁हित	-10.5301
▁सकिनँ	-10.5316
▁ट्र	-10.5327
▁कमाउन	-10.5338
▁प्रणालीको	-10.5338
▁सोच्ने	-10.5342
▁छिन	-10.5348
▁एजेन्सी	-10.5349
▁सर्वसाधारण	-10.5349
▁समर्थित	-10.535
▁लगानीको	-10.535
▁समुदायको	-10.5353
▁जित्ने	-10.5355
▁व्यवस्थाको	-10.5356
▁देवताहरू	-10.5363
▁दिँदै	-10.5365
▁जम	-10.5365
▁लड्न	-10.5367
▁अधिकारको	-10.5374
▁रोगबाट	-10.5376
ल्यान्ड	-10.5376
्सा	-10.5376
▁पुर्याउने	-10.5378
्याउने	-10.5378
ान्त	-10.538
▁बोल्नु	-10.538
▁मिनेटको	-10.5386
▁उद्देश्यका	-10.5386
▁बीस	-10.5388
▁कोशिस	-10.5393
▁टेलिफोन	-10.5393
▁भयानक	-10.5393
▁फाइदाजनक	-10.5393
▁ब्रान्ड	-10.5393
▁सूचीबद्ध	-10.5395
▁हुनेछौं	-10.5397
▁सम्भाव्यता	-10.5399
▁चमत्कार	-10.5403
▁जन्मदिन	-10.5406
▁सू	-10.5409
▁आऊ	-10.5409
सेट	-10.5411
▁पाउ	-10.5412
्तै	-10.5421
▁विरोधी	-10.5433
▁नी	-10.5434
▁उपभोग	-10.5435
भाइ	-10.5435
▁कारबाही	-10.5436
▁मापदण्ड	-10.5436
▁व्यावहारिक	-10.5436
▁स्थानान्तरण	-10.5436
▁स्क्यान	-10.5436
▁सोच्दै	-10.5436
▁झण्डा	-10.5436
▁बयान	-10.5437
▁तिमीहरुले	-10.5443
ष्ठ	-10.5448
▁यरूशलेमको	-10.5449
तै	-10.5463
▁खेलाडीहरु	-10.547
▁आत्म	-10.5471
▁फेसबुकमा	-10.5472
▁खानेपानी	-10.5473
ाइएका	-10.5474
▁ठाँउ	-10.5476
▁सोमबार	-10.548
▁उत्पत्ति	-10.548
▁आउनुभएको	-10.5486
▁घाम	-10.5489
▁खेतमा	-10.549
▁हानी	-10.5493
र्त	-10.5498
▁खट	-10.5504
▁उम्मेदवार	-10.5524
▁बलात्कार	-10.5524
▁दुर्लभ	-10.5524
िक्स	-10.5524
▁नाउँमा	-10.5525
▁संस्थागत	-10.5526
▁पसे	-10.5533
▁नप	-10.5534
▁उनै	-10.5538
▁गरिदिए	-10.5542
▁बच्चाहरूको	-10.5546
ल्स	-10.5546
▁विरूद्धमा	-10.5552
हुने	-10.5555
▁महीना	-10.5562
शु	-10.5564
▁क्षमताको	-10.5564
▁सूचीबाट	-10.5567
▁घरहरु	-10.5567
▁न्यायाधीश	-10.5568
▁जीवनशैली	-10.557
▁भन्नेमा	-10.5581
भएको	-10.5581
इल	-10.5585
▁हुर्क	-10.5587
्ग	-10.5587
▁लेख्दै	-10.559
▁रहनेछन्	-10.5594
िरहनु	-10.5594
▁चलन	-10.5597
▁आयोजनाको	-10.5599
▁स्थानहरू	-10.5609
▁आंशिक	-10.5612
▁भाँडा	-10.5612
▁खपत	-10.5612
▁बखत	-10.5612
▁अपलोड	-10.5612
▁ज्यादा	-10.5613
▁डेढ	-10.5613
▁बनाउँदै	-10.5619
▁नभएसम्म	-10.562
▁अड	-10.5623
▁गीतहरू	-10.5624
▁चालू	-10.5625
यता	-10.5638
▁संस्थाको	-10.5644
▁माटो	-10.5649
मेन्ट	-10.5653
▁उत्साह	-10.5656
।”‘।	-10.5656
▁कर्सर	-10.5657
▁परिवेश	-10.5657
▁सट्टा	-10.5657
मेरा	-10.5659
▁भाषाहरूमा	-10.5659
▁आगत	-10.5666
▁ग्यास	-10.5667
▁होः	-10.5668
▁निकायहरु	-10.5672
जसले	-10.5679
▁निर्माणको	-10.5682
ाना	-10.5682
▁दाऊदको	-10.5684
▁मोशालाई	-10.5685
▁पूर्वी	-10.5691
▁बचाउने	-10.5691
▁कार्यक्रमहरू	-10.5693
▁शव	-10.5695
▁कम्पनीहरूले	-10.5697
▁वैदेशिक	-10.5701
्दो	-10.5703
▁गरिनेछन्	-10.5704
▁चेलाहरूले	-10.5705
▁गन	-10.5705
▁२०१९	-10.5705
▁कपाल	-10.5705
▁टेलिभिजनमा	-10.5709
▁टन	-10.5713
▁चाहानु	-10.5714
▁व्यक्तिहरु	-10.5714
३०	-10.5715
▁समूहले	-10.5718
▁कृषक	-10.5718
▁व्यापारी	-10.5719
▁सेनाहरू	-10.5724
▁फे	-10.5726
▁भूल	-10.573
▁फु	-10.5738
भी	-10.5739
ङ्ध	-10.5745
▁होमबलि	-10.5746
िको	-10.5748
▁जिल्लाको	-10.575
▁हाउस	-10.5757
▁सोचेका	-10.5758
मन	-10.5769
▁अरुको	-10.5771
▁आजै	-10.5772
खु	-10.5779
▁कम्पनीहरु	-10.5779
▁जसबाट	-10.5782
▁कस	-10.5789
▁आइसकेको	-10.5792
भाइहरू	-10.58
▁सदस्यको	-10.5808
▁तार	-10.5809
▁मिलेको	-10.5811
▁क्लबमा	-10.5824
शे	-10.583
▁साहित्य	-10.583
▁भ्रम	-10.583
मर	-10.5833
▁अगमवाणी	-10.5836
▁प्रजातान्त्रिक	-10.5836
▁सट्टामा	-10.5838
शन	-10.5839
▁देखाउँदछ	-10.5839
▁संयोजन	-10.584
▁व्यक्तित्व	-10.584
▁अरूको	-10.5845
▁बर्षमा	-10.5847
▁सोधें	-10.5853
▁रहेर	-10.5854
लगायत	-10.586
▁क्यास	-10.5862
▁स्वर	-10.5864
▁त्यहीं	-10.5868
▁परियोजनाको	-10.5872
गन	-10.5877
▁हातबाट	-10.5878
▁सहकारी	-10.5882
▁जोडिएका	-10.5889
▁फुटबलको	-10.5892
▁बन्नु	-10.5894
▁भोज	-10.5895
भाव	-10.5896
ल्ल	-10.5902
▁दिएनन्	-10.5903
▁याकूब	-10.5903
▁गर्दैछु	-10.5907
▁पाकिस्तानको	-10.5907
▁एफ	-10.5909
▁योजनाहरू	-10.5913
▁वहाँ	-10.5922
▁लागिरहेको	-10.5926
▁प्रोटोकल	-10.5927
▁खुलाइएको	-10.5928
▁तान्नुहोस्	-10.5928
▁बर्	-10.5928
▁लडे	-10.593
▁आबद्ध	-10.5931
▁बिचार	-10.5932
▁पढ्नुहोस्	-10.5935
▁गर्नाले	-10.5942
्नुहुन्छ	-10.5954
▁पाकिस्तानमा	-10.5954
▁सम्झौताको	-10.5955
▁चरा	-10.5961
ीम	-10.5965
▁मिल्दैन	-10.597
▁न्युयोर्क	-10.5973
▁विद्यमान	-10.5973
▁पुस्ता	-10.5974
▁ढिलो	-10.5974
▁फो	-10.5974
▁बम	-10.5975
▁नया	-10.5975
▁शब्दकोश	-10.5976
झैं	-10.598
▁हेरौं	-10.5983
▁चल्दै	-10.5987
अप	-10.599
▁मानिसहरूबाट	-10.5993
▁मानचित्र	-10.5993
िनी	-10.5994
िफ	-10.6003
बेला	-10.6015
▁भूकम्प	-10.6019
▁दीर्घकालीन	-10.6019
▁रोम	-10.6019
▁जीव	-10.6021
▁ल्याइएको	-10.6021
▁साथीको	-10.6028
रै	-10.6033
▁बुझाउन	-10.6034
▁तँ	-10.6039
द्य	-10.6041
▁आएपछि	-10.6044
▁विश्वकै	-10.6047
▁गरिरहे	-10.6048
▁तान	-10.605
▁फाइनलमा	-10.6052
▁सिकेका	-10.6052
▁उद्योगमा	-10.6057
▁नाश	-10.606
▁भेटी	-10.6061
रहित	-10.6065
▁परामर्श	-10.6065
▁सामुन्ने	-10.6065
▁डिसेम्बर	-10.6067
वत	-10.6068
▁पेरिस	-10.6068
वाल	-10.6068
▁गरिन	-10.6081
ुहोला	-10.6081
यल	-10.6084
ाउँथे	-10.6091
▁बुबालाई	-10.6093
▁साथीहरुसँग	-10.6098
▁मानिसका	-10.61
▁तपाईँका	-10.6101
▁मसँगै	-10.6106
चाहिँ	-10.6107
ाइन्छ	-10.6108
▁न्यु	-10.6108
ियम	-10.6109
▁निकाल्न	-10.6111
▁झन्डै	-10.6112
▁एकता	-10.6112
▁चाहनुभएको	-10.6113
▁लाल	-10.6113
▁स्वार्थ	-10.6113
▁तँलाई	-10.6115
▁पितालाई	-10.6115
▁फर्किन	-10.6121
्ब	-10.6121
▁भी	-10.6124
▁सरकारबाट	-10.6127
▁रातको	-10.6128
▁दिइने	-10.6131
▁पार्दछ	-10.6131
▁भविष्यका	-10.6135
▁बक्स	-10.6136
▁ठाउँबाट	-10.6137
▁पढेर	-10.6139
ीका	-10.6139
▁पूजाहारीले	-10.6142
सक्छ	-10.6142
▁निस्कन	-10.6143
त्मक	-10.6144
▁कार्यलाई	-10.6145
▁लेखकको	-10.6147
▁गुगल	-10.6152
▁आउँदछ	-10.6154
▁सिकाउने	-10.6158
▁इन्जिन	-10.6158
▁प्रख्यात	-10.6159
▁हिन्दू	-10.6159
▁खेलाडीको	-10.6159
▁बिलियन	-10.6159
लाइन	-10.6161
▁घडी	-10.6162
▁बच्न	-10.6166
▁गौरव	-10.6167
▁पछिल्ला	-10.6171
▁संसारलाई	-10.6177
मुनि	-10.618
▁गर्नुहोस	-10.6181
रूपमा	-10.6188
▁दिनुहुनेछ	-10.6193
▁भेटेको	-10.6194
▁चेलाहरूलाई	-10.6195
▁रुपैया	-10.6198
▁खातामा	-10.6203
▁गोपनीयता	-10.6206
▁यसबारेमा	-10.6207
▁मकहाँ	-10.6207
▁कदर	-10.6209
▁सवै	-10.6209
र्ग	-10.621
▁यहूदीहरू	-10.6211
▁दूर	-10.6212
▁हजुर	-10.6212
▁खोल्ने	-10.6212
▁बसिरहेको	-10.6215
▁निर्	-10.6216
▁सीमाना	-10.6224
▁कसैसँग	-10.6224
▁उहाँहरुको	-10.623
▁पात	-10.6232
▁दृढ	-10.6232
▁उस	-10.6232
▁कम्पनीका	-10.6237
▁इतिहासको	-10.6238
▁फोल्डरहरू	-10.624
▁फर्म	-10.624
नाथ	-10.6242
▁कोण	-10.6247
▁गराए	-10.6248
सले	-10.6248
▁संसारभर	-10.6251
▁अय्यूब	-10.6253
▁पाठ्यक्रम	-10.6253
▁भौगोलिक	-10.6253
▁संशोधन	-10.6253
▁चिसो	-10.6254
ुपर्यो	-10.6257
प्त	-10.6258
▁माध्यमिक	-10.6259
▁आसा	-10.6259
▁पर्वतमा	-10.626
▁भवनको	-10.626
▁अल्	-10.626
▁छायाँ	-10.6261
शक्ति	-10.6264
▁अगुवा	-10.6264
▁चिन्ने	-10.6271
▁लैजाने	-10.6272
साना	-10.6279
▁सित	-10.6284
▁पुस्तकहरु	-10.6293
▁फर्कन	-10.6294
तिमीले	-10.6297
▁परमेश्वरबाट	-10.63
▁बाह्र	-10.6301
▁त्योभन्दा	-10.6301
▁लेबुल	-10.6301
▁कन्	-10.6301
▁छुट्टै	-10.6305
▁ते	-10.631
▁करियर	-10.631
▁यहूदीहरूले	-10.6315
▁कुकी	-10.6317
▁जनशक्तिको	-10.632
▁भुक्तान	-10.6327
▁प्रयोगकर्ताले	-10.6333
हरूमाथि	-10.6336
▁फ्रेमहरू	-10.6339
स्तर	-10.6341
▁अध्ययनमा	-10.6341
▁जुट	-10.6344
▁भवनमा	-10.6345
▁करिअर	-10.6348
▁सस्तो	-10.6349
▁भोक	-10.6355
▁माने	-10.6355
▁विदेशबाट	-10.6358
▁विनाश	-10.636
▁किनारमा	-10.6363
▁गर्नेछौ	-10.6365
▁तरीकाले	-10.6379
▁शिव	-10.638
▁फर्के	-10.6387
▁पार्टीका	-10.6388
▁शे	-10.6389
▁सामग्रीहरू	-10.6389
▁नाच	-10.6394
▁सर्टकट	-10.6396
▁कच्चा	-10.6397
▁१९९०	-10.6397
▁आँखाको	-10.6399
▁स्वर्गदूत	-10.64
ममा	-10.6403
जान	-10.6404
उने	-10.6404
ेक्स	-10.6405
धु	-10.6413
क्त	-10.6418
▁धारा	-10.6422
▁उदाहरणको	-10.6422
▁शरीरका	-10.6426
▁भागहरू	-10.6427
चल	-10.6428
▁तहको	-10.6431
▁सरकारसँग	-10.6432
▁म्युजिक	-10.6444
▁समक्रमण	-10.6444
▁केटाकेटी	-10.6445
▁लिई	-10.645
▁क्लबको	-10.6454
▁पिक्सेल	-10.646
▁फुल	-10.6464
▁गाउन	-10.6464
▁एकाइ	-10.6476
भो	-10.648
▁कामका	-10.6481
यू	-10.6483
▁हुनुभन्दा	-10.6484
कृत	-10.6484
▁उनीहरुबीच	-10.6487
त्र्चाइ	-10.6491
्‍न	-10.6492
▁एप्रैम	-10.6492
▁निमन्त्रणा	-10.6492
▁परित्याग	-10.6492
▁वनस्पति	-10.6492
▁आदर्श	-10.6492
▁अग्लो	-10.6492
▁स्वच्छ	-10.6493
▁२००६	-10.6494
▁चलाउनुहोस्	-10.6495
▁दृष्टिकोणबाट	-10.6496
▁ताजा	-10.6497
▁जोन	-10.6506
▁पारी	-10.6506
▁बच्चाहरूलाई	-10.6506
र्य	-10.6517
▁भित्रै	-10.6522
▁आरोपमा	-10.6525
▁केटा	-10.6527
▁प्रतिबद्ध	-10.653
▁३६	-10.6538
▁रोज्न	-10.6538
कालमा	-10.6539
▁अस्ट्रेलिया	-10.6541
▁प्रावधान	-10.6541
▁श्रेष्ठ	-10.6541
▁तातो	-10.6542
▁मान्न	-10.6545
छिन्	-10.6548
▁लहर	-10.6551
स्टर	-10.6551
▁नागरिकता	-10.6552
▁५००	-10.6552
▁बैङ्क	-10.6555
▁रुम	-10.6556
▁विद्यालयहरु	-10.6557
▁संसारले	-10.6557
▁वस्तुहरुको	-10.6562
▁ढंगले	-10.6562
▁माफी	-10.657
▁स्वा	-10.6572
▁फ्रान्समा	-10.6573
▁इस्राएलीहरू	-10.6574
▁सुक	-10.6577
चित	-10.658
ेत	-10.6581
▁मुखबाट	-10.6582
▁प्रजाति	-10.6584
▁छक्क	-10.6587
▁फेब्रुअरी	-10.6589
▁रुपान्तरण	-10.6589
▁शपथ	-10.6589
▁यकिन	-10.6591
▁टर्की	-10.6592
▁शब्दको	-10.6596
▁स्तन	-10.6598
▁जानुभयो	-10.6599
▁ग्रुप	-10.6603
▁युरोपमा	-10.6608
▁भागको	-10.6613
▁छोड्ने	-10.6615
▁बाल्यकालमा	-10.6617
▁वेबसाइटमा	-10.662
▁म्या	-10.6624
▁क्लबका	-10.6625
▁क्षणमा	-10.6629
▁मालिकले	-10.6636
▁क्यासिनो	-10.6638
▁प्लेयर	-10.664
▁भूमिकामा	-10.6646
▁याकूबले	-10.6647
▁पानीले	-10.665
▁तीनजना	-10.6654
▁गर्नुहुन्न	-10.6659
ज्	-10.6661
▁तिमीहरूसित	-10.6667
▁पापहरू	-10.6668
स्प	-10.6671
▁पश्चिमी	-10.6672
▁भएपनि	-10.6677
लग	-10.6678
▁धैर्य	-10.6688
▁मजदुर	-10.6688
▁साहस	-10.6689
▁एयर	-10.6691
▁सेल	-10.6694
▁विश्वकप	-10.6695
▁मार्क	-10.6702
ज्ञ	-10.6708
इन्	-10.6708
▁फर्कने	-10.671
▁त्रि	-10.6712
▁ट्वीट	-10.6713
▁कार्यकर्ता	-10.6716
▁बदल	-10.6723
▁परी	-10.6724
▁मुद्दामा	-10.673
▁अत्यावश्यक	-10.6737
▁फलफूल	-10.6737
▁लज्जित	-10.6737
▁मिल्दो	-10.6738
▁सियोन	-10.6738
▁पावल	-10.6739
▁उनीसँगै	-10.674
होस्	-10.674
▁ममाथि	-10.6741
▁बालबालिकाको	-10.6742
▁गर्दथे	-10.6744
▁पूर्ति	-10.6744
▁झार	-10.6745
▁चल्ने	-10.6747
अनि	-10.6748
▁नरहेको	-10.6749
▁भार	-10.675
▁चाहेका	-10.6754
▁जिन्दगीमा	-10.6759
▁अर्	-10.6761
गे	-10.6762
पर्छ	-10.6764
ध्य	-10.6764
नेछन्	-10.677
▁देखेँ	-10.6773
▁नक्कल	-10.6776
काे	-10.6777
▁बप्तिस्मा	-10.6787
▁सदैव	-10.6787
▁शुक्रबार	-10.6787
▁अधिकृत	-10.6788
▁मण्डली	-10.679
▁छोड्नुहोस्	-10.679
▁सूचीको	-10.6796
क्र	-10.6809
▁उपकरणको	-10.6813
▁आश	-10.6826
पर्ने	-10.6828
▁प्रशासक	-10.6835
▁कहानी	-10.6837
▁व्यवस्थित	-10.6837
▁स्टेशन	-10.6838
▁निष्कर्ष	-10.6838
▁उहा	-10.6838
▁घरका	-10.6845
▁सोध्नु	-10.6851
▁यसप्रकार	-10.6851
▁जिते	-10.6854
▁डराएका	-10.6854
▁बोल्दै	-10.6868
▁नाफा	-10.6869
▁आफैंमा	-10.6874
घरमा	-10.6881
भयो	-10.6884
पट	-10.6885
▁अधिकारीले	-10.6887
▁दृष्टान्त	-10.6887
▁सञ्चालित	-10.6887
▁कम्तीमा	-10.6887
▁हिन्दी	-10.6887
▁डोमेन	-10.6887
▁रिसेट	-10.6888
▁नं	-10.6888
हुन्छ	-10.689
▁पाँचवटा	-10.6895
▁भनिन	-10.6897
▁पोखरा	-10.6898
▁लोकतन्त्र	-10.69
▁पट्टी	-10.6903
▁राय	-10.6905
▁हेरिरहेका	-10.6912
यौं	-10.6918
▁थु	-10.6918
मिल	-10.6919
्ले	-10.692
▁उठाउने	-10.692
▁होइनौं	-10.692
▁ग्या	-10.6922
▁कर्मचारीहरु	-10.6928
▁अँध्यारो	-10.6938
▁प्रचलित	-10.6938
▁घुसाउनुहोस्	-10.6938
▁हितमा	-10.6939
▁पक्षले	-10.6941
▁प्राप्ति	-10.6945
▁लगिएको	-10.6949
▁स्टोर	-10.6949
▁संगै	-10.6952
जति	-10.6958
▁गाउ	-10.6959
▁गर्नुको	-10.6961
▁खानी	-10.6968
▁द्रष्टव्य	-10.6972
▁डराउनु	-10.6977
▁सत	-10.6983
▁दुखी	-10.6983
▁काँग्रेस	-10.6988
▁नराम्रा	-10.6988
▁पूर्वावस्थामा	-10.6988
▁सौन्दर्य	-10.6988
▁अभिनेता	-10.6988
▁सरकारका	-10.6989
▁निगम	-10.6989
▁पैदा	-10.699
▁बिदा	-10.6995
▁सपनाको	-10.6995
्याट	-10.7003
▁प्रान्त	-10.7003
▁एसिया	-10.7003
▁मानिसहरूसित	-10.7006
▁श्रमिक	-10.7008
▁जान्दछौ	-10.701
▁गर्भ	-10.7015
फे	-10.7015
ाउछ	-10.702
▁आउँदैन	-10.7025
▁सत्तामा	-10.7026
▁यसपटक	-10.7026
▁प्रदूषण	-10.7039
▁राष्टिँ्रय	-10.7039
▁अनुक्रमणिका	-10.704
▁शिक्षित	-10.704
▁भाषण	-10.7041
▁आर्जन	-10.7042
▁बै	-10.7043
▁खोलिएको	-10.7044
▁नल	-10.7046
▁बस्तु	-10.705
▁खुल्न	-10.7053
▁अधीनमा	-10.7054
▁कुर	-10.7055
▁समूहहरू	-10.706
▁अनुप्रयोगहरू	-10.7061
कस	-10.7061
▁सञ्जालमा	-10.7073
▁बाबुको	-10.7083
▁रक्तचाप	-10.7091
▁फिलिप	-10.7091
▁स्क्रिन	-10.7092
▁नसकिने	-10.7092
▁मानिसहरूसँग	-10.7092
▁अभियोग	-10.7103
स्था	-10.7104
▁पढेका	-10.7106
▁छोरीहरु	-10.7111
▁डराए	-10.7117
माझ	-10.7118
▁डाक्टरले	-10.7118
▁धान	-10.7119
▁ट्रेन	-10.7121
▁पनी	-10.7124
▁केन्द्रहरु	-10.7128
▁शहरहरूमा	-10.7131
▁सुझावहरू	-10.7138
▁ट्राफिक	-10.7142
▁प्रतिस्पर्धी	-10.7142
▁इराक	-10.7143
▁पहल	-10.7146
▁फ्रान्सको	-10.7147
फाइल	-10.7148
▁बाइक	-10.7155
४०	-10.7157
▁चिहान	-10.7159
▁पोषण	-10.7162
पूर्व	-10.717
▁खुसीको	-10.7176
▁हामीहरू	-10.7179
▁दाइ	-10.7181
▁उद्योगको	-10.7186
▁यूसुफ	-10.7186
▁मित्रता	-10.7192
▁थ्रेड	-10.7194
▁निर्दोष	-10.7194
▁मोटरसाइकल	-10.7194
▁पत्रमञ्जूषा	-10.7195
▁खाएको	-10.7195
▁गायक	-10.7196
▁राज्यले	-10.7198
पू	-10.72
▁समितिको	-10.7204
▁सहयोगको	-10.7205
पति	-10.721
▁कता	-10.7212
▁वृत्त	-10.7215
▁स्वर्गमा	-10.7216
टिक	-10.7227
▁गे	-10.7236
▁इसहाक	-10.7246
▁उद्धरण	-10.7246
▁सोभियत	-10.7246
▁क्वेरी	-10.7246
▁तथ्यांक	-10.7246
▁वंश	-10.7246
▁तापक्रम	-10.7247
▁पछ्याउन	-10.7248
▁रुची	-10.7249
▁बस्ती	-10.7252
▁दिइयो	-10.7253
▁साँ	-10.7254
▁मुखमा	-10.7254
▁प्रयोगमा	-10.7257
▁स्तरको	-10.7268
▁(%	-10.7271
▁खुशीको	-10.7279
▁बताएकी	-10.7285
▁धु	-10.7291
▁पापको	-10.7294
▁शाऊलले	-10.7296
▁उब्ज	-10.7299
▁फ्रेन्च	-10.7299
▁१९८०	-10.7301
▁बाधा	-10.7301
▁संचार	-10.7301
▁आइरहेका	-10.7301
▁कुट	-10.7303
्छिन्	-10.7303
▁सम्भवत	-10.7304
▁उन	-10.7311
▁तीमध्ये	-10.7313
▁राख्छन्	-10.7319
▁विविधता	-10.732
▁वर्षहरुमा	-10.7323
▁बढ्छ	-10.733
▁भुल	-10.7335
▁प्रयासमा	-10.7337
▁भगवानको	-10.7339
▁काँ	-10.7341
▁समितिले	-10.7341
▁समुद्रको	-10.7342
▁जोडा	-10.7343
▁समानता	-10.7346
▁सिटी	-10.7349
▁पुननामकरण	-10.7351
▁प्रशिक्षक	-10.7351
▁ग्रीक	-10.7351
▁भन्सार	-10.7351
▁परिक्षण	-10.7352
▁बिच	-10.7353
▁प्रतिफल	-10.7353
▁गरून्	-10.7353
▁पुर्	-10.7359
▁कुरै	-10.7359
▁बैंकले	-10.736
▁त्यहाँका	-10.7361
▁बिन्दुमा	-10.7362
▁योजनावधिमा	-10.7363
▁उपत्यका	-10.7368
▁मनाउन	-10.7371
▁घण्टापछि	-10.7375
स्तरमा	-10.7378
▁जीवनकालमा	-10.7379
दिए	-10.738
▁थिएनौं	-10.738
▁दलका	-10.739
▁बाँच	-10.7391
ङ्गा	-10.7393
ाउँछु	-10.7399
▁नागरिकको	-10.7399
▁प्रशोधन	-10.7404
▁महशुस	-10.7404
▁पुर्याउँछ	-10.7405
व्य	-10.7406
▁महिलासँग	-10.7407
धेरै	-10.7408
-'	-10.7411
▁विपक्षी	-10.7412
▁३३	-10.7413
▁क्लिपबोर्डमा	-10.7419
▁समस्याबाट	-10.7419
▁युवाहरू	-10.7423
▁पाउनेछन्	-10.7428
▁नेताहरु	-10.7433
▁उनमा	-10.7433
ट्टा	-10.7441
▁चे	-10.7441
▁उठे	-10.7451
▁नामहरू	-10.7452
▁यहा	-10.7457
▁भयभीत	-10.7457
▁फारम	-10.7457
▁लाभान्वित	-10.7457
▁यसैकारण	-10.7458
▁छोड्नु	-10.7461
▁सिजन	-10.7462
▁सास	-10.7462
▁आँखाले	-10.7463
▁देखिँदैन	-10.7463
▁दिनमै	-10.7464
▁धूप	-10.747
्ड	-10.7476
काअनुसार	-10.7482
▁सल्लाहकार	-10.749
▁पदमा	-10.7499
उस	-10.7506
िङ्ध	-10.7506
▁सम्पदा	-10.7511
▁दिनहरु	-10.7513
▁अल्फा	-10.7513
▁सफलतापूर्वक	-10.7514
▁संस्थाहरु	-10.7515
एफ	-10.7515
▁इन्कार	-10.7516
▁संगीतमा	-10.7518
▁ँ	-10.7523
चर	-10.7527
▁सक्थे	-10.7527
▁धर्मी	-10.7527
▁भूत	-10.7529
१०	-10.7533
▁सिकाउनु	-10.7537
▁पढे	-10.754
४२	-10.7545
▁बताउ	-10.7548
▁खेद	-10.7555
▁विषयलाई	-10.7555
▁अधिकारीहरुले	-10.7555
▁फा	-10.7556
▁करियरको	-10.756
▁आराधना	-10.7565
▁घोषित	-10.7565
▁खासगरी	-10.7566
▁हरु	-10.7566
▁३८	-10.7572
▁फिरऊन	-10.7572
▁विधा	-10.7578
▁प्लेटफर्म	-10.7581
▁आमासँग	-10.7581
फर	-10.7582
▁भाडा	-10.7584
▁ताल	-10.7585
▁समग्रमा	-10.7586
▁कार्यक्रमलाई	-10.7592
▁देशभर	-10.7596
▁योजनाहरु	-10.7598
त्यस	-10.7598
▁सामग्रीको	-10.7599
दुई	-10.7608
लिया	-10.7617
▁दिइन्	-10.7618
▁शरणार्थी	-10.7619
▁इन्टरफेस	-10.7619
▁पारि	-10.7619
▁दाउरा	-10.762
▁फलाम	-10.7621
▁बगैंचा	-10.7622
▁शिक्षकहरू	-10.7627
उनी	-10.7629
▁गरेमा	-10.7634
▁न्यायको	-10.7635
▁तपाईंहरुले	-10.7637
िँदै	-10.7638
▁निकाले	-10.7645
▁संस्थानहरु	-10.7645
▁सेनामा	-10.7654
▁शुरुमा	-10.7654
ाएँ	-10.7655
▁वर्षीय	-10.7658
▁शब्दमा	-10.7662
गरी	-10.7664
मोन	-10.7667
▁दरले	-10.7668
सेन	-10.7669
▁साढे	-10.7673
▁वाक्यांश	-10.7673
▁अफलाइन	-10.7674
र्ति	-10.7674
▁खोजिरहेको	-10.7678
तः	-10.7682
▁भनाई	-10.7685
▁पुर्‍याउने	-10.7693
▁बाहिरको	-10.7697
ाइने	-10.77
▁पुनर्	-10.7701
▁बाध्यता	-10.7707
▁बदल्न	-10.7711
▁क्षेत्रहरुमा	-10.7714
▁व्यवस्थामा	-10.7716
्यास	-10.7717
▁गोप्य	-10.7728
▁बिरुवा	-10.7728
▁थालिएको	-10.7731
▁रातमा	-10.7731
▁प्रापक	-10.7737
▁नायक	-10.7739
▁उसो	-10.7739
िरहने	-10.775
▁हालत	-10.775
▁पट्टि	-10.776
▁छाड्न	-10.7761
▁बर	-10.7762
ङ्गो	-10.7764
लिन	-10.7772
▁लागेन	-10.7779
▁अपेक्षित	-10.7783
▁गिरावट	-10.7783
▁रमाईलो	-10.7783
▁सर्वशक्तिमान	-10.7783
▁युनियन	-10.7783
▁बनावट	-10.7783
▁प्रतिकूल	-10.7783
▁संघको	-10.7798
▁एयरपोर्ट	-10.7802
▁चारै	-10.7808
▁प्रतिवेदनमा	-10.7809
▁घुस	-10.7809
▁हप्तादेखि	-10.7814
ग्न	-10.7815
िप	-10.7821
▁आव	-10.7822
रहनु	-10.7822
▁शब्दहरु	-10.7823
▁मृतक	-10.7828
▁हराएको	-10.783
निया	-10.7831
▁चम्क	-10.7837
▁कोइराला	-10.7838
▁दोब्बर	-10.7838
▁पोशाक	-10.7838
▁ल्याटिन	-10.7838
▁हिसाब	-10.7839
▁आमाबुबा	-10.784
▁समुद्रमा	-10.7841
▁चाहँदैनन्	-10.7841
▁डरले	-10.7841
्की	-10.7842
▁आहार	-10.7844
▁मुस्लिम	-10.7845
▁अगमवक्ताहरू	-10.7845
▁हेरे	-10.7846
▁रुपैयाँ	-10.7847
▁बसमा	-10.7849
▁दुरी	-10.7856
फो	-10.7859
▁खुल	-10.7863
▁पुर	-10.787
▁बदलिएको	-10.787
▁पृथ्वीका	-10.7872
हू	-10.7873
▁भगवानले	-10.7873
▁सोध्ने	-10.7873
▁सुन्दै	-10.7876
ाद	-10.7879
क्ल	-10.7881
▁बालबालिकाहरु	-10.7885
▁ह्या	-10.7887
▁वस्तुस्थिति	-10.7888
▁रक्त	-10.7889
लार्ई	-10.7893
▁बत्ती	-10.7893
▁नूह	-10.7893
▁अनुग्रह	-10.7894
▁बाल्यकालदेखि	-10.7896
▁झूटा	-10.7897
▁व्यक्तिहरूको	-10.7898
▁दलको	-10.7899
▁बर्षका	-10.7903
▁प्रतिबद्धता	-10.7908
▁आफन्त	-10.7911
▁लेवीहरू	-10.7915
र्द	-10.7917
बु	-10.7918
▁अद	-10.7921
▁ड्र	-10.7925
▁जिल्लाहरुमा	-10.7929
▁प्रदायक	-10.7936
▁बोले	-10.7939
▁गइन्	-10.794
▁जर्मनीमा	-10.7944
▁ढल	-10.7946
▁स्त्रीको	-10.7947
▁अद्भुत	-10.7949
▁आविष्कार	-10.7949
▁डिस्चार्ज	-10.7949
▁विनियोजन	-10.7949
▁रेखाचित्र	-10.795
▁गर्‍यो	-10.795
▁सीधा	-10.795
▁ज्ञात	-10.7951
▁यसैगरी	-10.7951
▁निर्वाह	-10.7952
▁खुबै	-10.7953
▁विद्यालयहरू	-10.7955
▁बटनमा	-10.7955
टु	-10.7959
▁खो	-10.7961
▁टोलीले	-10.7965
म्भ	-10.7966
र्व	-10.7976
▁बह	-10.7977
▁हिड	-10.798
▁चेतना	-10.798
ंदा	-10.7982
▁दिनभित्र	-10.7987
▁फलक	-10.7992
▁उहाँहरूलाई	-10.7993
्यान	-10.7993
लय	-10.7996
▁ताराहरू	-10.8
▁नमुना	-10.8005
▁पाइलट	-10.8005
▁विधवा	-10.8005
▁स्वाद	-10.8006
▁देख्दा	-10.8008
अहिले	-10.8013
ह्र	-10.8014
ुट	-10.8015
▁आयु	-10.8015
▁मानवीय	-10.8016
▁७५	-10.8016
▁परमप्रभुका	-10.8017
▁समात	-10.8021
▁उहाँहरूले	-10.8025
▁जुम	-10.8027
▁शिविर	-10.8028
▁अर्काे	-10.803
▁एली	-10.8039
उनले	-10.8044
▁होटेल	-10.8047
▁पुग्नु	-10.8047
▁राजाहरू	-10.8052
▁संगीतको	-10.8053
▁दुनिया	-10.8055
▁लेखनमा	-10.8058
▁आफनो	-10.8062
▁प्राधिकरण	-10.8062
▁म्यानुअल	-10.8062
▁अभियानमा	-10.8062
▁माउन्ट	-10.8062
▁देख्छु	-10.8065
ञ्च	-10.8066
▁क्रान्ति	-10.8069
▁३७	-10.8072
सक्नु	-10.8073
▁पाउँछ	-10.8084
▁हाइ	-10.8086
▁सम्मको	-10.8086
▁हामीकहाँ	-10.8087
▁जानेको	-10.8107
▁भएछ	-10.8114
िभ	-10.8116
▁कुना	-10.8116
▁दिएकी	-10.8116
▁टेबलमा	-10.8117
▁शिखर	-10.8119
▁राजकुमार	-10.8119
▁शहरलाई	-10.812
▁समयका	-10.812
▁यहोशू	-10.8122
▁ग्रिड	-10.8122
▁सकिन्न	-10.8123
▁सम्मेलनमा	-10.8125
▁रोल	-10.8126
पर्दैन	-10.8126
▁जाल	-10.8129
▁मुम्बईमा	-10.813
ंगा	-10.813
▁दशकदेखि	-10.8132
▁अनुकूलन	-10.8132
▁पत्नीको	-10.8132
▁दक्षिणी	-10.8133
▁लगानीकर्ता	-10.8133
▁साइड	-10.814
▁पारेका	-10.814
▁एकमात्र	-10.814
▁गरिबी	-10.8141
▁शिक्षकहरु	-10.8142
र्ज	-10.8144
▁सन्धि	-10.8144
▁विश्वभरि	-10.8147
▁सत्यता	-10.8148
ंस	-10.8149
▁सहन	-10.8152
ड्क	-10.8155
▁भ्या	-10.8157
▁भाव	-10.8157
▁कमाई	-10.8158
▁बाबेलका	-10.816
▁प्रयोगको	-10.816
▁मर्नु	-10.8161
▁पलिश्ती	-10.8163
▁सक्नेछन्	-10.8163
▁सर्प	-10.8166
▁सूचि	-10.8172
▁अन्वेषण	-10.8176
▁धातु	-10.8176
▁ठाउँहरू	-10.818
▁सकेसम्म	-10.8184
▁उभिए	-10.8184
▁सिम	-10.8191
▁पक्षहरू	-10.8194
▁झुक	-10.8195
हुन	-10.8198
▁न्यू	-10.8205
▁उता	-10.8209
▁नोकर	-10.8217
▁शाह	-10.8221
▁तीस	-10.8222
▁समूहलाई	-10.8222
▁साथीहरूलाई	-10.8228
▁विगतको	-10.8229
▁जागिर	-10.8232
▁हल्ला	-10.8233
▁क्यालेन्डर	-10.8233
▁सकिनेछ	-10.8233
▁वस्त्र	-10.8234
▁यत्ति	-10.8234
▁सँगसँगै	-10.8242
▁बलिया	-10.8247
▁खानाको	-10.8247
▁क्याम्पस	-10.8248
▁हप्तापछि	-10.8259
▁सुखद	-10.8265
▁कलेजमा	-10.8267
▁उद्यमी	-10.8267
▁प्रतिक्षामा	-10.8267
▁पुर्‍याउन	-10.827
▁ठाउँको	-10.827
▁प्रतीक्षामा	-10.8275
▁राजाका	-10.8291
▁अर्पण	-10.8291
▁जरुरत	-10.8291
▁तेश्रो	-10.8291
▁बहुविध	-10.8291
▁रिसर्च	-10.8291
▁संघीय	-10.8295
▁लगाई	-10.8304
छोरीहरू	-10.8305
कुल	-10.8307
▁परिवर्तनको	-10.831
▁चीनबाट	-10.8311
▁खोस	-10.8313
▁करारको	-10.8316
▁युगमा	-10.8316
▁सिट	-10.8325
▁तत्वहरू	-10.8328
ाउदै	-10.833
श्व	-10.833
▁चढाए	-10.8332
▁दिंदै	-10.8334
ाह	-10.8334
▁बाँचे	-10.8335
▁खेलका	-10.8336
▁चाहन्छौ	-10.8345
ाउँदछ	-10.8345
▁पाठको	-10.8346
▁सञ्चालनमा	-10.8346
ार्थ	-10.8347
▁ढाँचामा	-10.8348
▁बाल्यकाल	-10.8349
▁दाजु	-10.8349
▁अलावा	-10.8349
▁मारिएको	-10.835
▁जून	-10.8352
▁प्राणी	-10.8352
▁फुटबलर	-10.8352
▁२०२१	-10.8352
▁वीर	-10.8353
▁नगर्न	-10.8354
▁पुरानै	-10.8355
यहाँ	-10.8362
▁जिन्दगीको	-10.8369
▁पक्षको	-10.8373
▁क्यानडा	-10.8376
▁अनुभवबाट	-10.8377
▁अनुसन्धानको	-10.8379
▁पुर्खाहरू	-10.8384
फु	-10.8391
चु	-10.8394
ट्ट	-10.8399
▁ब्र	-10.84
▁सिपाहीहरू	-10.8402
▁लामा	-10.8404
▁सहजै	-10.8404
लेख	-10.8404
▁दिनलाई	-10.8404
▁उदार	-10.8406
▁पागल	-10.8407
▁सर्वाधिक	-10.8408
▁आह्वान	-10.8408
▁बार्सिलोना	-10.8408
र्‍ारा	-10.8408
▁अखबार	-10.8408
▁संवेदनशील	-10.8408
▁आश्चर्यजनक	-10.8408
▁दयालु	-10.8409
१५	-10.8409
▁पाइला	-10.8414
▁वातावरणमा	-10.8418
▁ख्रीष्टले	-10.8421
▁व्यक्तिहरूलाई	-10.8422
▁खेल्नु	-10.8423
▁सुम्पि	-10.843
▁विदा	-10.8433
▁टेप	-10.8433
म्बर	-10.8435
▁राखियो	-10.8441
▁जान्छु	-10.8443
ुक	-10.845
स्ट्र	-10.8451
▁स्टे	-10.8453
योग	-10.8457
▁कार्यका	-10.8459
▁विष	-10.8462
भए	-10.8463
सम्बन्ध	-10.8465
षि	-10.8466
्थिन्	-10.8467
▁छोडेको	-10.8467
▁प्रतिरोध	-10.8468
▁घटनाले	-10.8479
औँ	-10.848
▁सुखी	-10.8489
▁तलब	-10.8489
▁पक	-10.8491
र्ष	-10.8493
रूप	-10.8493
क्ति	-10.8495
▁प्रकृतिको	-10.8496
▁बढाएको	-10.8499
सम्मको	-10.8501
▁गाउने	-10.8502
रहेकी	-10.8506
४७	-10.8509
▁सुस्त	-10.8509
▁उठेको	-10.8512
▁भर्खर	-10.8519
▁प्रश्नहरु	-10.8519
थर	-10.852
▁कम्प	-10.8524
▁पचास	-10.8526
▁कानूनको	-10.8527
▁दाऊदका	-10.8528
▁सातवटा	-10.8529
▁चिनी	-10.853
रुप	-10.8537
▁किसिमले	-10.8543
▁खोले	-10.8544
कहरू	-10.8548
ब्ल	-10.855
▁पढाउने	-10.855
्जा	-10.8551
▁इलाका	-10.8559
▁खारेज	-10.8559
▁नब	-10.8562
▁४८	-10.8563
▁ये	-10.8564
िएन	-10.8565
मुक्त	-10.8571
िरहनुभएको	-10.8578
▁सक्नुहुन्छः	-10.8582
▁व्यक्तिहरूले	-10.8583
▁कर्पोरेसन	-10.8585
▁पुतली	-10.8585
▁जोनाथन	-10.8585
▁नम्र	-10.8585
▁फ्रान्सेली	-10.8586
▁मोआब	-10.8586
रेट	-10.8588
▁सिकाएको	-10.8589
▁समर्थक	-10.8591
▁अट	-10.8592
▁विपरीत	-10.8592
▁जानुहुन्छ	-10.8597
िच	-10.8597
▁नहुनु	-10.8598
▁विवरणहरू	-10.8603
▁स्कुलको	-10.8605
▁हटाए	-10.8607
▁फर्केका	-10.8608
▁बराबरी	-10.8617
▁दृष्टिले	-10.8619
▁तहहरू	-10.8628
▁स्थित	-10.8631
▁भनिसके	-10.8632
▁पक्षबाट	-10.8637
फल	-10.8638
▁चाहन्न	-10.8639
वाह	-10.8643
▁असाध्यै	-10.8645
▁निरीक्षण	-10.8645
▁बाँन्की	-10.8645
▁सदुपयोग	-10.8645
▁पुनरावृत्ति	-10.8645
▁विकेट	-10.8647
▁उत्तरदायी	-10.8648
ाड	-10.8649
▁पेय	-10.8653
२५	-10.8654
▁धेरैपटक	-10.8655
प्रसाद	-10.8656
▁देख्नुभएको	-10.8656
▁हिंडे	-10.866
▁अङ्ग	-10.8661
▁कठिनाइ	-10.8663
▁निर्भरता	-10.8672
▁मेक्सिको	-10.8674
▁सदन	-10.8676
▁श्रोत	-10.868
▁स्वीकृत	-10.8689
▁आउ	-10.869
त्तर	-10.8691
नगर	-10.8692
▁स्वर्गबाट	-10.8696
▁विशेषज्ञ	-10.8698
▁ब्ल	-10.8707
▁थालनी	-10.8708
▁युरोपेली	-10.8711
मार्ग	-10.8711
▁चल्न	-10.8711
▁बर्बाद	-10.8712
▁चाहियो	-10.8712
▁प्रजा	-10.8715
▁स्वभाविक	-10.8721
▁छोराले	-10.8722
▁एलिया	-10.8725
िस्ट	-10.873
▁बिग्र	-10.8735
▁दुखाइ	-10.8735
▁झन	-10.8736
४९	-10.8741
▁आत्माले	-10.8743
▁श्रीमान	-10.8747
▁क्षमतामा	-10.8749
▁कथाहरु	-10.875
्याक	-10.8758
▁आउँदैछ	-10.876
▁गाउँका	-10.8762
▁कटौती	-10.8766
▁बिस्तारै	-10.8769
▁तिर्न	-10.8769
▁डुब	-10.877
्टी	-10.877
▁रोज	-10.877
▁नदीमा	-10.8771
ुपर्नेछ	-10.8777
शास्त्र	-10.8777
▁भनौं	-10.8782
बर्ग	-10.8784
प्रतिको	-10.8784
जीवन	-10.8787
▁विमानमा	-10.879
▁अङ्ग्रेजी	-10.8798
▁प्रतियोगिताको	-10.8799
नुहोस्	-10.8803
▁साइटहरू	-10.8806
दल	-10.8808
▁ग्रन्थ	-10.8809
▁वचनहरू	-10.8813
रिक	-10.8813
ाइज	-10.8813
हरूद्वारा	-10.8817
▁परिणामहरू	-10.8817
▁गाडीको	-10.8819
▁अघिदेखि	-10.8822
▁इटाली	-10.8827
▁एजेन्ट	-10.8827
▁निलम्बन	-10.8827
▁सिस्को	-10.8827
▁सभापति	-10.8827
▁तिनीहरूमध्ये	-10.8829
टिन	-10.8833
▁त्य	-10.8834
▁३४	-10.8835
▁भयौं	-10.8835
ुम	-10.8837
एउटा	-10.8839
▁घाउ	-10.8839
पोर्ट	-10.8839
▁सन्तानको	-10.8841
जाति	-10.8844
▁सागर	-10.8845
▁दक्षता	-10.8847
▁घण्टामा	-10.8851
▁छविमा	-10.8854
▁प्रेमी	-10.8858
▁फाइलबाट	-10.8859
▁चैत	-10.8865
▁पारदर्शी	-10.8884
▁यससँग	-10.8884
▁खर्चको	-10.8884
▁साथीहरूसँग	-10.8885
▁श्रृंखला	-10.8888
▁चुपचाप	-10.8888
▁प्वाल	-10.8888
▁सोमवार	-10.8888
▁ट्र्याक	-10.8889
▁प्रकोप	-10.8889
▁इन्धन	-10.8889
▁सोर	-10.8894
▁फोनको	-10.8897
▁लक	-10.8899
ीएल	-10.8903
▁ब्लक	-10.8903
▁मस्तिष्क	-10.8905
▁मरूभूमिमा	-10.8906
▁सिकाउँछ	-10.891
▁सेनाको	-10.891
▁यर्मिया	-10.8913
फी	-10.8915
र्च	-10.8916
▁महिलाका	-10.8917
▁त्यसअघि	-10.8918
▁संसद्	-10.8919
श्र	-10.8926
▁मान्नु	-10.8931
▁युद्धका	-10.8933
▁हारेको	-10.8937
▁संस्थाहरू	-10.8937
नेट	-10.8945
▁जनसंख्याको	-10.8949
▁पारेर	-10.895
▁पेशेवर	-10.895
▁एप्पल	-10.895
▁सूत्र	-10.8951
▁अतः	-10.8954
हरूसित	-10.8959
▁चर्चित	-10.896
▁भग	-10.896
्याह	-10.8964
▁गरिदिनु	-10.8967
▁शर्मा	-10.8971
▁लिन्छन्	-10.8974
▁सिक्नु	-10.8974
▁तथ्यलाई	-10.898
▁आर्	-10.8981
▁अन्धकार	-10.8983
▁निगरानी	-10.8983
▁चुप	-10.8986
▁नैतिक	-10.8987
▁प्रतिभा	-10.8991
▁उठ्न	-10.8993
िमा	-10.8999
▁रूखहरू	-10.9003
िदै	-10.9009
▁भोल्युम	-10.9012
▁यद्यपी	-10.9012
▁एप्लेट	-10.9013
▁बदल्नुहोस्	-10.9014
▁हुदै	-10.9016
▁क्रमिक	-10.902
▁पक्षलाई	-10.9021
▁त्यहाँको	-10.9024
▁नसके	-10.9026
▁रेड	-10.9028
▁जमिनमा	-10.903
▁कनान	-10.903
▁बोलेका	-10.9032
▁मृत्युबाट	-10.9034
▁यरूशलेमका	-10.9035
▁येशूमा	-10.9036
▁कालमा	-10.9036
▁सम्मानित	-10.9037
▁फर्काउन	-10.9037
रेखा	-10.904
्सन	-10.9043
न्छन्	-10.9044
▁विना	-10.9046
ृत	-10.9058
▁गधा	-10.9064
▁निस्किए	-10.9066
▁बाहिरबाट	-10.9069
▁जरूरी	-10.9075
▁लाइसेन्स	-10.9075
▁विपरित	-10.9075
▁सिफारिश	-10.9075
▁शनिबार	-10.9075
▁छुटकारा	-10.9075
▁भर्याङ	-10.9075
▁वाल	-10.9076
▁नौलो	-10.9081
▁उद्योगहरु	-10.9087
छन	-10.909
▁आफुलाई	-10.9091
▁कार्यकारी	-10.9091
▁समस्यालाई	-10.9092
▁रहन्छन्	-10.91
▁कम्पनीलाई	-10.9102
▁देखाइ	-10.9105
न्ध	-10.9106
▁छैनन	-10.9106
खर	-10.9108
▁अघिको	-10.9109
▁गरिएन	-10.9111
▁क्रस	-10.9115
िकल	-10.9118
र्भ	-10.912
▁उपायहरु	-10.9126
▁तपाईंकै	-10.9127
डर	-10.9129
▁व्यापारको	-10.913
▁बताउँछ	-10.913
▁सहायताको	-10.9133
▁एन्ड	-10.9133
पार	-10.9134
▁नगरपालिका	-10.9138
▁कब्जा	-10.9138
▁खनिज	-10.9138
▁अज	-10.9143
▁पर्नु	-10.9146
मेट	-10.9148
▁देख्दै	-10.915
▁आयोगको	-10.9151
गार	-10.9154
▁अपराधी	-10.9155
कम	-10.9158
▁अन्याय	-10.916
▁तरङ्ग	-10.9163
▁२००४	-10.9166
▁सेनाहरूका	-10.9168
ठी	-10.9169
प्प	-10.9176
णी	-10.9186
▁नियमहरु	-10.9187
▁उहाँबाट	-10.919
उनीहरू	-10.9192
▁पर्यटकहरु	-10.9193
▁हालका	-10.9194
रुपले	-10.9198
▁असुरक्षित	-10.9201
▁क्ल	-10.9201
▁जम्मै	-10.9201
▁म्याट्रिक्स	-10.9201
▁रासायनिक	-10.9201
▁शोषण	-10.9201
▁संभावना	-10.9201
▁घाँस	-10.9201
▁टेक्नोलोजी	-10.9201
▁प्रोक्सी	-10.9201
▁अभिलेख	-10.9201
▁फार्म	-10.9201
▁चालीस	-10.9201
▁वर्षे	-10.9202
▁२०४७	-10.9204
इस	-10.9207
वश	-10.9207
▁डक	-10.9208
▁खुलासा	-10.921
▁जान्नुहुन्छ	-10.921
ायौं	-10.9211
▁सर्त	-10.9217
▁प्रस्तावित	-10.9223
इर	-10.9228
▁चिने	-10.9234
▁स्क	-10.9235
ट्स	-10.9237
▁नोक्सान	-10.924
▁यहूदियामा	-10.924
▁पस	-10.9243
▁टिक	-10.9249
▁मान्ने	-10.925
▁सूर्यको	-10.9255
▁ब्राउज	-10.9255
▁अग्र	-10.9258
▁मर्	-10.9262
▁संविधानको	-10.9264
▁वस्तुहरु	-10.9264
▁बिरूद्ध	-10.9265
▁बहुमूल्य	-10.9265
▁स्वर्ण	-10.9265
▁उपदेश	-10.9267
▁आवद्ध	-10.9268
▁सोध्नुहोस्	-10.9268
▁आउनुभयो	-10.9272
तपाईंले	-10.9273
▁नजीक	-10.9275
िष्ट	-10.9276
बस	-10.9278
▁अवस्थाको	-10.9279
ल्याण्ड	-10.928
▁लेख्नुहोस्	-10.9282
▁नसक	-10.9284
▁भेडाहरू	-10.9293
▁डाउन	-10.9296
▁विमानस्थलमा	-10.9298
▁स्रोतको	-10.93
▁सेप्टेम्बर	-10.9302
▁क्लिप	-10.9313
▁कट	-10.9315
हल	-10.9318
टको	-10.932
ेप	-10.9323
▁यहोशूले	-10.9325
▁हामीसँगै	-10.9325
भु	-10.9327
",	-10.9328
▁जैविक	-10.9329
▁श्रीलंका	-10.9329
▁उचाई	-10.9329
▁विराटनगर	-10.9329
▁विकासकर्ता	-10.9329
▁विजेट	-10.9329
▁सेनापति	-10.9329
ष्टि	-10.9329
▁असाधारण	-10.9329
▁रक्सी	-10.933
▁आयोजित	-10.933
▁गइरहेका	-10.933
▁नगद	-10.9331
▁नीलो	-10.9332
▁राखिएका	-10.9334
▁मेमो	-10.9334
▁गतवर्ष	-10.9336
▁जान्दछौं	-10.9336
दिने	-10.9342
▁चढाउन	-10.9342
▁तथ्यहरु	-10.9343
सके	-10.9344
पश्चात्	-10.9345
ल्लो	-10.9345
▁सुरुआतमा	-10.9347
▁क्रिया	-10.935
▁पृष्ठको	-10.9353
▁हामीबीच	-10.9353
▁अन्तिममा	-10.9356
्टर	-10.9357
▁अह	-10.9359
▁पायो	-10.9362
▁ढाल	-10.9364
▁उहाँकै	-10.9365
▁भनेपछि	-10.9365
्ति	-10.9366
▁आएन	-10.9367
▁समुदायमा	-10.9368
▁बात	-10.9369
▁संसदमा	-10.9369
▁वर्षभित्र	-10.9373
▁पूर्वाधार	-10.9378
▁बोली	-10.9381
पर्	-10.9381
▁बेस	-10.9385
▁आइपुगे	-10.9391
▁निवेदन	-10.9393
▁बहुभुज	-10.9393
▁गणित	-10.9393
▁तैयार	-10.9393
▁क्यारियर	-10.9393
▁प्रोग्राम	-10.9393
▁चाहान्छौं	-10.9394
▁सिंहासन	-10.9397
▁चाहि	-10.9398
▁शिक्षकको	-10.9399
▁केश	-10.94
▁एदोम	-10.9401
जित	-10.9404
▁पाउनुपर्छ	-10.9405
▁सुत	-10.9408
केा	-10.9409
▁वास	-10.9411
▁स्वीकृति	-10.9411
▁ट्रेड	-10.9423
तीन	-10.9426
ूक	-10.9427
▁गर्दैनौं	-10.9427
▁मिडियाको	-10.9428
▁छँदै	-10.9429
गि	-10.9431
▁ओलम्पिक	-10.9432
▁कामना	-10.9433
▁जिवन	-10.9434
▁पोख	-10.9436
▁दिनभरि	-10.9438
▁बनेर	-10.9441
▁मनाउने	-10.9443
▁व्या	-10.9444
▁बाउ	-10.9444
पुर्खाहरू	-10.9449
िश	-10.945
▁रोएको	-10.9453
▁अक्सिजन	-10.9458
▁प्रसन्न	-10.9458
▁व्यायाम	-10.9458
▁मतलव	-10.9458
▁रहँदा	-10.9458
▁मासिक	-10.9458
▁मुक्तिदाता	-10.9458
▁लगाइ	-10.9458
▁खाडल	-10.9459
▁२००३	-10.9461
▁कलाकारको	-10.9462
▁कमारा	-10.9462
▁व्यापारमा	-10.9465
▁एमाले	-10.9465
▁अग	-10.9465
▁कृष्ण	-10.9466
▁गरिदिएको	-10.9466
▁सानै	-10.9468
▁रोके	-10.947
▁भन्छौ	-10.9473
▁रहँदै	-10.9475
११	-10.9476
▁दिइरहेका	-10.9477
शो	-10.9478
कर्मी	-10.9479
▁ढाक	-10.9485
▁तिमीहरूमा	-10.9487
्टन	-10.9488
▁अप्रिलमा	-10.949
▁प्रयोगकर्तालाई	-10.9492
▁फोटोहरू	-10.9501
न्डा	-10.9502
▁पछाडिको	-10.9502
▁धन्य	-10.9505
▁टिप	-10.9508
▁तन्तु	-10.951
▁कोर्स	-10.951
▁५५	-10.951
वासी	-10.9512
▁भाषाहरू	-10.9512
▁कल्याण	-10.9523
▁अनपेक्षित	-10.9523
▁अनुमोदन	-10.9523
▁सामूहिक	-10.9523
▁सिंगापुर	-10.9523
▁हिम्मत	-10.9523
▁गल्ति	-10.9524
▁तैंले	-10.9524
▁घटनापछि	-10.9524
▁लण्डनमा	-10.9525
स्ती	-10.9526
▁सर्	-10.9532
▁विधिहरू	-10.9535
▁महिनाअघि	-10.9535
▁अप्ट	-10.9535
▁अगमवक्ताहरूले	-10.9535
▁हराउन	-10.9538
मुखी	-10.9546
िग	-10.9546
▁सदस्यले	-10.9549
▁खोला	-10.9552
▁टाँस	-10.9552
रोन	-10.9558
▁पहाडमा	-10.9558
ढोका	-10.9563
▁यसैमा	-10.9565
सम	-10.9566
▁जहाजमा	-10.9569
▁कोहि	-10.9572
▁कैदी	-10.9573
▁सक्छः	-10.9575
▁तपाईंहरूले	-10.9576
▁कक्षमा	-10.958
▁लेखा	-10.9583
▁शानदार	-10.9589
▁सिंचाई	-10.9589
▁बोनस	-10.9589
▁निन्दा	-10.9589
▁गुनासो	-10.9589
▁नपुग	-10.9589
▁विद्यार्थीको	-10.9589
▁गिम्प	-10.959
▁फिचर	-10.9591
ीहरूले	-10.9591
▁मोदी	-10.9591
▁दुइजना	-10.9593
▁ग्राहकहरूको	-10.9594
▁अर्थतन्त्रको	-10.9595
▁लगायत	-10.9596
आफ्नै	-10.9603
▁पुलिसलाई	-10.9604
▁बालबालिकाहरू	-10.9609
▁बस्छ	-10.9622
कले	-10.9625
▁अनिश्चित	-10.9628
▁वर्षौं	-10.963
▁निकाल्ने	-10.9632
ंच	-10.9634
▁आफन्तहरू	-10.9635
▁१९९	-10.964
ीलाई	-10.9645
ालय	-10.9645
▁धो	-10.9651
▁डाइ	-10.9653
▁कत्ति	-10.9653
▁सुविधाहरु	-10.9654
▁वित	-10.9654
▁स्क्रोल	-10.9655
▁कमसेकम	-10.9655
▁कम्युनिष्ट	-10.9655
▁चेष्टा	-10.9655
▁तस्बिर	-10.9655
▁बंगलादेश	-10.9655
▁सञ्चालक	-10.9655
▁थकित	-10.9655
▁मेशिन	-10.9656
▁विलम्ब	-10.9656
▁पतन	-10.9656
▁झुण्ड	-10.9656
▁जिल्लाका	-10.9656
▁ब्यक्ति	-10.9658
▁सकिरहेको	-10.9661
ाईएको	-10.9663
्ता	-10.9665
▁सक्दिनँ	-10.9668
▁सोचाइ	-10.9669
▁तट	-10.9669
▁आशावादी	-10.9672
▁अनुभवी	-10.9674
प्राप्त	-10.9683
▁अर्ध	-10.9686
ाला	-10.9689
▁पठाएका	-10.969
▁खोजि	-10.9692
▁चुन	-10.9694
▁नर	-10.9694
▁निकालिएको	-10.9695
▁पुकार	-10.9699
▁लाग्छन्	-10.9707
विना	-10.9711
▁ल्याउँछ	-10.9713
ँदैन	-10.9714
म्यान	-10.9716
▁राख्दछ	-10.9721
▁अधिवेशन	-10.9722
▁परमाणु	-10.9722
▁अपहरण	-10.9722
▁राणा	-10.9722
▁कास	-10.9723
्थ्यौं	-10.9724
▁बनाऊ	-10.9726
▁बन्दी	-10.9727
▁ओभर	-10.9727
▁मनपर्छ	-10.9727
कालीन	-10.9729
तपाई	-10.9731
▁यहूदीहरूको	-10.9732
▁बताइन्छ	-10.9733
▁दुनियाँमा	-10.9735
▁नाउँको	-10.9736
▁पहाडहरू	-10.9737
नुभयो	-10.9737
▁यहीं	-10.9737
▁तपाइ	-10.974
्दैछ	-10.9741
परि	-10.9742
▁नामक	-10.9743
▁घो	-10.9743
▁उति	-10.9743
▁मास्टर	-10.975
झैँ	-10.9751
▁फेर्न	-10.9753
▁सीट	-10.9754
▁शत्रुलाई	-10.9755
▁मानिसमा	-10.9756
▁सामानहरू	-10.9765
▁डलरमा	-10.9771
▁प्रयोगशाला	-10.9771
▁शेल	-10.9772
▁किल्ला	-10.9772
▁तपाईंहरुको	-10.9775
▁हराए	-10.9775
▁रसायन	-10.9776
▁होऊ	-10.9781
यक	-10.9783
▁थाल्छ	-10.9784
▁पार्टीले	-10.9788
▁कृपा	-10.9789
▁अपडेट	-10.9789
▁सामुदायिक	-10.9789
▁भाग्यमानी	-10.9789
▁शुक्रवार	-10.9789
▁आरम्भ	-10.979
▁योआश	-10.979
▁अपरिचित	-10.979
▁सिकाए	-10.9792
▁वै	-10.9795
▁हृदयको	-10.9795
बोध	-10.9796
▁नगर्नु	-10.9797
▁था	-10.9797
केट	-10.9797
▁नोड	-10.9799
▁पाएनन्	-10.9801
▁आनन्दित	-10.9804
ेन्द्र	-10.9806
ओस्	-10.9807
अनुरुप	-10.9808
घाट	-10.9809
सेवा	-10.9814
▁कलेजको	-10.9815
▁समाजका	-10.9816
▁बिताउने	-10.9821
▁मार्	-10.9822
▁तला	-10.9823
▁शताब्दी	-10.983
▁खाँदै	-10.983
▁बेरोजगार	-10.9834
▁अगस्ट	-10.9834
▁३९	-10.9836
▁ताप	-10.984
▁लियो	-10.984
▁भोग्नु	-10.9841
▁अवसरको	-10.9846
खेल	-10.9846
▁तै	-10.9852
▁अंग्रेजीमा	-10.9854
ाहरू	-10.9854
▁नारा	-10.9855
▁नीतिको	-10.9855
▁गैरसरकारी	-10.9857
▁प्रकृया	-10.9857
▁बाँण	-10.9857
▁भेट्नु	-10.9858
र्ने	-10.9858
▁२०४६	-10.9859
▁मुल्य	-10.9859
▁यदी	-10.9859
▁हतार	-10.986
▁पाटो	-10.986
▁उल्टो	-10.986
▁वरिपरिका	-10.9863
▁देख्नुहुन्छ	-10.9868
▁बदला	-10.9869
▁जेलबाट	-10.987
▁महिनासम्म	-10.9872
▁लिनुपर्छ	-10.9876
ग्रा	-10.9876
▁मानवता	-10.9878
▁लड्ने	-10.9879
▁सबैकुरा	-10.9882
▁गराउँछ	-10.9883
दिनु	-10.9885
▁पथ	-10.9886
ाधिकार	-10.9886
▁साइटको	-10.989
▁मेयर	-10.9894
▁बिताएका	-10.9894
▁समुद्री	-10.9896
▁सक्नेछ	-10.9896
यत	-10.9911
▁जङ्गल	-10.9914
▁तोड	-10.9918
▁तुल्याउन	-10.9922
▁लाश	-10.9925
▁उदेश्य	-10.9925
▁डाँडा	-10.9925
▁मुसलमान	-10.9925
▁लोग्ने	-10.9925
▁गिलाद	-10.9925
▁सर्वप्रथम	-10.9925
▁जातिहरू	-10.9925
▁तालीम	-10.9925
▁पुनप्राप्त	-10.9926
४१	-10.9927
▁गाइड	-10.9928
▁लगेर	-10.9928
▁कत्तिको	-10.9931
▁त्यसमाथि	-10.9931
▁घरपरिवार	-10.9932
▁वातावरणीय	-10.9932
▁विषयको	-10.9933
▁गर्नुपर्यो	-10.9934
वर्ग	-10.9935
▁प्रतिशतको	-10.9935
▁मिल्छ	-10.9936
▁नहोस्	-10.9937
▁भन्नुहोस्	-10.9942
▁खेलहरु	-10.9944
यस्तो	-10.9945
▁नेट	-10.9945
▁सोधेको	-10.9949
▁नजरमा	-10.995
हिन	-10.995
ाहा	-10.9952
▁देवताहरूको	-10.9953
▁तोक	-10.9957
▁पाई	-10.9957
▁जंगल	-10.9958
्यौँ	-10.996
▁दाख	-10.9965
▁अनुप्रयोगको	-10.9965
▁आउनेछन्	-10.9967
▁देशहरुमा	-10.9977
▁फिल्मलाई	-10.9982
ाउनुभयो	-10.9984
▁शासकहरू	-10.9986
▁थम्बनेल	-10.9993
▁आयोजक	-10.9993
▁चाँडो	-10.9993
▁खम्बा	-10.9994
तालाई	-10.9996
▁२०४८	-10.9996
रहे	-10.9997
▁मनश्शे	-10.9998
▁स्वर्गदूतले	-11.0001
▁लडाईं	-11.0002
▁सुन्यौं	-11.0004
सक्ने	-11.0006
▁चित्त	-11.0009
रात	-11.001
▁खान्छ	-11.0017
▁गर्नुहुन्थ्यो	-11.0018
▁साथीलाई	-11.0019
▁रङहरू	-11.002
▁बेल	-11.0024
▁सर्भरले	-11.0026
▁प्रक्रियाको	-11.0034
▁गीतहरु	-11.0037
▁स्वयंलाई	-11.0042
तल	-11.0042
▁विश्वासी	-11.0046
▁रोजगारीको	-11.0046
४५	-11.0048
▁परेर	-11.0051
▁यसभन्दा	-11.0053
ल्फ	-11.0054
▁यहूदाको	-11.0058
▁अरुले	-11.0059
▁किनार	-11.006
▁दशकको	-11.0061
▁प्रदेशमा	-11.0061
▁इमान्दार	-11.0062
▁शैतान	-11.0062
▁रिसाइज	-11.0063
▁दी	-11.0065
पल्ट	-11.0066
▁२००२	-11.0067
▁गयौं	-11.0067
▁लाग्नेछ	-11.0067
▁चित्रण	-11.0075
▁झिक	-11.0088
▁गर्	-11.0095
▁संस्करणमा	-11.0098
▁बाबुलाई	-11.0104
ाइयो	-11.0112
▁दुवैका	-11.0114
▁फ्यान	-11.0117
▁अँ	-11.0118
वस्था	-11.0119
▁मागे	-11.0123
सुन	-11.0123
देव	-11.0123
▁रोड	-11.0125
▁दुरुपयोग	-11.0132
▁महोत्सव	-11.0132
▁रोकथाम	-11.0132
▁गवाही	-11.0132
▁धक्का	-11.0132
▁वेश्या	-11.0132
▁आइमाई	-11.0132
▁धितोपत्र	-11.0132
▁ट्रेलर	-11.0132
▁चिन्छु	-11.0133
▁मानचित्रमा	-11.0134
ुपरेको	-11.0136
▁बढाउनुहोस्	-11.0137
▁पार्दै	-11.0137
ोत	-11.0138
▁प्रशासनिक	-11.0139
▁हुँदो	-11.0141
▁उद्देश्यको	-11.0142
▁गाए	-11.0147
▁दिनहरुमा	-11.0148
▁राष्ट्रपतिको	-11.0149
▁देखिरहेका	-11.015
ल्ट	-11.015
,000	-11.0152
▁प्रसंग	-11.0155
▁जोड्न	-11.0157
▁झर	-11.0159
▁टाइम	-11.0165
▁दृश्यमा	-11.0166
▁कोर्न	-11.0168
ेश्वर	-11.0171
▁संसारभरि	-11.0177
▁पप	-11.0177
▁जानेछन्	-11.0177
▁उत्सुक	-11.0178
▁परमप्रभुबाट	-11.0179
हत	-11.0182
▁बाँड	-11.0182
मण्डल	-11.0184
▁दुर्	-11.0191
▁रसिया	-11.0192
▁पेरिसमा	-11.0198
▁परिस्थितिमा	-11.0198
३२	-11.02
▁हाँस	-11.0201
▁विद्यार्थीलाई	-11.0201
▁उदास	-11.0201
▁स्या	-11.0202
▁वैवाहिक	-11.0202
▁ब्रिटेन	-11.0202
▁मरियम	-11.0202
▁फौज	-11.0202
▁आवरण	-11.0202
▁संस्थापक	-11.0202
▁सराप	-11.0203
▁जसमध्ये	-11.0204
▁पावर	-11.0204
▁बडो	-11.0206
▁औषधिको	-11.0208
▁खातिर	-11.0209
▁फरिसीहरू	-11.0209
▁केन्द्रको	-11.0211
▁अनेकौं	-11.0212
▁तपाईंहरुलाई	-11.0214
▁पुर्याए	-11.0219
▁स्ट्र	-11.0222
▁खेलाडीले	-11.0224
▁चीनका	-11.0225
भव	-11.0226
▁कथाको	-11.0227
▁पाइप	-11.0228
्याइ	-11.023
▁हटाइ	-11.023
▁लाम	-11.0231
नयाँ	-11.0244
▁पदक	-11.0244
१८	-11.0247
▁जीवनभर	-11.0254
▁थुमा	-11.0256
▁निर्णयको	-11.0257
▁लिइन्छ	-11.0258
▁विल	-11.026
▁ब्लगमा	-11.0261
▁सतर्क	-11.0265
न्च	-11.0266
िता	-11.0267
▁फिल्मबाट	-11.0269
▁मभन्दा	-11.0269
अन	-11.0271
▁नबन	-11.0271
▁अभिबृद्धि	-11.0272
▁खाँचो	-11.0272
▁पपअप	-11.0272
▁उम्र	-11.0273
▁तुलनात्मक	-11.0273
▁टापु	-11.0273
▁बाबुआमा	-11.0274
▁समझ	-11.0276
्ख	-11.0277
▁जन्मिए	-11.0278
▁तत्त्व	-11.0279
लेट	-11.0281
▁बस्नुहुन्छ	-11.0283
वेल	-11.0289
सर्वदा	-11.0294
आफ्ना	-11.0294
▁सयौं	-11.0299
▁त्यसबारे	-11.0301
▁सिकाइ	-11.0305
रियो	-11.0307
▁रुसको	-11.0307
▁सावधानी	-11.0307
▁अना	-11.0308
▁तरकारी	-11.0309
▁गरीएको	-11.0311
▁मिडियाले	-11.0311
▁संसारकै	-11.0314
▁फर	-11.0317
▁बनाएँ	-11.0317
पक्ष	-11.0318
िनँ	-11.0323
▁मरूभूमि	-11.0323
▁चाहँदैन	-11.0337
▁अध्ययनको	-11.0337
▁ल्याएका	-11.034
▁स्मार्ट	-11.0343
▁सिक्किम	-11.0343
▁प्रचलन	-11.0343
▁निष्पक्ष	-11.0343
▁अभिवृद्धि	-11.0343
▁घनत्व	-11.0343
▁धर्मशास्त्र	-11.0344
▁विक्री	-11.0344
▁संस्थाहरूलाई	-11.0347
▁मनपर्ने	-11.0349
▁शत्रुहरूले	-11.035
▁कामबाट	-11.035
▁आइपुगेको	-11.0355
सन्	-11.0356
▁चलचित्रले	-11.0363
▁लेखकहरू	-11.0363
▁नहर	-11.0367
▁कोल	-11.0368
होइन	-11.0369
▁जमीनमा	-11.0371
▁विश्वासको	-11.0374
▁उल्लेखित	-11.0375
▁धर्मको	-11.0379
▁हान	-11.0381
▁शुरुदेखि	-11.0385
ट्या	-11.0385
▁टेक	-11.0386
▁जाग	-11.0388
ज्यू	-11.0389
▁टिप्पणीहरू	-11.0389
▁क्लिपबोर्ड	-11.0395
▁स्तरीय	-11.0395
▁पाँचौ	-11.0396
▁रुसी	-11.0397
्वे	-11.0398
▁स्वर्गदूतहरू	-11.0404
▁गर्नेतर्फ	-11.0412
▁कन्क्वेरर	-11.0414
▁कम्युनिस्ट	-11.0414
▁ध्वस्त	-11.0414
▁परिवर्तित	-11.0414
▁दानियल	-11.0415
▁उत्पादकत्व	-11.0415
▁कुशल	-11.0415
▁जुत्ता	-11.0415
▁दीर्घ	-11.0415
▁अलिकति	-11.0416
▁प्रदर्शनी	-11.0417
▁बोसो	-11.0417
▁बोकेर	-11.0421
▁समूहबाट	-11.0421
ूम	-11.0423
▁नभन	-11.0429
▁सहरको	-11.0434
▁उठाए	-11.0435
▁धर	-11.0442
▁पुत्रलाई	-11.0442
▁घटनाहरु	-11.0447
▁गर्नुभएन	-11.0447
ः६	-11.0448
▁भागेर	-11.0449
सीको	-11.0451
िब	-11.0452
न्द्र	-11.0453
▁सत्यको	-11.0456
▁बाकसमा	-11.0456
▁वयस्क	-11.0456
▁झु	-11.046
▁चल्छ	-11.0464
▁खोजेका	-11.0466
▁कागजातको	-11.0469
▁दिन्छौं	-11.0469
नर	-11.0471
▁जन्मे	-11.0482
▁पुगेर	-11.0485
▁तिमीहरुको	-11.0485
▁पासफ्रेज	-11.0486
▁यिनीहरूले	-11.0486
▁सम्भार	-11.0487
▁सोसल	-11.049
▁लिइ	-11.0497
▁यूसुफका	-11.0503
▁उदाहरणहरू	-11.0503
▁विकल्पले	-11.0506
तम	-11.0506
▁नियुक्ति	-11.0509
▁छोप	-11.0509
तिम्रो	-11.051
शक	-11.051
▁पलिश्तीहरू	-11.0515
फू	-11.0519
र्प	-11.0521
▁बितेका	-11.0522
▁नजिकैको	-11.0523
पना	-11.0524
▁भाइरसको	-11.0525
▁क्षेत्रहरु	-11.0527
्लो	-11.0528
▁अधिकारीहरु	-11.053
▁सुर	-11.0539
उँ	-11.0539
▁अर	-11.054
▁गार्ड	-11.054
▁गहन	-11.054
उन्	-11.0543
उनीहरु	-11.0552
▁नाक	-11.0557
▁विकेन्द्रीकरण	-11.0559
▁दौरान	-11.0559
▁साँढे	-11.0559
▁हिन्दु	-11.0559
▁सोशल	-11.0559
▁भक्तपुर	-11.0559
▁धूलो	-11.056
▁सामरिया	-11.056
▁कहिलेकाहीं	-11.056
▁रूचि	-11.056
▁बताउने	-11.056
▁ऊर्जाको	-11.0562
▁ठाँउमा	-11.0565
▁आदिवासी	-11.0565
▁घरभित्र	-11.057
▁खेलबाट	-11.0571
परिवार	-11.0576
▁पर्दामा	-11.0576
▁किशोरी	-11.0586
ेद	-11.0587
▁अधि	-11.0591
▁होस	-11.0595
बेर	-11.0596
▁भ्रमणमा	-11.0599
▁घेरा	-11.06
▁बेत	-11.06
▁विधान	-11.06
▁हामीमध्ये	-11.0601
▁धा	-11.0604
४८	-11.0604
▁एका	-11.0607
▁संस्थाले	-11.0607
▁हल्ल	-11.0607
लाम	-11.061
ड्	-11.0611
दैछ	-11.0612
▁ग्रा	-11.0614
ीहरूलाई	-11.0615
्दैनन्	-11.0624
▁मामलामा	-11.0629
▁जनाएका	-11.063
▁न्यूयोर्क	-11.0632
▁पछाडी	-11.0632
▁मूल्यांकन	-11.0632
▁यहोशापात	-11.0632
▁शुभकामना	-11.0632
▁इकाई	-11.0632
▁मेसिन	-11.0633
▁अद्वितीय	-11.0633
▁स्टाफ	-11.0633
▁हराइरहेको	-11.0633
▁अब्शालोम	-11.0635
▁हिरो	-11.0636
ीहरूको	-11.0636
▁प्रथा	-11.0637
▁कार्यक्षेत्र	-11.064
▁चो	-11.064
▁राज्यका	-11.0641
▁ओठ	-11.0641
एच	-11.0645
▁अस्तित्वमा	-11.0648
▁तालिकामा	-11.0649
▁वक्र	-11.065
▁बनाउनुपर्छ	-11.0654
िस्	-11.0658
▁झ्याल	-11.0659
▁सानी	-11.0659
ोक	-11.066
▁सुविधाको	-11.0662
▁१९०	-11.0663
▁इस्राएलमा	-11.0665
▁दिएन	-11.0665
▁स्पेनमा	-11.0669
▁तत्कालै	-11.0669
▁कस्	-11.0669
▁फिड	-11.0672
▁तेलको	-11.0673
▁स्तम्भको	-11.0674
▁अनुमानित	-11.0676
▁उनीहरूबीच	-11.0679
▁बेच्ने	-11.068
▁१९५	-11.0681
▁गतिविधिहरू	-11.0686
▁कुनामा	-11.0686
▁म्याक	-11.0692
▁००	-11.0693
मत	-11.0693
कुमार	-11.0693
▁गर्नुपरेको	-11.0694
▁खेलिरहेको	-11.0696
ाग	-11.0697
▁गरीबी	-11.0704
▁गाउँले	-11.0704
▁बोक	-11.0705
▁निस्क्रिय	-11.0705
▁कैयौं	-11.0706
▁रोए	-11.0707
▁बिवाह	-11.0707
▁मूलतः	-11.0707
▁अन्धा	-11.0708
▁इस्लाम	-11.071
▁चुनौतीपूर्ण	-11.0711
▁हैरान	-11.0713
▁मार्चमा	-11.0713
▁फ्र	-11.0713
▁बचाए	-11.0722
▁तिमीसित	-11.0725
▁नगरे	-11.0728
ग्रस्त	-11.073
▁तपाईहरुको	-11.0731
▁शताब्दीमा	-11.0731
▁प्रहरीका	-11.0733
▁उठेर	-11.0735
६०	-11.0736
▁चै	-11.0741
▁पाउनेछौ	-11.0741
▁निवास	-11.0742
▁मोर	-11.0743
गान	-11.0744
सम्	-11.0748
▁चोक	-11.0759
तपाईँ	-11.0759
▁गरिएमा	-11.0763
▁शत्रुहरूलाई	-11.0764
▁ग्राहकको	-11.0764
▁वर्गको	-11.0767
▁निकास	-11.0769
▁लक्षणहरू	-11.0769
स्टा	-11.0769
▁तु	-11.0771
वर्	-11.0773
▁चलाउनु	-11.0774
▁जगत	-11.0775
▁हिज्जे	-11.0779
▁ह्रास	-11.0779
▁चिन्तन	-11.0779
▁एकजुट	-11.0779
▁जनसङ्ख्या	-11.078
▁प्यारो	-11.0783
▁बुक	-11.0785
्याई	-11.0786
▁मौसममा	-11.0787
▁सुनाइएको	-11.0791
▁पूर्णरुपमा	-11.0792
▁रही	-11.0795
▁कम्प्युटरको	-11.0796
▁उभ	-11.0797
▁बैंकहरू	-11.0799
सिया	-11.0802
▁आयोगले	-11.0804
बहादुर	-11.0805
▁इन्टरनेटको	-11.0807
्ली	-11.0807
▁४२	-11.0808
▁पुरुषहरु	-11.0813
▁बिर	-11.0817
यान	-11.082
ण्डा	-11.0821
फरक	-11.0821
▁पालको	-11.0822
▁उमेरमै	-11.0827
▁छुट्ट	-11.0828
▁सेवाहरु	-11.0831
र्ण	-11.0834
▁आत्माको	-11.0835
ाङ्क	-11.0835
▁डु	-11.0837
र्फ	-11.0839
▁परम	-11.0842
ां	-11.0843
▁भएदेखि	-11.0845
ाङ	-11.0845
▁धोका	-11.085
▁आकाशमा	-11.085
▁अनावश्यक	-11.0854
▁ग्यारेन्टी	-11.0854
▁दिउँसो	-11.0854
▁पोर्चुगल	-11.0854
▁सिँचाइ	-11.0854
▁तत्पर	-11.0854
▁गाँउ	-11.0854
▁अस्वस्थ	-11.0854
▁परिमिति	-11.0854
▁शिमोन	-11.0855
▁छोराहरूलाई	-11.0855
▁चिन्नु	-11.0857
▁गरिसकेकी	-11.0858
्टि	-11.0859
▁देख्नुहुनेछ	-11.0862
▁पार्नेछ	-11.0862
▁भनिरहेको	-11.0866
▁पाउँछन्	-11.0868
▁गालील	-11.0869
▁क्रियाशील	-11.087
▁स्पेस	-11.0871
▁रेखाको	-11.0874
▁अपनाउन	-11.0875
▁सरे	-11.0875
चित्र	-11.0877
▁कथामा	-11.0877
टाउन	-11.0879
▁थि	-11.0882
▁छविलाई	-11.0882
क्रो	-11.0884
जनक	-11.0884
भार	-11.0886
▁चर	-11.0887
▁मुल	-11.0888
▁जनवरीमा	-11.089
▁भाग्ने	-11.0891
▁दाग	-11.0891
▁उठ्ने	-11.0899
▁दिइरहेको	-11.0901
ाओ	-11.0906
▁म्यान	-11.0916
कर्ताहरू	-11.0917
▁भित्ता	-11.0918
ोज	-11.0923
▁डाक्टरको	-11.0923
▁हुदा	-11.0928
▁कामदारहरू	-11.0929
▁अनुशासन	-11.0929
▁गान्धी	-11.0929
▁त्रिभुवन	-11.0929
▁मदिरा	-11.0929
▁पुगिसकेको	-11.093
▁च्याउ	-11.0931
▁दरबार	-11.0931
▁गोरू	-11.0932
▁रुख	-11.0932
▁यूसुफले	-11.0932
▁मान्य	-11.0934
▁स्केल	-11.0937
▁अगाडिको	-11.0939
बढ	-11.0941
▁पाकिस्तानले	-11.0942
▁चेला	-11.0944
▁लाज	-11.0947
▁समुदायका	-11.0948
▁सुरक्षाका	-11.0953
▁मार्नु	-11.0955
▁किसानहरू	-11.0955
▁अभावमा	-11.0956
▁हेड	-11.0956
रिस	-11.0957
▁विषयहरू	-11.0963
▁इलाकामा	-11.0963
▁नत्र	-11.0968
▁पहाडको	-11.0972
▁शैलीमा	-11.0974
▁जहाँबाट	-11.0975
▁..	-11.0982
▁आदेशहरू	-11.0983
▁सेन्टर	-11.0986
ाइड	-11.0994
▁बैंकहरु	-11.0995
▁जोड्ने	-11.0995
रेन	-11.0997
▁स्त्रीलाई	-11.1003
▁पर्यावरण	-11.1004
▁बधाई	-11.1005
▁सुदूर	-11.1005
▁स्तुति	-11.1005
▁तुरही	-11.1005
▁ल्याऊ	-11.1005
▁ढाँचाबद्ध	-11.1007
▁बितेको	-11.1007
▁विवेक	-11.1007
▁ठूलै	-11.1009
▁मुख्यतः	-11.1009
▁देख्यो	-11.1011
▁राख्नुहुन्छ	-11.1017
▁हिरासतमा	-11.1019
▁स्रोतहरू	-11.1021
▁साथीहरुलाई	-11.1023
▁वर्षकै	-11.1024
▁सम्झिन	-11.1031
▁वर्षाको	-11.1033
▁भोग्न	-11.1036
▁जुवा	-11.1036
▁लगिनेछ	-11.1036
▁ठिकै	-11.1037
▁किम	-11.1038
▁पाउँदैन	-11.1039
▁उन्नति	-11.1039
▁नीतिहरु	-11.104
ीर	-11.104
▁अफ्रिकामा	-11.1042
्चर	-11.1047
ाइन्	-11.1051
हाँ	-11.1053
▁हालतमा	-11.1056
८०	-11.1057
▁गुम	-11.1057
▁चढाउनु	-11.106
▁पार्दैन	-11.1066
ूँ	-11.1067
▁त्यहा	-11.1071
▁बढे	-11.1072
▁सम्झन	-11.1075
▁बालकको	-11.1075
छोरी	-11.1078
▁बढाउँछ	-11.108
▁आक्रमणमा	-11.108
▁ग्रेडियन्ट	-11.1081
▁माओवादी	-11.1081
▁अग्रसर	-11.1082
▁टिभी	-11.1082
वद्ध	-11.1083
▁झरेको	-11.1083
▁उपनाम	-11.1083
▁भ्रमणको	-11.1084
▁रहेकी	-11.1084
दायी	-11.1085
▁राख्यो	-11.109
▁इस्राएलीहरूलाई	-11.109
▁हुनत	-11.1091
▁ग्रे	-11.1093
▁प्रतिदिन	-11.1096
▁उपायहरू	-11.11
▁बनाउँछन्	-11.1102
▁आदिको	-11.1104
बाद	-11.1104
मानिस	-11.1105
▁क्रे	-11.1106
▁नजिकका	-11.1107
▁स्वतन्त्रताको	-11.111
भल	-11.1111
▁गुमाएको	-11.1112
▁रोजे	-11.1117
▁एच	-11.1122
नाले	-11.1124
वारी	-11.1126
▁क्ष	-11.1128
▁चामल	-11.1134
▁रगतको	-11.1135
▁जोगाउन	-11.1138
ेस्ट	-11.1141
▁सिय	-11.1143
▁उत्पादनहरु	-11.1147
▁हेरिरहेको	-11.1156
▁राखि	-11.1156
दिएको	-11.1157
▁गिदोन	-11.1158
▁ढुवानी	-11.1158
▁प्लास्टिक	-11.1158
▁आँगन	-11.1159
▁म्यानमार	-11.1159
▁गुफा	-11.116
▁जाडो	-11.116
▁बुबाआमा	-11.1161
▁व्यवसायिक	-11.1164
▁रुमा	-11.1165
▁पक्र	-11.1168
▁विज्ञानको	-11.1169
▁फिल्मका	-11.117
▁नसक्नु	-11.1172
▁पाइयो	-11.1172
▁जानुपर्छ	-11.1177
ओटा	-11.1179
▁योआब	-11.1182
▁क्व	-11.1183
समूह	-11.1185
▁हेरेका	-11.1185
▁बालबालिकालाई	-11.119
▁उद्यम	-11.119
▁२०५	-11.1194
▁तपाईंहरूलाई	-11.1203
▁नियमको	-11.1209
कर्म	-11.1212
▁देखी	-11.1215
इँ	-11.1219
निर्देश	-11.1221
▁डाय	-11.1221
▁हिट	-11.1222
▁कानमा	-11.1224
▁रूस	-11.1225
▁भूमिको	-11.1225
ान्तर	-11.1225
▁पर्वतहरू	-11.1234
▁स्थानहरूमा	-11.1234
▁यारोबाम	-11.1236
▁क्यानाडा	-11.1236
▁जिज्ञासा	-11.1236
▁रिलीज	-11.1236
▁हर्मोन	-11.1236
▁आइडिया	-11.1236
▁व्यर्थ	-11.1237
ुत	-11.1238
▁मिश्रदेश	-11.1238
▁चाहान्छु	-11.1239
▁बृद्धिदर	-11.1239
▁ल्याई	-11.124
रिन	-11.1241
▁सकियो	-11.1241
▁पर्छन्	-11.1242
▁तलका	-11.1243
▁बाख्रा	-11.1244
▁नीतिगत	-11.1247
▁भिडियोहरू	-11.1248
▁परिरहेको	-11.1248
▁त्यसबेलादेखि	-11.1248
▁शिशुको	-11.125
खे	-11.1251
▁पुगेकी	-11.1251
▁पतिको	-11.1251
▁हिजकियाह	-11.126
▁लेखिरहेको	-11.126
▁सिलसिलामा	-11.1261
▁दर्श	-11.1262
▁भन्थे	-11.1262
▁कठिनाई	-11.1263
▁समस्यामा	-11.1272
▁पर्दाको	-11.1274
▁हिमाल	-11.1277
▁ऊसँग	-11.1285
▁कागजातमा	-11.129
▁स्वयम्	-11.1292
▁तुल्य	-11.1293
▁श्रीमतीको	-11.1297
बन्ध	-11.1299
▁डेस्कटपमा	-11.1304
परमप्रभुले	-11.131
▁४७	-11.1311
३७	-11.1311
▁किरण	-11.1311
▁एनिमेसन	-11.1314
▁कम्प्यूटर	-11.1314
▁मानाङ्कन	-11.1314
▁शल्यक्रिया	-11.1314
▁चिठी	-11.1315
▁शताब्दीको	-11.1318
▁लेख्छु	-11.132
▁तरिकाबाट	-11.132
▁पावलले	-11.1321
▁उहां	-11.1321
▁वित्त	-11.1323
▁प्रेमिका	-11.1325
ून्	-11.1327
▁लाग्दछ	-11.1327
ूत	-11.1329
ाली	-11.133
▁कमाइ	-11.1331
▁सुरुवाती	-11.1331
▁भावी	-11.1333
▁बुझ्दै	-11.1337
▁अमेरिकाका	-11.1342
▁अर्कोतर्फ	-11.1343
▁डिस्कमा	-11.1343
▁य्	-11.1344
▁घोडाहरू	-11.1344
▁सेनाका	-11.1344
▁चलाएको	-11.1345
▁पाइन्छन्	-11.1347
भारत	-11.1349
▁आफुले	-11.1352
पक	-11.1354
▁साथीहरूको	-11.1355
▁बाटा	-11.1357
▁कार्यले	-11.136
क्टर	-11.1363
▁४३	-11.1365
▁अर्थतन्त्रमा	-11.1367
▁दैनिकी	-11.137
▁दूत	-11.137
▁ख्रीष्टमा	-11.137
ल्न	-11.1372
राको	-11.1372
▁विशेषताहरू	-11.1378
ताले	-11.1379
▁अस्पष्ट	-11.1384
▁हुनसक्छन्	-11.1387
▁गुमाउन	-11.1388
▁ठ्याक्कै	-11.1393
▁फागुन	-11.1393
▁ट्याक्सी	-11.1393
▁सङ्क्रमण	-11.1393
▁आदम	-11.1393
▁शेष	-11.1395
▁त्यसैगरी	-11.1395
▁ट्विटर	-11.1397
▁७२	-11.1402
▁मूल्यवान	-11.1402
▁पाउनेछ	-11.1403
▁सुन्नुभयो	-11.1406
▁ब्याज	-11.1406
रोग	-11.1416
्यै	-11.1416
▁दिइन	-11.1431
▁घट्ने	-11.1431
िना	-11.1432
▁लिख	-11.1433
ाएकी	-11.1437
▁सभामा	-11.1439
▁छोए	-11.1443
▁मोल	-11.1445
▁पोल	-11.1446
▁स्वदेश	-11.1446
▁उनीहरूसँगै	-11.1446
▁माल	-11.1458
▁हिँडे	-11.1459
त्या	-11.1465
▁भिड	-11.1466
▁आत्महत्याको	-11.1469
ारो	-11.147
▁केबल	-11.1471
▁अवरुद्ध	-11.1472
▁दुश्मन	-11.1472
▁बालबच्चा	-11.1472
▁शनिवार	-11.1472
▁स्नातक	-11.1472
▁टोकियो	-11.1472
▁सञ्झ्याललाई	-11.1472
▁क्लिनिक	-11.1472
▁सशक्त	-11.1473
▁असामान्य	-11.1473
▁घुमाउनुहोस्	-11.1473
▁संगठित	-11.1473
▁स्टेसन	-11.1473
▁संसदीय	-11.1475
▁४६	-11.1476
▁शरण	-11.1478
▁पक्रन	-11.1479
्नेछु	-11.1479
▁हाने	-11.148
▁कार्यस्थान	-11.1485
▁सेकेण्ड	-11.1485
▁पाएर	-11.1486
्थी	-11.1488
▁युगको	-11.1489
याउन	-11.149
विहीन	-11.1491
▁सम्बन्धको	-11.1492
▁भ्रष्टाचार	-11.1493
▁बनिन्	-11.1493
▁साहसी	-11.1495
▁टर्	-11.1496
▁चुनिएका	-11.1497
▁शास्त्र	-11.1498
▁एलीशा	-11.1499
▁पाएपछि	-11.1501
बीचमा	-11.1503
▁छुट्याउन	-11.1504
त्यहाँ	-11.1504
▁गुणहरू	-11.1506
▁प्रयोजनका	-11.1506
सभा	-11.1507
मह	-11.1507
▁टिमको	-11.1509
▁त्यसैको	-11.1512
▁खतरामा	-11.1515
▁थाक	-11.1515
▁प्रक्रियालाई	-11.1516
▁भनिने	-11.1521
▁ल्या	-11.1524
▁छोरीले	-11.1525
▁वर्तमानमा	-11.1526
▁भेग	-11.1527
▁ट्रम्पको	-11.1528
▁बन्छ	-11.1529
▁गर्दिन	-11.153
फ्ल	-11.1536
ेन्ड	-11.154
▁रेखाहरू	-11.1541
▁दुबई	-11.1542
७०	-11.1545
▁उत्पाद	-11.1549
िदिने	-11.1552
▁अख्तियार	-11.1552
▁आध्यात्मिक	-11.1552
▁उपर्युक्त	-11.1552
▁जलवायु	-11.1552
▁ब्याट्री	-11.1552
▁हस्तक्षेप	-11.1552
▁जुनसुकै	-11.1552
▁यकीन	-11.1552
▁सबैथोक	-11.1552
▁फोहोर	-11.1552
▁स्वयंले	-11.1553
▁विभेद	-11.1553
▁क्लास	-11.1553
▁एसिड	-11.1554
▁बफर	-11.1555
▁जलविद्युत्	-11.1555
▁वृक्ष	-11.1555
▁सरह	-11.1556
▁प्रजातन्त्रको	-11.1556
▁सोच्नुहुन्छ	-11.1558
▁चाहेनन्	-11.1559
▁पाउनुभयो	-11.1566
▁झै	-11.1567
▁तेज	-11.1568
▁मीका	-11.1571
▁२०२	-11.1572
▁आकारको	-11.1576
▁उदा	-11.1577
▁आहाब	-11.1578
▁जंगलमा	-11.1578
बाबु	-11.1581
ाङ्ग	-11.1581
पछाडि	-11.1584
▁अनुसन्धानमा	-11.1585
केन्द्र	-11.1589
▁राख्दै	-11.159
ालाई	-11.1591
्नी	-11.1601
विधि	-11.1602
▁बेन	-11.1603
रस	-11.1604
िएकी	-11.1605
भोज	-11.1607
िदेऊ	-11.1619
▁अवस्थालाई	-11.1622
▁मलेसिया	-11.1622
▁सुनाउन	-11.1629
▁याे	-11.1632
▁गणतन्त्र	-11.1633
▁हिब्रू	-11.1633
▁उद्घाटन	-11.1633
▁मधुमेह	-11.1633
▁हड्डी	-11.1633
▁यातना	-11.1633
▁मतभेद	-11.1633
▁भविष्यवाणी	-11.1633
▁फुक	-11.1633
▁मार्गदर्शन	-11.1633
▁दोहोरो	-11.1633
▁प्रजनन	-11.1636
▁ज्याला	-11.1636
▁नाघ	-11.1637
▁महिलामा	-11.1638
▁अध्ययनले	-11.1638
▁एचटीएमएल	-11.1639
▁अन्यत्र	-11.164
▁गरिरह	-11.1642
▁ट्याबमा	-11.1643
▁बाजा	-11.1644
▁मसंग	-11.1648
▁नरम	-11.1649
▁मुद्राको	-11.1651
▁एकअर्काको	-11.1654
▁प्रतिशतभन्दा	-11.1656
▁मारिए	-11.1658
▁प्रस्तुति	-11.166
▁स्थितिको	-11.1667
▁पापहरूका	-11.1669
▁चुक	-11.167
▁खाएर	-11.167
क्षेत्रमा	-11.1674
▁टिमले	-11.1676
▁साइटबाट	-11.1679
▁सामग्रीहरु	-11.1679
नियम	-11.168
▁तिनीहरूमाथि	-11.1686
▁0	-11.1686
▁सयभन्दा	-11.1691
▁कन्या	-11.1695
कोरुपमा	-11.1704
स्थिति	-11.1704
▁आफूहरु	-11.1708
▁सदस्यहरूले	-11.1713
▁क्लाइन्ट	-11.1714
▁पुँजी	-11.1714
▁वरदान	-11.1714
▁करिव	-11.1714
▁पिए	-11.1714
▁फायर	-11.1715
▁अर्थव्यवस्था	-11.1716
▁बटनले	-11.1716
▁भईरहेको	-11.1717
▁वर्षौंदेखि	-11.172
▁कारक	-11.1721
▁मिश्रित	-11.1727
▁नदिने	-11.1732
▁विवादमा	-11.1735
खण्ड	-11.1742
▁बुद्धिमान	-11.1743
▁पू	-11.1751
▁दुबैले	-11.1753
▁तपाईहरुलाई	-11.1754
केही	-11.1757
▁उनीहरूकै	-11.1766
▁सदस्यहरूको	-11.1767
▁घण्टासम्म	-11.1768
▁कार्यान्वयनमा	-11.1769
▁प्रहरीलाई	-11.1769
▁भन्छन	-11.1771
मेरी	-11.1774
▁ब्य	-11.1775
▁जीउ	-11.1783
▁संसदको	-11.1785
▁टीमको	-11.179
▁आगोमा	-11.1791
र्जन	-11.1794
▁इत्यादि	-11.1796
▁फिर्ती	-11.1796
▁मुनाफा	-11.1796
▁सोधपुछ	-11.1796
▁निस्तार	-11.1796
▁सौर्य	-11.1796
▁धरान	-11.1797
▁ग्राफ	-11.1797
इक	-11.1798
▁आलेख	-11.18
ेयर	-11.1801
▁लुकेका	-11.1801
▁२००५	-11.1801
▁गर्थिन्	-11.1801
ोद	-11.1802
निर	-11.1802
▁सिपाही	-11.1804
▁प्रकारहरू	-11.1804
▁विद्रोह	-11.1806
▁शान्तिको	-11.1809
ाइदिए	-11.1809
▁मार्केट	-11.181
▁बिन्यामीन	-11.1814
▁इन्टर	-11.1817
ढा	-11.182
ुस	-11.1827
▁वातावरणको	-11.1828
▁दुवैमा	-11.1829
▁पुरुषहरू	-11.183
ुरा	-11.1836
▁उहाँमाथि	-11.1841
▁पृष्ठभूमिमा	-11.1846
▁पछिपछि	-11.1848
सू	-11.1848
▁गुमाएका	-11.1849
▁जरा	-11.1851
▁प्रशासनले	-11.1855
▁चीनलाई	-11.1856
▁सुटिङ	-11.1859
▁सम्भाव्य	-11.1867
कासाथै	-11.187
हित	-11.1872
क्षक	-11.1874
▁तालिबान	-11.1879
▁विपत्ति	-11.1879
▁कोइला	-11.1879
▁स्ट्रोक	-11.1879
▁खन्नुहोस्	-11.1879
▁दुर्गम	-11.1879
▁छोराहरूले	-11.1879
▁१९८८	-11.1879
▁प्रभावशाली	-11.188
▁दृष्टिगत	-11.188
▁सिमा	-11.1881
▁आमाबुवा	-11.1881
तान	-11.1882
▁गराइने	-11.1882
▁म्याच	-11.1883
▁रोक्नुहोस्	-11.1884
▁उहाले	-11.1885
▁समझदारी	-11.1887
▁प्राथमिकताहरू	-11.1887
▁सातौँ	-11.1888
▁उभिएका	-11.1889
▁सजग	-11.1889
▁ग्ल	-11.189
▁नागरिकहरू	-11.189
▁चन्द्र	-11.1893
▁बढ्यो	-11.1893
▁दिनुपर्ने	-11.1895
्याए	-11.1895
▁हेक्टरमा	-11.1896
कार्ड	-11.1897
यौँ	-11.1899
थिए	-11.1902
▁खण्डको	-11.1903
▁रगतमा	-11.191
▁गर्नेहरूलाई	-11.1911
▁६५	-11.1911
कथा	-11.1912
▁समस्याहरूको	-11.1912
▁सहयोगका	-11.1913
▁उभिएको	-11.1914
प्रभु	-11.1914
▁साटोमा	-11.1914
्ह	-11.1915
▁उभिन	-11.1923
वटै	-11.193
▁सुरुवातमा	-11.1938
त्री	-11.1941
▁तथ्याङ्	-11.1943
▁आन्दोलनमा	-11.1944
▁आफूसँग	-11.1944
▁स्पेनको	-11.1946
▁डोरी	-11.1948
▁अर्कोतिर	-11.1952
▁थालेँ	-11.1954
▁उठाएको	-11.196
▁चौडा	-11.196
▁अध्यापन	-11.1962
▁अनुशरण	-11.1962
▁अन्तरिक्ष	-11.1962
▁आभारी	-11.1962
▁निशुल्क	-11.1962
▁मौद्रिक	-11.1962
▁युनाइटेड	-11.1962
▁वरिष्ठ	-11.1962
▁सान्त्वना	-11.1962
▁जनसहभागिता	-11.1962
मित	-11.1962
▁सहारा	-11.1962
▁जलस्रोत	-11.1962
▁सम्बद्ध	-11.1963
▁गायन	-11.1963
▁स्वामी	-11.1964
▁रङदानी	-11.1964
▁वर्गीकरण	-11.1965
▁किलो	-11.1965
मिन	-11.1967
▁प्रश	-11.1968
नाको	-11.197
▁चौकी	-11.197
▁गर्नुभए	-11.1971
१६	-11.1976
▁साह	-11.1984
▁इस्राएलीहरूले	-11.1987
▁संस्करणहरू	-11.199
▁वी	-11.1991
▁५१	-11.1991
▁ब्याक	-11.1991
▁खर्चमा	-11.1995
भूमि	-11.1995
▁चीनसँग	-11.1998
▁सान	-11.2001
▁विश्वलाई	-11.2002
ेग	-11.2006
▁सर्भरबाट	-11.2007
▁देखिएन	-11.2008
समक्ष	-11.2009
्मा	-11.2019
▁हर्	-11.202
▁लुगाहरू	-11.202
▁भोट	-11.2021
▁समितिमा	-11.2023
▁डोर	-11.2023
समय	-11.2025
▁निराशा	-11.2029
▁मृत्युपछि	-11.2029
७५	-11.203
▁परा	-11.2031
▁भन्नेछु	-11.2033
▁समारोह	-11.2039
▁बेंसी	-11.2039
▁विभागले	-11.2043
▁पुर्याएको	-11.2044
▁अधिकारीहरूलाई	-11.2044
बिन	-11.2045
▁अनुक्रम	-11.2045
▁ध्वंस	-11.2046
▁हाकिम	-11.2046
▁साउथ	-11.2046
▁नामाकरण	-11.2046
▁एकत्रित	-11.2046
▁बिन्ती	-11.2046
▁बताईएको	-11.2046
▁अग्रिम	-11.2046
▁अनुचित	-11.2047
▁तिनिहरू	-11.2047
▁बासिन्दा	-11.2047
▁बिरोध	-11.2047
बन्द	-11.2048
▁पूर्णतया	-11.2048
पाठ	-11.2048
▁मुख्यतया	-11.2048
▁भिडियोको	-11.205
▁सकिरहेका	-11.2051
▁तेस्रोपटक	-11.2052
▁हामीसित	-11.2053
्सको	-11.2055
▁हेरें	-11.2055
▁बाघ	-11.2057
शिल	-11.206
▁दुर्घटनाको	-11.2062
▁हजारौँ	-11.2063
▁बरी	-11.2063
▁सिल	-11.2066
▁सम्झौतामा	-11.2066
▁करोडको	-11.2069
डेन	-11.2071
▁दुःखको	-11.2072
▁विदेशीहरू	-11.2073
▁अम्मोनी	-11.2077
▁शमूएल	-11.2077
▁देखेकी	-11.2078
▁एसाव	-11.208
योजना	-11.208
स्तरीय	-11.2082
▁सेनालाई	-11.2083
::	-11.2085
▁बिन्दुको	-11.2086
▁आगोले	-11.2086
▁लुकाउन	-11.2088
▁क्यालिफोर्निया	-11.209
▁संवादमा	-11.2095
▁चुने	-11.2095
विक	-11.2096
वरी	-11.2099
▁हातहरू	-11.2102
▁कार्यालयहरु	-11.2102
▁थालिन्	-11.2103
▁पहिरन	-11.2107
▁३००	-11.2108
▁तिर्नु	-11.2109
▁घेर	-11.211
▁महिलाहरूलाई	-11.211
ेक्ट	-11.2112
▁स्वरुप	-11.2112
▁चुनावको	-11.2113
तापूर्वक	-11.2118
▁दिल्लीमा	-11.2119
▁रहोस्	-11.212
▁बढ्नु	-11.2122
▁यसैलाई	-11.2125
▁रक्षक	-11.2126
▁आश्रित	-11.2131
▁कान्तिपुर	-11.2131
▁गहिराइ	-11.2131
▁थाँहा	-11.2131
▁पुनरावलोकन	-11.2131
▁हृदयघात	-11.2131
▁हैसियत	-11.2131
▁आईपीएल	-11.2131
▁हकदार	-11.2132
▁दिगो	-11.2133
▁उत्पादित	-11.2134
▁यहाँसम्म	-11.2134
▁मामला	-11.2135
▁सिमाना	-11.2136
▁पाउँदैनन्	-11.2136
▁होऊन्	-11.2136
▁स्टेज	-11.2137
▁गरिरहनुभएको	-11.2137
▁सोध्यो	-11.2138
▁लुकेको	-11.2139
▁छाती	-11.2139
▁अवसरहरू	-11.2142
▁आजकल	-11.2144
▁चालकको	-11.2147
वो	-11.2147
▁फर्कि	-11.2149
▁अनिकाल	-11.215
▁ली	-11.2151
सूची	-11.216
▁चोटि	-11.2162
▁नामबाट	-11.2165
▁गिर	-11.2166
▁बहिनीहरू	-11.2167
▁पेस	-11.2168
माथिको	-11.2174
▁ज्या	-11.2178
▁आसन	-11.2178
साथै	-11.2181
▁शोध	-11.2181
▁पिउनु	-11.2183
▁डराउने	-11.2188
▁संगत	-11.2189
रोध	-11.2189
▁यसैको	-11.219
▁दाम	-11.219
▁देशबीच	-11.22
▁वाचा	-11.2206
▁आवश्यकताको	-11.2206
▁फर्काउने	-11.2206
▁रद्दीटोकरीमा	-11.2208
▁भन्नेछन्	-11.2208
▁निस्कने	-11.2209
▁किनारामा	-11.2211
▁प्राणीहरू	-11.2211
▁पै	-11.2213
ंड	-11.2215
▁पत्रपत्रिका	-11.2216
▁बिशेष	-11.2216
▁चिन्नुहुन्छ	-11.2219
▁पुग्दा	-11.2219
▁गर्नुभन्दा	-11.222
▁आस्था	-11.2221
▁देउ	-11.2224
▁हात्ती	-11.2224
▁पछ्याए	-11.2226
स्य	-11.2227
▁भन्नाले	-11.2227
मेन	-11.2228
▁विन्दु	-11.2229
▁नपर	-11.2231
बहिनीहरू	-11.2232
▁गर्नुस्	-11.2238
▁नेपाललाई	-11.2239
▁कमिटी	-11.2239
▁हारे	-11.2242
▁छान	-11.2244
▁रिसाए	-11.2246
▁फैलाउन	-11.2251
लाल	-11.2253
मन्त्री	-11.2259
हिर	-11.2264
▁कांग्रेसको	-11.2267
▁गर्द	-11.2272
बै	-11.2273
च्य	-11.2278
▁धारण	-11.2281
▁उहाँहरूको	-11.2287
▁यात्री	-11.229
▁विश्वासीहरू	-11.2298
▁आगोको	-11.2298
▁आशिष	-11.2298
▁महिलाहरुको	-11.2299
▁यसवर्ष	-11.23
▁जनगणना	-11.2302
▁देब्रे	-11.2302
▁प्रक्षेपण	-11.2302
▁राजदूत	-11.2302
▁अपरिहार्य	-11.2302
▁अविवाहित	-11.2302
▁डाक्टरलाई	-11.2302
▁आँधी	-11.2303
▁निम्नानुसार	-11.2303
▁रूपरेखा	-11.2303
लार्इ	-11.2304
▁भईसकेको	-11.2306
▁पर्थ्यो	-11.2306
▁मोह	-11.2307
▁गरिसकेपछि	-11.2307
ल्ने	-11.2309
▁भर्नुहोस्	-11.231
▁लुट	-11.2312
▁सोचेकी	-11.2316
▁आफैँले	-11.2319
▁नपर्ने	-11.2321
▁भन्छौं	-11.2325
▁गरौँ	-11.2328
▁समाधानको	-11.233
▁कलाको	-11.2332
▁कोनिक	-11.2333
▁रूसी	-11.2333
▁आर्ट	-11.2335
▁किताबहरु	-11.2335
▁लेक	-11.2336
▁वाचन	-11.2342
▁अनुभवको	-11.2344
ूद	-11.2352
▁संलग्नता	-11.2355
▁उहाँहरुसँग	-11.2359
▁सज	-11.2361
▁नेतृत्वमा	-11.2362
▁भरमा	-11.2366
२२	-11.2369
ाइनेछ	-11.2369
▁गाड	-11.2372
;)	-11.2375
▁उनीहरूमध्ये	-11.2376
िकृत	-11.238
▁ठग	-11.2382
▁युट्युबमा	-11.2386
ीक	-11.2386
▁ईश्वरको	-11.2388
▁सङ्गठन	-11.2389
▁इन्टिजर	-11.2389
▁धम्की	-11.2389
▁नबूकदनेस्सर	-11.2389
▁प्रेषक	-11.2389
▁भरपर्दो	-11.2389
▁पंक्ति	-11.2389
▁सकिंदैन	-11.239
▁फलस्वरूप	-11.239
▁शरिर	-11.239
▁पाक	-11.2391
▁अम्	-11.2393
▁निजीकरण	-11.2394
▁देख्यौं	-11.2395
▁वितरणको	-11.2399
▁द्वीप	-11.2399
▁सिकें	-11.2401
डु	-11.2403
▁डेट	-11.2404
▁प्रदर्शनमा	-11.2406
▁ब्रा	-11.2407
▁कीरा	-11.2408
▁मकै	-11.2408
ान्	-11.2411
▁अनुमतिहरू	-11.2412
▁पार्यो	-11.2413
▁४१	-11.2424
▁विच्छेदन	-11.2424
▁अमेरिकाबाट	-11.2429
▁हाई	-11.243
आइ	-11.2436
▁दरमा	-11.2438
लिएको	-11.2439
भूत	-11.2441
▁१५०	-11.2444
▁दृष्टिकोणले	-11.2446
▁बिग	-11.2448
▁दिनेछन्	-11.2455
▁मिश्रबाट	-11.2455
▁समाचारमा	-11.2456
▁पालमा	-11.246
▁महिलाहरुले	-11.2463
▁पूजाहारीहरूले	-11.2464
▁सुरूमा	-11.2466
▁घटनालाई	-11.2467
▁देखाएका	-11.2471
▁मिश्रमा	-11.2473
▁हुंदैन	-11.2473
▁डिसेम्बरमा	-11.2474
▁भन्दछ	-11.2476
▁अर्जेन्टिना	-11.2477
▁उल्लंघन	-11.2477
▁क्रेडिट	-11.2477
▁दशमलव	-11.2477
▁द्वन्द्व	-11.2477
▁सिरिज	-11.2477
▁विभागको	-11.2478
▁त्यतिखेर	-11.2478
▁भव्य	-11.2479
▁टावर	-11.2479
▁वेबसाइटको	-11.248
वर्ती	-11.2481
▁जातिको	-11.2483
▁भात	-11.2483
▁मिल्यो	-11.2485
▁ठाने	-11.2487
▁सूचकाङ्क	-11.2488
▁भनिरहेका	-11.2488
▁ब्रुस	-11.2489
▁चाहन्छौँ	-11.2492
▁प्रतिशतमा	-11.2493
▁औंला	-11.2499
▁स्लट	-11.25
▁अक	-11.2502
▁बनाउनुभएको	-11.2503
▁वेदीमा	-11.2503
▁मागेको	-11.251
▁वस्तुमा	-11.2513
▁पदार्थको	-11.2515
▁भारतसँग	-11.2516
ब्बा	-11.2517
▁रमाउन	-11.2518
डिया	-11.2521
▁अन्तर्	-11.2522
बुझ	-11.2526
हरुमध्ये	-11.2526
▁लोभ	-11.2529
▁ट्री	-11.253
ङ्‍क	-11.2533
सेफ	-11.2533
▁मामिलामा	-11.2535
क्षण	-11.2538
▁९९	-11.2542
्टे	-11.2543
▁कार्यालयको	-11.2549
▁मन्त्रालयको	-11.255
▁गालीलको	-11.2552
▁तुरुन्त	-11.2558
▁त्यागे	-11.2559
▁लण्डन	-11.2563
▁मस्जिद	-11.2566
▁गहुँ	-11.2566
▁गोदाम	-11.2566
▁अपील	-11.2566
▁ग्लोबल	-11.2566
▁क्षतिपूर्ति	-11.2566
▁निम्नलिखित	-11.2566
▁ल्याउ	-11.2568
द्वार	-11.2568
▁चीजहरूको	-11.2568
!'	-11.2569
▁प्रहरीको	-11.2571
▁१९८	-11.2573
ोइ	-11.2574
▁प्याक	-11.2574
▁निर्मित	-11.2575
▁किताबमा	-11.2576
▁एण्ड	-11.2576
▁उहाँसितै	-11.2576
▁अर्कासँग	-11.2577
१२	-11.2578
िइन्	-11.2581
▁पुत्रको	-11.2582
▁जिउने	-11.2584
▁लिनुभयो	-11.2585
▁मिश्रण	-11.2586
बारी	-11.259
▁घा	-11.259
टिङ	-11.2591
▁सेवाहरूको	-11.2591
▁गल	-11.2592
▁भङ्ग	-11.2595
▁स्त्रीले	-11.2595
▁उत्र	-11.2597
▁शिक्षामा	-11.2599
▁बचाउँछ	-11.2601
सिन	-11.2605
सान	-11.2607
▁कम्पनीसँग	-11.2607
्याएको	-11.2608
▁कोट	-11.2608
भाष	-11.2611
ीकृत	-11.2613
▁रथ	-11.2618
ज्ञान	-11.262
▁अश्शूरका	-11.2621
हुनेछ	-11.2625
▁महिनाका	-11.2625
▁कुञ्जीले	-11.2628
▁झुट	-11.2633
▁बिचमा	-11.2633
▁पदबाट	-11.2634
▁बढाउनु	-11.2638
दछ	-11.2643
तपाईंको	-11.2643
▁अविश्वसनीय	-11.2655
▁कचौरा	-11.2655
▁ब्रिटिश	-11.2655
▁समर्पण	-11.2655
▁आयुर्वेद	-11.2655
▁कारवाही	-11.2655
▁पब्लिक	-11.2655
▁पाहुना	-11.2655
▁बन्दरगाह	-11.2655
▁इटली	-11.2655
▁पत्रकारिता	-11.2656
▁गराइ	-11.2658
▁गरिनुपर्छ	-11.2659
▁खुलेर	-11.266
▁नपाउने	-11.266
▁देखिन्थ्यो	-11.2661
▁कन	-11.2661
▁प्राप्ताङ्क	-11.2662
▁कभर	-11.2665
▁चर्चामा	-11.2667
▁सकिनन्	-11.2668
▁खोलेका	-11.2669
्टा	-11.267
मानिसहरू	-11.267
▁नुन	-11.2672
▁पाइन्	-11.2675
पर्दछ	-11.2676
▁घण्टी	-11.2679
▁छुट्टिए	-11.268
▁भन्	-11.2681
▁मारेको	-11.2681
दैनन्	-11.2681
▁अनुप्रयोगले	-11.2686
▁व्यवहारमा	-11.2687
‍	-11.2689
▁फोल्डरको	-11.2693
बिन्दु	-11.2694
▁स्वामित्वमा	-11.2701
▁सिकाई	-11.2705
▁आरोपी	-11.2714
▁आँ	-11.2714
▁मित्रहरू	-11.2715
▁नभएमा	-11.2718
याँ	-11.2719
▁थिएन्	-11.272
▁सर्वदा	-11.2721
▁आँट	-11.2721
मल	-11.2722
▁क्याम्प	-11.2726
पढ	-11.2728
▁गर्छौँ	-11.2731
▁वचनको	-11.2738
▁माथिका	-11.2739
सियन	-11.2741
▁जटिलता	-11.2743
▁एवम्	-11.2745
▁बुधवार	-11.2745
▁मांसपेशी	-11.2745
▁मुश्किल	-11.2745
▁सगरमाथा	-11.2745
▁स्क्रिनसेभर	-11.2745
▁स्टुडियो	-11.2745
▁जर्नल	-11.2745
▁करीव	-11.2745
▁सेक्सन	-11.2745
▁बन्धन	-11.2746
▁निस्केको	-11.2747
▁बनाइएका	-11.2748
ग्रह	-11.2748
▁सिधा	-11.2749
िरा	-11.2749
▁आएँ	-11.2754
▁बढाए	-11.2757
▁कार्यक्रमहरुको	-11.2758
▁ठीकै	-11.2759
▁भनियो	-11.276
▁सन्देशमा	-11.276
▁राख्नुपर्छ	-11.2763
▁नून	-11.2765
▁थिएः	-11.2766
▁हेर्नुपर्छ	-11.2767
▁सोधेका	-11.2769
▁श्रीमतीलाई	-11.2769
▁टोल	-11.2771
▁उद्	-11.2772
ुक्क	-11.2772
▁आसपास	-11.2772
दारी	-11.2772
▁खालि	-11.2774
▁विषयहरु	-11.2774
▁लिएँ	-11.278
▁उत्	-11.278
ंदै	-11.2781
बासी	-11.2786
▁व्यक्तिमा	-11.2788
▁सजिलैसँग	-11.2795
▁हराउने	-11.2795
▁निम्त	-11.28
▁जेठा	-11.2809
▁घु	-11.281
▁प्रशंसक	-11.2812
▁नत	-11.2812
जसो	-11.2818
▁नपाएको	-11.2819
▁परियोजनामा	-11.2819
▁बच्च	-11.2823
▁विश्रामको	-11.2824
▁सम्झनु	-11.2825
▁तरल	-11.2827
कुन	-11.2831
▁अमेरिकन	-11.2836
▁उपाध्यक्ष	-11.2836
▁सङ्कुचन	-11.2836
▁सर्वश्रेष्ठ	-11.2836
▁खतना	-11.2836
▁आशंका	-11.2836
▁सावित	-11.2836
▁स्पेनिश	-11.2836
▁विश्वयुद्ध	-11.2837
▁कार्यक्रमले	-11.2837
▁राजनीतिज्ञ	-11.2837
▁योद्धा	-11.2837
▁लम्बाई	-11.2837
▁धरती	-11.2837
▁परिवारहरू	-11.2838
्प	-11.2838
▁एकातिर	-11.284
▁तिहाइ	-11.2844
▁सदस्यलाई	-11.2847
▁वार्तालाप	-11.2848
▁बनिएको	-11.2849
▁खान्छन्	-11.2853
▁लान	-11.2854
▁लास	-11.2854
▁५२	-11.2858
▁बाबुले	-11.2858
▁उद्योगहरुको	-11.2859
▁अप्र	-11.2862
▁खेर	-11.2866
उनु	-11.2868
▁रहेन	-11.2871
▁निर्णयमा	-11.2873
सेकेन्ड	-11.2878
▁जीवहरू	-11.2879
सल	-11.2879
तार	-11.288
कुरा	-11.2881
▁गरिदिन	-11.2883
▁बाकी	-11.2884
▁अस्पतालमै	-11.2886
▁चिर	-11.2887
▁साथीहरूले	-11.2888
बाल	-11.2889
▁हालैका	-11.2891
लस	-11.2892
ँग	-11.2897
▁माझमा	-11.2902
▁लेखेर	-11.2905
तिनीहरू	-11.2906
▁झूट	-11.2918
प्रा	-11.2919
▁फर्काउँछ	-11.292
▁अरूहरू	-11.2922
▁शतक	-11.2922
▁त्यत्ति	-11.2923
▁पाकिस्तानी	-11.2923
▁मान्छेहरु	-11.2926
▁पश्चिमाञ्चल	-11.2928
▁गार्हस्थ्य	-11.2928
▁जरिवाना	-11.2928
▁पृथक	-11.2928
▁जिउँदो	-11.2928
▁पार्टनर	-11.2928
▁गुम्बा	-11.2928
▁कारागार	-11.2929
▁म्याक्रो	-11.2929
▁वक्ता	-11.2929
▁क्षतिग्रस्त	-11.2929
▁रचनात्मक	-11.2929
▁सिक्का	-11.2929
▁इट्टा	-11.293
▁घटाउने	-11.2931
▁खोल्दा	-11.2932
वेश	-11.2932
▁कदमहरु	-11.2933
▁मुलुकहरु	-11.294
▁बुझ्नुपर्छ	-11.2943
▁विस्तारै	-11.2944
▁पोखरी	-11.2945
▁दण्डित	-11.2949
▁शर	-11.2952
परेको	-11.2954
▁प्रश्नमा	-11.2958
कालिन	-11.296
गुण	-11.2964
▁शहरहरु	-11.2967
्याल	-11.2969
▁तालिकाको	-11.2971
▁स्तरका	-11.2974
▁मृ	-11.2975
रिएको	-11.2977
▁बोक्न	-11.2977
▁च्यात	-11.2981
वत्	-11.2982
▁जोडिन	-11.2982
▁खेल्छन्	-11.2983
▁योराम	-11.2984
▁मुद्दाहरू	-11.2986
▁मूल्यको	-11.2995
▁धनु	-11.2998
▁रोमी	-11.3001
्समा	-11.3006
▁हारेका	-11.3007
▁बौद्ध	-11.3009
▁सहयोगमा	-11.3012
▁तालिमको	-11.3013
▁चिन्दैन	-11.3017
▁धार	-11.3018
▁वाली	-11.3019
▁छाया	-11.3019
▁गम्भिर	-11.302
▁बेल्जियम	-11.302
▁गोष्ठी	-11.302
▁प्रौढ	-11.302
▁क्यामरा	-11.302
▁सारांश	-11.302
▁क्लबले	-11.302
▁चिनजान	-11.3021
▁गन्ती	-11.3021
▁फसल	-11.3021
▁हेर्नुहोस	-11.3022
▁शीर्षकपट्टी	-11.3022
▁बाँचिरहेका	-11.3022
▁उपयोगिता	-11.3023
▁खाजा	-11.3024
▁अन्तराल	-11.3025
▁२०४१	-11.3025
▁सिमित	-11.3027
▁शान्तिपूर्ण	-11.3027
▁भक्त	-11.3027
▁पत्नीलाई	-11.3028
▁आलु	-11.303
विध	-11.303
▁खेलाडीहरूले	-11.3032
▁बोझ	-11.3032
▁टेवा	-11.3033
▁महीनाको	-11.3033
ेरी	-11.3035
▁मागेका	-11.3036
▁पुर्याउ	-11.3037
▁पेशामा	-11.3037
▁सम्झे	-11.3039
▁स्थानिय	-11.3039
▁धर्ती	-11.3041
▁स्वतः	-11.3043
▁हरि	-11.3048
▁भागहरूमा	-11.3048
▁सोचमा	-11.305
▁भन्नुपर्छ	-11.3051
▁हामीमाथि	-11.3058
लाग्दो	-11.3062
पश्चिम	-11.3065
▁वास्ता	-11.3065
▁त्यसैमा	-11.3065
▁दुईटा	-11.3071
विकास	-11.3071
▁बाँड्न	-11.3072
▁वेदीको	-11.3074
▁जनतामा	-11.3075
▁मेनुमा	-11.3076
▁आवश्यकताहरु	-11.3076
▁अभियानको	-11.3077
दाता	-11.3078
र्या	-11.3079
▁काख	-11.3079
▁गइ	-11.308
▁जोर	-11.3081
▁पस्न	-11.3081
क्रि	-11.3084
▁कोटि	-11.3085
▁छोडि	-11.3089
▁चीजको	-11.3089
▁सक्छन	-11.3089
▁उसँग	-11.3092
▁बच्चाहरुलाई	-11.3093
▁भेटेका	-11.3096
▁हालेर	-11.3104
न्छु	-11.3105
▁समयअघि	-11.311
▁नमस्कार	-11.3114
▁बेवास्ता	-11.3114
▁मिठाई	-11.3114
▁मुस्कान	-11.3114
▁रोबोट	-11.3114
▁सराहना	-11.3114
▁वैद्य	-11.3114
▁लन्डन	-11.3116
▁चर्को	-11.3117
▁५४	-11.3118
▁यूके	-11.3119
▁सिरिया	-11.3119
▁मालिकको	-11.3123
▁उसकै	-11.3124
▁प्रतिबन्धित	-11.3129
▁जङ्गली	-11.3129
▁उपचारमा	-11.3131
विद्	-11.3132
▁आँखाहरू	-11.3135
▁कम्पनीहरूको	-11.3135
▁सकिए	-11.3144
िरहन्छ	-11.3144
▁आङ्ग	-11.3145
▁बनाइनेछ	-11.3149
▁बचाउ	-11.3151
ाउनुहुन्छ	-11.3153
▁गाद	-11.3154
▁सै	-11.3157
▁सौ	-11.316
▁भर्न	-11.3161
▁माइल	-11.3168
▁सेवालाई	-11.3168
्दी	-11.3172
▁बर्न	-11.3173
▁बालिकाको	-11.3173
▁सम्झाउन	-11.3175
▁अन्त्यसम्ममा	-11.3182
▁भन्नुपर्ने	-11.3185
्लि	-11.3189
▁ओर्	-11.3194
▁टोलीका	-11.3195
▁बुझाइ	-11.3196
▁पिक्सेलमा	-11.3197
▁चढे	-11.3198
▁व्यक्तिसँग	-11.3199
१७	-11.3201
▁उनीहरुकै	-11.3206
▁नजिकबाट	-11.3207
▁छुः	-11.3207
▁इन्कर्पोरेटिड	-11.3208
▁डेनमार्क	-11.3208
▁बाँडफाँड	-11.3208
▁अवकाश	-11.3208
▁घटनास्थलमा	-11.3208
▁बुढा	-11.3208
▁तत्कालीन	-11.321
द्धारा	-11.3211
▁संजाल	-11.3212
▁युट्युब	-11.3212
▁राज्यपाल	-11.3213
▁विद्युतीय	-11.3214
▁डराउँछन्	-11.3215
▁२००१	-11.3216
▁कर्मचारीको	-11.3217
▁प्रत्य	-11.3219
▁लेख्नुभएको	-11.3221
▁संस्कृतिको	-11.3224
▁मातृ	-11.3225
▁पुगेपछि	-11.3225
▁पार्नेछु	-11.3228
▁स्कूलको	-11.3232
सम्मका	-11.3234
▁मेला	-11.3237
ाओस्	-11.3239
वाहक	-11.3239
▁आफ्	-11.3239
▁खेल्नुपर्छ	-11.3243
१३	-11.3243
सिस	-11.3244
▁ल्याएर	-11.3253
▁बोध	-11.3253
▁कर्	-11.3258
ँदछ	-11.3262
▁बाहिरिएको	-11.3264
▁लिंकहरू	-11.3267
▁शमूएलले	-11.3269
▁परियोजनाहरू	-11.327
▁सचेतक	-11.3274
▁प्रेरितहरू	-11.3279
▁गर्भमा	-11.3283
▁पर्दछन्	-11.3284
▁वो	-11.3287
▁दर्शकहरू	-11.3292
२१	-11.3293
▁राज्यहरू	-11.3295
्याएर	-11.3303
▁रोजगारीका	-11.3303
▁अस्वीकृत	-11.3303
▁कलस्सी	-11.3303
▁चाहनुहुन्न	-11.3303
▁चेताउनी	-11.3303
▁निक्षेप	-11.3303
▁निस्सन्देह	-11.3303
▁प्रादेशिक	-11.3303
▁बाक्लो	-11.3303
▁स्मारक	-11.3303
▁कार्बन	-11.3303
▁सुरूवात	-11.3303
▁फलस्वरुप	-11.3304
▁निहुर	-11.3304
▁१९८९	-11.3304
▁कार्यसम्पादन	-11.3305
▁धेरैजना	-11.3305
▁रत्न	-11.3306
▁महिलाहरूको	-11.3307
▁अतिथि	-11.3307
▁नियोजन	-11.3308
पानी	-11.3309
▁सिक्नुपर्छ	-11.3312
लोन	-11.3312
▁स्पष्टीकरण	-11.3315
▁आक्रमणको	-11.3316
▁बिमा	-11.3317
▁पक्षका	-11.3317
▁बसको	-11.3319
▁बढाएर	-11.3319
▁हेर्नुहुन्छ	-11.3321
▁बुद्धिमानी	-11.3322
▁रोगहरू	-11.3324
▁केन्या	-11.3324
▁हाँसो	-11.3325
▁लेखेकी	-11.3327
कृ	-11.3334
▁हद	-11.3337
▁फ्रे	-11.3338
▁बजेको	-11.3339
▁प्रविष्टिहरू	-11.3341
▁पढाए	-11.3342
्दथे	-11.3344
▁भवनहरू	-11.3345
▁थालेकी	-11.3348
▁बोलाउन	-11.3348
▁अल्प	-11.3349
▁अलिक	-11.3353
न्डर	-11.3356
▁पत्नीहरू	-11.3358
रहनुभएको	-11.336
ाइसकेको	-11.3366
▁महामारीको	-11.3366
▁ग्रस्त	-11.3367
प्रकार	-11.3374
▁निलो	-11.3378
▁परिषद	-11.3378
▁साइ	-11.3379
थियो	-11.338
▁चुनावी	-11.3381
▁समृद्ध	-11.3385
▁राज्यलाई	-11.3385
क्ट	-11.3386
ग्राम	-11.3388
तपाईंलाई	-11.3395
▁लन्डनमा	-11.3396
▁भिटामिन	-11.3399
▁रेखदेख	-11.3399
▁वृक्षारोपण	-11.3399
▁उजाड	-11.3399
▁कोभिड	-11.3399
▁निर्देशित	-11.3399
▁नहोला	-11.3399
▁अल्लाह	-11.3399
▁आउँदो	-11.34
▁चमक	-11.34
▁द्वि	-11.34
▁न्यायालय	-11.3401
▁रंगको	-11.3403
▁गाली	-11.3405
▁पुर्याउनु	-11.3407
▁देखिदैन	-11.3412
ेण्ट	-11.3413
▁बुझिएको	-11.3414
▁पत्रकारहरु	-11.3416
▁पाउनुहुन्छ	-11.3416
▁जनताहरु	-11.3418
▁मिलि	-11.3418
▁खाइ	-11.3419
▁गरिनँ	-11.3419
▁चुनौतीहरू	-11.342
▁बोल्छ	-11.3422
▁सुन्दा	-11.3423
▁टोलीको	-11.3425
क्ता	-11.3426
▁खानामा	-11.3427
▁फिल्डमा	-11.3428
▁सुनें	-11.343
▁आफैमा	-11.3434
ाज	-11.3437
▁तान्न	-11.3439
▁पोलि	-11.3439
▁लाइट	-11.3439
थ्य	-11.3445
▁उल्ट	-11.3446
▁संभव	-11.3447
बजार	-11.3448
▁प्रभावहरू	-11.3448
▁विधिको	-11.3448
▁ढुङ्गाहरू	-11.3449
क्ष्	-11.3454
▁शिविरमा	-11.3459
२४	-11.3463
बास	-11.3468
▁केसहरूमा	-11.3469
▁झा	-11.3472
सेल	-11.3473
▁बिन्दुहरू	-11.348
▁ब्रेक	-11.3485
िन्थ्यो	-11.3486
▁उदाहरणहरु	-11.3486
▁राखिनेछ	-11.3491
▁घरबाटै	-11.3491
▁मोशाको	-11.3494
▁भूकम्पको	-11.3496
▁गिरिजा	-11.3496
▁गोरखा	-11.3496
▁छैटौं	-11.3496
▁मनोरञ्जन	-11.3496
▁शिमशोन	-11.3496
▁पारिएमा	-11.3497
▁भेदभाव	-11.3497
▁पैदल	-11.3497
▁महासंघ	-11.3497
▁१९८७	-11.3498
▁फर्काउनुहोस्	-11.3498
▁दाजुभाइ	-11.35
गण	-11.3501
▁क्षेत्रफल	-11.3501
▁छर्क	-11.3502
▁लगानीकर्ताहरू	-11.3503
▁सम्वन्ध	-11.3504
इरहेको	-11.3505
▁माइकल	-11.3507
▁फर्किएका	-11.3508
▁दशौं	-11.3509
▁संस्थामा	-11.351
▁भरिएका	-11.351
▁थिईन्	-11.3516
▁नक्कली	-11.3519
▁सोचेँ	-11.352
▁यातायातको	-11.3523
▁यह	-11.3524
यसको	-11.3525
▁बेरोजगारी	-11.353
▁ठाउँहरूमा	-11.353
▁अन्तसम्म	-11.3534
▁शै	-11.3536
▁हावामा	-11.3537
याउने	-11.354
▁नदिन	-11.3542
▁देखापरे	-11.3543
ारा	-11.3544
▁निकालेर	-11.3545
▁५८	-11.3545
▁खेलाडीलाई	-11.3546
▁जान्दछ	-11.3549
ल्ली	-11.355
▁क्रि	-11.355
▁सिक्दै	-11.3555
▁उपचारपछि	-11.356
वस	-11.3561
▁बहादुर	-11.3561
▁उनिहरुले	-11.3562
▁एलीशाले	-11.3563
▁लैजानु	-11.3563
▁भाडामा	-11.3564
▁संस्थाहरुको	-11.3581
भन	-11.3581
गल	-11.3582
▁बनाउनका	-11.3583
▁करियरमा	-11.3586
▁बसिन्	-11.3591
▁अक्ष	-11.3593
▁आतंक	-11.3593
▁अन्नबलि	-11.3594
▁अपर्याप्त	-11.3594
▁अफ्रिकी	-11.3594
▁अवलम्बन	-11.3594
▁उपरोक्त	-11.3594
▁जुलुस	-11.3594
▁तिम्रै	-11.3594
▁परिकल्पना	-11.3594
▁सन्तुलित	-11.3594
▁रूबेन	-11.3594
▁भेट्टाए	-11.3595
▁श्राप	-11.3595
▁इजाजतपत्र	-11.3595
▁महत्वपुर्ण	-11.3595
▁झर्नुहोस्	-11.3596
▁लन्च	-11.3596
▁प्रस्थान	-11.3599
▁सूचीकृत	-11.36
सकेपछि	-11.3601
▁पत्रिकामा	-11.3604
वेयर	-11.3605
▁टक्स	-11.3607
▁बाँचेका	-11.3607
▁नगरिएका	-11.3609
▁भाला	-11.3609
▁सक्तैनन्	-11.3611
▁घराना	-11.3612
म्स	-11.3616
खाना	-11.3616
▁टाउकोमा	-11.3617
िन्स	-11.362
▁वेद	-11.3628
३९	-11.363
▁केटीहरू	-11.3631
्थेँ	-11.3631
▁रेखामा	-11.3633
▁चित्रमा	-11.3634
▁ङ	-11.3635
कर्ताको	-11.3638
▁कोशी	-11.3638
▁खुवाउन	-11.3638
▁ह्याक	-11.364
▁येशूकी	-11.3643
सरकार	-11.3649
िश्	-11.3654
िएपछि	-11.3656
ायौ	-11.3658
▁घमण्ड	-11.3661
मध्येको	-11.3664
▁टाइ	-11.3664
कालको	-11.3664
्यान्ड	-11.3666
नेपाल	-11.3666
▁भइसके	-11.3668
▁कोलम्बिया	-11.3669
▁गएपछि	-11.367
▁खाताहरू	-11.3682
▁खुद	-11.3684
▁डाक्टरहरु	-11.3689
▁मान्छेको	-11.3691
▁अनभिज्ञ	-11.3693
▁अन्तर्राष्टि्रय	-11.3693
▁कन्सोल	-11.3693
▁घिउ	-11.3693
▁युक्रेन	-11.3693
▁नेशनल	-11.3693
▁अग्रभूमि	-11.3694
▁याकूबलाई	-11.3694
▁सङ्घ	-11.3694
▁चित्रकला	-11.3694
▁झुन्डिएको	-11.3694
▁महेन्द्र	-11.3694
▁मसला	-11.3694
▁स्पेनिस	-11.3696
▁पठाउँदै	-11.3696
▁पुर्याइ	-11.3696
▁प्रशासकीय	-11.3696
▁नहुँदा	-11.3698
▁असमानता	-11.37
▁गुमाए	-11.37
▁तानेर	-11.3701
▁खर्चिलो	-11.3702
▁वर्षीया	-11.3705
▁बदल्ने	-11.371
▁देख्नुभयो	-11.371
▁स्तम्भहरू	-11.3718
▁कम्पनीबाट	-11.3725
▁अनुरूप	-11.3726
▁खुब	-11.3726
फेस	-11.3727
▁बमोजिम	-11.3734
▁थापा	-11.3734
▁सक्यो	-11.3735
▁गरेनौ	-11.3737
पश्चात	-11.3739
▁लिस्ट	-11.374
▁लगेको	-11.374
क्या	-11.3741
▁कतिपयले	-11.3743
यात्रा	-11.3746
१४	-11.3746
▁खोल्नु	-11.3752
▁तुल्याए	-11.3752
िटी	-11.3754
च्चा	-11.3761
▁तरिकाः	-11.3763
पालन	-11.3766
▁पाएकोमा	-11.3774
▁गर्वको	-11.3776
▁विन	-11.3782
▁गर्नुहुने	-11.3786
णा	-11.3789
▁ताइवान	-11.3793
▁निवारण	-11.3793
▁परिपक्व	-11.3793
▁दुःखकष्ट	-11.3793
▁तिहाई	-11.3793
▁गुज्र	-11.3794
▁पुनर्निर्माण	-11.3794
▁प्रोटिन	-11.3794
▁जनयुद्ध	-11.3794
▁रहस्यमय	-11.3795
▁स्कोर	-11.3797
▁रहनुहोस्	-11.38
▁तारिख	-11.3803
▁रद्दीटोकरी	-11.3803
▁स्रोतबाट	-11.3805
▁सफाइ	-11.3806
▁पर्यटकहरू	-11.3811
▁पासो	-11.3811
▁सिकेँ	-11.3813
श्य	-11.3815
▁सुन्छन्	-11.3816
▁माता	-11.3816
▁न्यूज	-11.3816
▁सम्पर्कहरू	-11.3817
▁सन्त	-11.3817
▁थिइनन्	-11.3818
▁लेखहरू	-11.3818
▁दिइएका	-11.3821
▁वर्षअघिको	-11.3822
▁वालेट	-11.3824
▁फोटोहरु	-11.3826
प्रद	-11.3828
▁सत्ताको	-11.383
जेल	-11.3833
):।	-11.3833
▁राष्ट्रपतिले	-11.3835
▁सल	-11.3835
▁गर्नैपर्छ	-11.384
▁रियल	-11.384
▁थिएटर	-11.3842
लक	-11.3844
बाज	-11.3846
▁२०६	-11.3851
त्यसपछि	-11.3852
▁हिंसाको	-11.3853
स्थापना	-11.3854
क्रिया	-11.3855
▁जबकी	-11.386
▁हेर्छ	-11.3863
▁हिजकियाहले	-11.3864
▁पुलिसको	-11.3866
पल	-11.3868
▁रहँदैन	-11.3869
यसले	-11.387
▁धुन	-11.3871
▁होल्ड	-11.3873
▁स्थानबाट	-11.3874
▁कागजातहरू	-11.3881
▁सपनामा	-11.3882
▁अरबी	-11.3885
▁शक्तिले	-11.3886
▁भवनहरु	-11.3892
▁दुर्भाग्य	-11.3893
▁नवीकरण	-11.3894
▁तुरन्तै	-11.3894
▁नाइजेरिया	-11.3894
▁पुरस्कृत	-11.3894
▁भविश्य	-11.3894
▁संक्षिप्त	-11.3894
▁सप्ताह	-11.3894
▁सिदकियाह	-11.3894
▁कोरोनाभाइरस	-11.3894
▁अग्नि	-11.3895
▁बुढो	-11.3895
▁बढावा	-11.3895
▁रेन्डर	-11.3896
▁संवाददाता	-11.3896
▁युरोपियन	-11.3896
▁सक्थ्यो	-11.3897
▁कुलसमूह	-11.3897
▁२०२२	-11.3899
सेर	-11.3899
▁६६	-11.3899
▁सोच्नुभएको	-11.39
▁पठाउनुभयो	-11.39
▁इनाम	-11.3902
▁बियर	-11.3904
▁भन्दछन्	-11.3904
▁गरिन्थ्यो	-11.3904
स्सा	-11.3905
िनेछन्	-11.3905
▁सोचिरहेको	-11.391
▁भाउ	-11.3911
झै	-11.3913
▁महिलाहरूले	-11.3915
▁हेल	-11.392
▁बनाउनुभयो	-11.392
▁वाध्य	-11.3921
▁प्रतिक	-11.3921
▁खानपान	-11.3922
▁बिमारी	-11.3922
▁मारिने	-11.3927
▁विपक्षमा	-11.3927
▁फूलहरू	-11.3928
▁बुट	-11.3931
▁अश्शूर	-11.3932
▁समाते	-11.3941
▁भेटेर	-11.3942
पक्षीय	-11.3944
निर्माण	-11.3946
▁मेक्सिकोमा	-11.3947
▁मृतकको	-11.3948
▁हटाउनु	-11.3949
ेली	-11.3951
सामु	-11.3954
▁केसमा	-11.3955
▁रीस	-11.3956
▁प्रि	-11.3956
▁बालकलाई	-11.3959
▁विशेषज्ञहरु	-11.3959
▁ठाउमा	-11.3961
▁कमाउने	-11.3966
▁संसारबाट	-11.397
▁लोकतन्त्रको	-11.3971
▁घटनाका	-11.3974
▁प्रसाद	-11.3978
▁वर्गमा	-11.3981
▁प्रारम्भमा	-11.3985
▁काट्न	-11.3985
▁मुद्दाको	-11.3986
▁पार्कमा	-11.3986
वै	-11.3986
भरी	-11.3992
शान	-11.3993
▁स्ल	-11.3993
▁इस्	-11.3996
▁दोहोर्याउन	-11.3996
▁वक्तव्य	-11.3997
▁आइतबार	-11.3997
▁बुधबार	-11.3997
▁शिक्षिका	-11.3997
▁समयावधि	-11.3997
▁सान्दर्भिक	-11.3997
▁भुमिका	-11.3997
▁बूढो	-11.3997
▁हाजिर	-11.3997
▁श्रेय	-11.3997
▁भाग्यशाली	-11.3997
▁राष्ट्रसंघ	-11.3997
▁संचालित	-11.3997
▁नेपालगञ्ज	-11.3997
▁१९७०	-11.3999
▁साहित्यकार	-11.3999
▁अभिन्न	-11.4
▁व्यवसायलाई	-11.4004
▁मनाइन्छ	-11.4004
▁उसकी	-11.4005
मिति	-11.4005
▁समाजले	-11.4007
▁समाधानका	-11.4008
ीस	-11.4011
▁९५	-11.4013
▁पम्प	-11.4024
▁भएता	-11.4025
▁सिक्नुपर्ने	-11.4026
▁पश्चात	-11.4027
▁शी	-11.4027
▁सिं	-11.4027
▁संगठनको	-11.4033
▁बस्	-11.404
▁पेसा	-11.4047
िइ	-11.4047
यहूदीहरू	-11.405
▁नापी	-11.4054
ानो	-11.4062
▁त्यसदिन	-11.4063
३८	-11.4064
र्ध	-11.4067
▁शहरबाट	-11.4069
ाउनेछु	-11.4073
▁दिदै	-11.4073
▁घट्न	-11.4084
▁गतिशील	-11.4086
▁विश्वभरका	-11.4086
▁यससँगै	-11.4087
▁ढि	-11.4087
▁लाइनहरू	-11.4088
▁५३	-11.409
▁उपासना	-11.41
▁सौभाग्य	-11.41
▁अतीत	-11.41
▁कथन	-11.41
▁किरिङ	-11.41
▁बोतल	-11.41
▁खरानी	-11.4101
▁मानवअधिकार	-11.4101
▁ग्राफिक्स	-11.4101
▁पातलो	-11.4103
त्यु	-11.4103
▁बोलाउनु	-11.4103
▁प्रोजेक्टमा	-11.4103
▁खिचिएको	-11.4104
▁नाइ	-11.4105
▁आत्मिक	-11.4105
▁लिपि	-11.4105
▁गन्ध	-11.4105
जस	-11.4105
▁गुरू	-11.4109
▁सभ्यता	-11.4112
कानिम्ति	-11.4114
ासाथ	-11.4115
गाल	-11.4115
▁चित्रकार	-11.4117
▁होइनौ	-11.4117
▁नु	-11.4119
▁चलाए	-11.412
▁स्वदेशी	-11.412
▁काटेर	-11.412
तन्त्र	-11.4124
▁दिल	-11.4124
तब	-11.4125
▁बल्ल	-11.4128
्लान्	-11.413
▁बलिहरू	-11.413
▁उपकरणहरु	-11.4132
▁खुट्टामा	-11.4134
▁हटे	-11.4138
▁फर्की	-11.4139
▁श्रोता	-11.4143
▁६३	-11.4146
▁मस्तिष्कमा	-11.4149
▁अं	-11.4151
▁क्रूसमा	-11.4152
▁नियाल	-11.4156
▁जन्माउने	-11.4157
▁कारोबारमा	-11.4157
▁जानेका	-11.4158
▁हुन्छिन्	-11.4161
▁गाडे	-11.4164
▁श्र	-11.4167
▁भारतलाई	-11.4168
▁झल्	-11.4172
▁बसाइ	-11.4172
▁भिन्नै	-11.4172
२३	-11.4174
▁क्यान	-11.4176
▁तथ्यहरू	-11.4177
▁आन्दोलनको	-11.4183
▁लुकाए	-11.4186
▁मसी	-11.4187
▁राष्ट्रका	-11.4187
▁तिमीहरुका	-11.4187
▁रुसमा	-11.4192
▁मन्त्र	-11.4193
▁खेतहरू	-11.4195
▁स्वर्गदूतलाई	-11.4198
▁रोज्नु	-11.4199
▁हेब्रोन	-11.4204
▁आश्वासन	-11.4204
▁गायब	-11.4204
▁आत्मनिर्भर	-11.4204
▁स्मार्टफोन	-11.4204
▁भेंडा	-11.4204
▁कमाण्ड	-11.4204
▁मिलाइनेछ	-11.4204
▁लिइरहेका	-11.4205
▁साधारणतया	-11.4205
▁पुर्याइएको	-11.4205
▁आर्मी	-11.4206
▁५९	-11.4206
▁कानामा	-11.4207
▁जनाए	-11.4208
▁आशिष्	-11.4209
▁एकैसाथ	-11.4209
▁जय	-11.421
▁कृषिमा	-11.4213
▁मर्यो	-11.4213
▁हेर्छु	-11.4214
▁देखिएकी	-11.4214
▁प्याड	-11.4216
▁दुबईमा	-11.4217
▁काठमाडौंमा	-11.4218
▁पारिएका	-11.4221
▁लाने	-11.4222
▁लस	-11.4228
▁काठको	-11.4235
▁भान	-11.4242
▁बिताएको	-11.4242
▁सबैजसो	-11.4243
तृ	-11.4248
▁मेटाउन	-11.425
▁लाइनको	-11.425
▁निवासी	-11.425
▁नपार	-11.4255
तया	-11.4257
▁सदनमा	-11.4258
पुस्तक	-11.426
▁सक्रियता	-11.4263
▁तहका	-11.4263
▁पुग्नेछ	-11.4264
▁शु	-11.4265
ोड	-11.4267
▁बराबरको	-11.4269
▁हिम	-11.427
▁रोगहरु	-11.4272
▁सोझै	-11.4273
▁शू	-11.4277
▁साथीहरुले	-11.4281
▁लेख्नका	-11.4284
▁नदीहरू	-11.4287
्याग	-11.429
▁कार्यकालमा	-11.4293
▁हजारभन्दा	-11.4299
इस्राएलका	-11.43
▁थाप	-11.4306
▁दर्जन	-11.4307
▁काठमाण्डौ	-11.4309
▁अमस्याह	-11.4309
▁अहज्याह	-11.4309
▁आषाढ	-11.4309
▁विजार्ड	-11.4309
▁अकाउन्ट	-11.4309
▁एलाजार	-11.4309
▁विष्फोट	-11.4309
▁ग्याँस	-11.4309
▁गाएका	-11.4309
▁भुटान	-11.4309
▁हार्डवेयर	-11.4309
▁अनलाइनमा	-11.4309
▁त्यसैगरि	-11.431
▁यिनीहरूको	-11.4311
▁अपनाए	-11.4311
▁घेरिएको	-11.4311
▁परीक्षाको	-11.4312
▁हामीसंग	-11.4312
▁मान्छेहरू	-11.4315
▁गरिरहेछन्	-11.4318
▁मिलाएर	-11.4319
▁देख्नेछन्	-11.432
लिङ	-11.432
▁जाँदैछु	-11.4321
▁उहाँसित	-11.4324
▁छुट्टि	-11.4324
▁छात्रा	-11.4326
▁गर्जन	-11.433
▁त्यसबाहेक	-11.4334
▁१९९४	-11.4334
▁पकाउन	-11.4336
पाटी	-11.4337
▁७७	-11.4338
▁गरिँदै	-11.4342
▁कोरियामा	-11.4345
▁नानीहरूलाई	-11.4349
कला	-11.4353
हुन्	-11.4355
▁उद्योगहरूमा	-11.4356
▁हत्यारा	-11.4358
▁अपनाउनु	-11.4361
▁हुनेछः	-11.4365
ठूला	-11.4367
▁मनन	-11.4367
श्च	-11.4368
▁काट्ने	-11.4369
▁एकान्त	-11.437
▁एकीकरण	-11.4374
▁मस्त	-11.4378
▁सडकहरु	-11.4386
▁५६	-11.4394
ब्य	-11.4394
▁अरूसँग	-11.4396
▁नागरिकलाई	-11.4396
ेटर	-11.4398
क्री	-11.4399
▁७८	-11.4399
▁भएजस्तै	-11.44
▁हिँड्न	-11.4402
▁यथा	-11.4404
▁उठाएका	-11.4406
▁संविधानमा	-11.4406
▁पावललाई	-11.4408
सङ्ग	-11.4415
▁जिब्रो	-11.4415
▁दबाव	-11.4415
▁ध्रुव	-11.4415
▁मनुष्य	-11.4415
▁विभाजक	-11.4415
▁सहुलियत	-11.4415
▁सुनुवाई	-11.4415
▁स्वास्नी	-11.4415
▁पारवहन	-11.4415
▁ग्रसित	-11.4415
▁आत्मविश्वास	-11.4416
▁सङ्कट	-11.4416
▁टायल	-11.4416
▁अविश्वास	-11.4417
▁त्यसैकारण	-11.4417
▁अगमवक्ताहरूलाई	-11.4417
▁पङ्क्तिबद्ध	-11.4417
▁अफगान	-11.4417
बिच	-11.4417
▁कोर्नुहोस्	-11.4419
▁बताउनुहुन्छ	-11.4419
परमेश्वर	-11.442
▁पराउँछन्	-11.4421
▁देख्छौं	-11.4421
विरुद्धको	-11.4423
▁आदान	-11.4423
▁लेबल	-11.4425
▁भयौँ	-11.4427
▁हिंड्न	-11.4427
▁ह्यु	-11.4429
▁गुणन	-11.4431
▁लगियो	-11.4435
▁लेख्छन्	-11.4437
▁विज्ञापनहरू	-11.4439
▁अधिराज्यका	-11.444
▁मस्तिष्कको	-11.4442
▁इन्च	-11.4443
▁भन्यौ	-11.4445
▁सातौ	-11.4446
▁टोन	-11.4448
▁चाहन्थेँ	-11.4453
▁अक्टोबरमा	-11.4455
▁असफलताको	-11.4457
थ्यौ	-11.4458
▁पुर्खा	-11.4459
▁वर्षअगाडि	-11.4459
▁चढाएको	-11.446
▁चिकित्सकहरुले	-11.4461
▁सहितको	-11.4461
लिस	-11.4464
▁नेताको	-11.4465
▁लगत	-11.4466
्यता	-11.4467
ईं	-11.4468
▁देखिनेछ	-11.447
▁लेखि	-11.4473
▁अनुहारमा	-11.4473
▁दूतहरू	-11.4474
ाँट	-11.4476
▁हिउँ	-11.4477
▁उद्देश्यहरु	-11.4479
▁मिले	-11.4488
▁कमै	-11.4488
▁मण्डल	-11.4489
▁कर्मचारीलाई	-11.449
▁पार्ट	-11.4494
▁थिइ	-11.4496
▁ब्रि	-11.4498
▁अफगानिस्तानमा	-11.4501
्पा	-11.4503
▁माछाको	-11.4505
▁पत्रमा	-11.4508
▁मर्छ	-11.4508
र्ल	-11.4509
ंछ	-11.451
▁निकायको	-11.4511
▁होशियार	-11.4515
▁संजालमा	-11.4519
उहाँले	-11.452
▁गुड	-11.4523
▁अबीमेलेक	-11.4523
▁कन्ट्रोल	-11.4523
▁प्राध्यापक	-11.4523
▁भिडिओ	-11.4523
▁रहबाम	-11.4523
▁जनकपुर	-11.4523
▁पूरक	-11.4523
▁दुर्व्यवहार	-11.4523
▁बतास	-11.4523
▁तवरले	-11.4523
▁धागो	-11.4524
▁पदयात्रा	-11.4524
▁पठन	-11.4524
▁एन्टि	-11.4524
▁भावनात्मक	-11.4525
▁छालाको	-11.4525
▁चाहाना	-11.4525
स्त्र	-11.4526
▁सरदर	-11.4526
▁चोटपटक	-11.4526
▁जाभा	-11.4527
▁भर्ती	-11.4528
▁त्यत्तिकै	-11.4529
▁महिनाभन्दा	-11.4531
▁प्रस्ट	-11.4536
▁नोकरहरू	-11.4539
▁योग्यता	-11.454
▁दुः	-11.454
नेस	-11.4541
▁अन्	-11.4542
▁रुट	-11.4545
▁संझ	-11.4551
ठीक	-11.4552
▁त्यसकै	-11.4552
▁सेवाबाट	-11.4553
कोनिम्ति	-11.4554
गाउँ	-11.4555
र्ता	-11.4556
▁ड्या	-11.456
िंदै	-11.4562
▁प्रयासहरु	-11.4568
▁सलह	-11.4568
▁अगुवाहरूले	-11.457
▁गराएका	-11.457
▁ग्राहकहरूलाई	-11.4574
▁गल्तीहरू	-11.4575
▁लागिरहेका	-11.4575
▁लेखनको	-11.4578
▁विक	-11.4585
▁माघ	-11.4586
ब्ब	-11.4589
▁पछ्याउने	-11.46
▁राजी	-11.4601
चाल	-11.4611
▁आखिरमा	-11.4612
पाई	-11.4618
▁सहभागि	-11.4618
▁थिईन	-11.4625
▁नेताहरूले	-11.4628
▁कौशल	-11.4632
▁पापबलि	-11.4632
▁राखिन्छ	-11.4632
▁भेट्टाउन	-11.4632
▁विहान	-11.4632
▁कार्यहरूको	-11.4633
▁आकृति	-11.4634
▁कम्पनि	-11.4634
▁याकूबको	-11.4635
सय	-11.4635
▁बिताउँछन्	-11.4635
▁छापिएको	-11.4638
▁पुर्व	-11.4639
▁जानुपर्ने	-11.4641
▁लोकप्रियता	-11.4643
▁देख्यौ	-11.4643
▁सोचिरहेका	-11.4644
▁युरोपको	-11.4645
▁बरू	-11.4646
▁एकचोटि	-11.4646
▁स्वस्थ्य	-11.4646
सितै	-11.4647
▁एप्स	-11.4649
ाउंछ	-11.4653
▁व्यवहारिक	-11.4654
▁पत्रुसले	-11.4664
भेन	-11.4665
▁पञ्चायती	-11.4671
▁हाम	-11.4673
▁समेट	-11.4674
▁बस्नेछन्	-11.4674
▁जन्मियो	-11.4678
▁अनुसन्धानले	-11.468
▁दिलाउन	-11.4681
▁नेताबीच	-11.4682
कट	-11.4684
बन	-11.4685
वाई	-11.4686
▁मन्त्रालयमा	-11.4688
▁अवसरहरु	-11.4691
▁थपिएको	-11.4693
पर्दा	-11.4698
▁दिदैन	-11.4699
▁बाढीले	-11.4701
▁लगाउँछ	-11.4702
▁क्यार	-11.4702
▁डाक्टरहरुले	-11.4706
▁फोरम	-11.4707
▁प्रधानमन्त्रीले	-11.4708
ँझ	-11.4712
▁शुरूमा	-11.4714
▁कनानी	-11.4715
▁भाइहरूलाई	-11.472
रियल	-11.4722
▁पढाइमा	-11.4727
▁कोषहरू	-11.4729
टै	-11.4729
▁ट्रि	-11.4732
▁निर्णयबाट	-11.4734
प्रधानहरू	-11.4734
▁दीप	-11.4736
▁श्वास	-11.4742
▁हस्पिटल	-11.4742
▁आश्चर्यचकित	-11.4742
▁करूणा	-11.4742
▁कृत्रिम	-11.4742
▁घटनास्थलमै	-11.4742
▁भल्भ	-11.4742
▁विचलित	-11.4742
▁साटासाट	-11.4742
▁समाहित	-11.4742
▁मुस्कुरा	-11.4742
▁नोबेल	-11.4742
▁नुहाउन	-11.4742
▁नवीन	-11.4742
▁नपरोस्	-11.4742
▁अभियुक्त	-11.4743
▁भूभाग	-11.4743
▁सक्दो	-11.4744
▁अपवित्र	-11.4744
▁स्वरमा	-11.4745
▁इस्राएललाई	-11.4745
▁मानौं	-11.4745
▁त्रास	-11.4747
▁हुंदै	-11.4748
भएका	-11.4748
देवी	-11.4749
▁वृद्धिदर	-11.475
▁अनुसन्धानकर्ता	-11.4751
▁जितेकी	-11.4751
▁काँधमा	-11.4757
▁निस्केर	-11.4757
▁अण्डा	-11.4758
बेल	-11.4758
▁वेला	-11.4759
▁गर्नुहोला	-11.4759
▁सभाको	-11.476
▁नारायण	-11.4762
▁हेरिएको	-11.4765
▁पालो	-11.4776
▁कोठाको	-11.4776
▁सोभन्दा	-11.4778
▁लौ	-11.4783
▁उसैले	-11.4784
▁कैदीहरू	-11.4789
▁स्थितिलाई	-11.4797
तर्फबाट	-11.4802
दोस्रो	-11.4804
▁धार्मिकता	-11.4805
▁हेरी	-11.4805
मानचित्र	-11.4805
बोर्ड	-11.4805
▁घटाउ	-11.4805
▁सुते	-11.4809
▁लक्षणहरु	-11.481
▁सञ्झ्यालहरू	-11.4813
्थें	-11.4813
▁तास	-11.4816
▁यसतर्फ	-11.4816
▁सुत्न	-11.4817
▁तपाइँसँग	-11.4819
▁कोषको	-11.4819
▁साथीले	-11.4822
▁भनेनन्	-11.4822
िई	-11.4824
्रय	-11.4827
▁सँ	-11.483
▁सम्बन्धलाई	-11.4831
सकेकी	-11.4832
▁किताबहरू	-11.4832
▁सन्तुष्टि	-11.4833
▁कोच	-11.4834
▁स्लाइड	-11.4835
▁इजिप्ट	-11.4853
▁उच्‍च	-11.4853
▁छिट्टै	-11.4853
▁सुख्खा	-11.4853
▁हेलिकप्टर	-11.4853
▁भन्‍नुहुन्छ	-11.4853
▁जिउँदै	-11.4853
▁तारामण्डल	-11.4853
▁पासपोर्ट	-11.4853
▁निभाए	-11.4854
▁आपसी	-11.4854
▁अनुकरण	-11.4854
▁जर्ज	-11.4854
▁चलचित्रलाई	-11.4855
▁क्यान्सरको	-11.4859
▁२०४०	-11.486
▁असा	-11.4861
गढ	-11.4863
▁नासरतबाट	-11.4864
▁झेल	-11.4865
▁बौद्धिक	-11.4866
▁मालिकहरू	-11.4867
▁पृथ्वीबाट	-11.4867
▁हिल	-11.4868
▁हिमाली	-11.4869
▁जंगली	-11.4871
▁किरा	-11.4872
▁उनिहरुको	-11.4874
▁हितको	-11.4879
▁समात्न	-11.488
▁वर्	-11.488
▁गराउँदै	-11.488
▁तुल्याउने	-11.4882
▁औषधीको	-11.4882
▁स्कुलबाट	-11.4883
ुला	-11.4884
▁खाले	-11.4884
ाउँनु	-11.4886
▁चाँदीको	-11.4888
दन	-11.4888
▁गहना	-11.4889
▁सम्पत्तिको	-11.489
ाउनुभएको	-11.4891
▁उनीहरुमध्ये	-11.4894
▁जिउन	-11.4894
▁मण्डलीहरू	-11.4895
स्टे	-11.4895
▁याकूबका	-11.4897
क्षित	-11.4898
▁अन्तै	-11.4899
▁आकारमा	-11.4903
म्बा	-11.4905
▁उपन्यासमा	-11.4911
▁लागिएको	-11.4915
▁परमेश्वरसित	-11.4916
हाम्रा	-11.4917
▁दलहरू	-11.492
▁बिरामीको	-11.4925
▁मानले	-11.4927
▁फर्किने	-11.4929
मिटर	-11.493
▁सक्तैनौ	-11.4931
ये	-11.4932
▁ब्रह्माण्ड	-11.4939
अल	-11.4947
▁पक्रे	-11.4952
वीच	-11.4955
▁बृद्ध	-11.4956
▁दम	-11.496
▁हुँदादेखि	-11.4962
▁भएसम्म	-11.4963
▁मेगावाट	-11.4965
▁व्यभिचार	-11.4965
▁सूक्ष्म	-11.4965
प्रेषण	-11.4965
▁उजुरी	-11.4965
▁देखापर्यो	-11.4965
▁नथनेल	-11.4965
▁निर्णायक	-11.4965
▁भ्रष्ट	-11.4965
▁शेकेल	-11.4965
▁सार्थक	-11.4965
▁जादू	-11.4965
▁उदय	-11.4965
▁पटक्कै	-11.4965
▁सचिवालय	-11.4965
▁चिल्लो	-11.4966
किया	-11.4967
▁दर्जा	-11.4967
▁सुविधाजनक	-11.4967
▁जेठो	-11.4968
▁दाखको	-11.4968
▁अवगत	-11.4969
▁अपिल	-11.4969
▁रोकियो	-11.4972
▁आईपी	-11.4972
▁भोगेको	-11.4973
▁पार्टीलाई	-11.4973
▁मर्नेछन्	-11.4976
▁वर्क	-11.4983
याली	-11.4984
▁गर्नुपर्दैन	-11.4985
▁बुवाको	-11.4987
▁ख्रीष्टसित	-11.4992
▁चित्रहरू	-11.4993
बन्दी	-11.4993
▁प्रतिष्ठान	-11.4996
▁घुसाउन	-11.4999
▁खन्य	-11.5
▁तीब्र	-11.5002
▁गफ	-11.5003
न्ति	-11.5009
▁वस्तुलाई	-11.5011
▁बालकहरू	-11.5013
निय	-11.5015
▁सम्पादकमा	-11.5018
▁भट्ट	-11.502
▁बोर्डमा	-11.5022
▁एकपल्ट	-11.5023
वती	-11.5023
▁महिलाहरुलाई	-11.5024
िदैन	-11.5025
▁नदिए	-11.5028
▁बनाउँन	-11.5028
प्रथम	-11.5029
साँच्चै	-11.503
▁सिटमा	-11.503
▁विज्ञप्तिमा	-11.5031
▁पाएकाः	-11.5034
▁ब्राजिलमा	-11.5035
▁सकेनौं	-11.5036
ठाउँ	-11.5039
▁ग्राम	-11.504
▁१ः	-11.5045
▁चालमा	-11.5048
िराखेको	-11.5051
▁यहीँबाट	-11.5051
▁देशबीचको	-11.5054
▁अभ	-11.5054
▁गुणस्तरको	-11.5056
▁ढु	-11.5058
▁गर्दैनौ	-11.5063
▁आगन्तुकहरू	-11.5066
हाम	-11.5069
▁सिंहासनमा	-11.5072
▁ठोक	-11.5073
▁थर	-11.5075
ाइदिनु	-11.5075
ात्मा	-11.5076
▁सिर	-11.5076
▁अफगानिस्तान	-11.5077
जाऊ	-11.5078
▁अप्रत्यक्ष	-11.5079
▁टेलिस्कोप	-11.5079
▁नितान्त	-11.5079
▁हुनुहन्छ	-11.5079
▁इमानदार	-11.5079
▁पीडीए	-11.5079
▁दुर्भाग्यवश	-11.5079
▁आश्रय	-11.5079
▁फिरऊनले	-11.5079
▁पाइँदैन	-11.5079
▁देख्नेछौ	-11.508
▁सहवास	-11.508
▁सकिन्थ्यो	-11.508
▁बीऊ	-11.5081
▁सुगन्धित	-11.5081
देख	-11.5081
▁१९९१	-11.5081
▁यूएस	-11.5082
▁भोगिरहेका	-11.5082
▁बेड	-11.5083
▁सार्दा	-11.5084
▁कहीं	-11.5085
▁त्यहां	-11.5085
▁जान्दैनन्	-11.5086
▁बुझिन्छ	-11.5088
▁सारिएको	-11.5088
▁बेंसीमा	-11.5088
▁युके	-11.5089
▁वडा	-11.509
्याड	-11.5092
▁सच्चा	-11.5092
▁आउनुहुन्छ	-11.5092
ाट	-11.5094
▁लोप	-11.5095
▁समृद्धि	-11.5096
▁मानिससँग	-11.5098
भने	-11.5098
ब्याक	-11.5103
▁मुलुकका	-11.5106
▁दिनेछौं	-11.5109
▁पहिर	-11.5111
▁अर्थपूर्ण	-11.5115
मोर	-11.5119
▁समाजवादी	-11.5119
▁संविधानले	-11.5124
ँदो	-11.5124
खेर	-11.5126
▁खोलेको	-11.5133
झा	-11.5137
▁पृष्ठभूमिको	-11.5138
▁फर्किएको	-11.5143
यम	-11.5147
क्वा	-11.5149
▁चलचित्रका	-11.5162
▁टुट	-11.5163
▁साधनहरु	-11.5164
▁देखिनु	-11.5167
▁वृ	-11.5171
▁यथार्थमा	-11.5174
▁तत्वको	-11.5182
प्रतिस्पर्धात्मक	-11.5183
▁फाइदाहरू	-11.5184
क्कै	-11.5187
▁४९	-11.5191
▁निज	-11.5191
▁इफेक्ट	-11.5194
▁उत्तेजित	-11.5194
▁उल्लङ्घन	-11.5194
▁पञ्चवर्षीय	-11.5194
▁विरासत	-11.5194
▁साच्चै	-11.5194
▁स्वीडेन	-11.5194
▁विलाप	-11.5194
▁लाभांश	-11.5194
▁चौध	-11.5194
▁अब्राम	-11.5194
▁फरार	-11.5195
▁बोन्ड	-11.5196
▁जूम	-11.5196
▁उभिरहेको	-11.5196
मेर	-11.5198
▁बालुवा	-11.5198
▁जग्गामा	-11.5199
िँदैन	-11.52
▁कुलका	-11.5201
▁लगायो	-11.5202
▁बिरुद्ध	-11.5203
▁उचाल	-11.5207
पाट	-11.5207
▁बोल्छन्	-11.5208
▁सुन्नुभएको	-11.5208
▁इरानले	-11.5208
निम्ति	-11.5211
▁ट्विटरमा	-11.5212
▁पार्दा	-11.5212
▁बस्छु	-11.5212
▁जाँदैछन्	-11.5216
▁पछ	-11.5216
ठित	-11.5219
धे	-11.5219
▁देखिरहेको	-11.522
▁दशकभन्दा	-11.5221
▁कती	-11.5223
▁उल्लेख्य	-11.5223
▁ग्राहकलाई	-11.5224
ुद्र	-11.5226
▁थान	-11.5231
▁बनाउँछु	-11.5233
▁चढाउने	-11.5233
▁महिलाहरुमा	-11.5234
२९	-11.5235
▁अटो	-11.5236
▁हुनेवाला	-11.5238
▁चढेर	-11.5239
▁गर्यौँ	-11.5239
▁मारेर	-11.5242
▁गरिँदैछ	-11.5248
▁विस्तारित	-11.5248
▁गै	-11.5249
▁छोराछोरीलाई	-11.5253
▁अनुपातमा	-11.5257
रित	-11.5263
बाकस	-11.5264
स्थापित	-11.5265
▁तपाइँबाट	-11.5265
▁सुन्छ	-11.5266
दिनुहोस्	-11.5273
▁गरिन्छन्	-11.5274
▁चर्क	-11.5278
▁गर्नसक्ने	-11.5285
▁अक्	-11.5286
▁चुन्नु	-11.5287
▁महाराज	-11.5288
▁काँसा	-11.5291
▁हुन्छौ	-11.5292
▁त्यसमध्ये	-11.5295
▁छातीमा	-11.5301
▁उहाँकी	-11.5302
▁गर्नुभएका	-11.5303
▁लत	-11.5306
▁अभावले	-11.5308
▁कक्षहरू	-11.5309
▁ज्वरो	-11.531
▁भ्याक्सिन	-11.531
▁आवधिक	-11.531
▁घाँटी	-11.531
▁प्रभावकारिता	-11.531
▁मजबुत	-11.531
▁मुकुट	-11.531
▁बैंकिङ	-11.531
▁मैंले	-11.5311
▁अवास्तविक	-11.5311
▁आँसु	-11.5311
▁रेलमार्ग	-11.5311
▁लेखकले	-11.5311
▁रहेकेा	-11.5311
▁पाठशाला	-11.5312
▁१९६०	-11.5313
▁हुनुहुँदैन	-11.5314
▁बनाइरहेको	-11.5314
▁एसियाली	-11.5314
मुख	-11.5315
▁बनिसकेको	-11.5315
▁ल्याउनुहोस्	-11.5316
▁सामानहरु	-11.5316
▁काटिएको	-11.5317
▁ठाउँहरु	-11.5317
▁हाड	-11.5318
▁चलिरहेका	-11.5319
▁समारोहमा	-11.5319
क्रा	-11.5319
हारी	-11.532
नीले	-11.5321
▁बसाई	-11.5323
▁सोच्छन्	-11.5324
▁सतहमा	-11.5324
▁अग्ला	-11.5325
▁राशि	-11.5331
▁उठाएर	-11.5331
नुहुन्छ	-11.5331
▁पार्नुभयो	-11.5331
संख्या	-11.5332
▁जगत्	-11.5334
▁आउदै	-11.5337
▁उभिएर	-11.5338
▁हुँदैनथ्यो	-11.534
▁उहाँसँगै	-11.5343
▁खोलेर	-11.5343
▁कलम	-11.5344
▁मिसन	-11.5351
▁तिमीहरूकहाँ	-11.5352
▁साथीभाइ	-11.5353
▁दुईबीच	-11.5358
ञ	-11.5359
औ	-11.5363
▁आइन्	-11.5372
▁योशियाह	-11.5373
▁ईन्	-11.5383
ाउँनेछु	-11.5386
▁एयरपोर्टमा	-11.5386
▁चिहानमा	-11.5388
▁समुदायलाई	-11.5391
उल	-11.5396
▁डाक्टरहरू	-11.5401
▁बेलायती	-11.5401
▁छाडेका	-11.5403
▁छाडेको	-11.5408
▁विद्रोही	-11.5413
▁ठीकसँग	-11.5414
▁घुमाउन	-11.5414
२६	-11.5415
२७	-11.5417
त्र्	-11.542
▁प्लान	-11.5423
▁तपाईंहरूको	-11.5426
▁उसैको	-11.5426
▁कारागारमा	-11.5426
▁अभिषेक	-11.5428
▁आँकडा	-11.5428
▁कुकिज	-11.5428
▁क्षयरोग	-11.5428
▁डिजिक्याम	-11.5428
▁निष्क्रिय	-11.5428
▁बेपत्ता	-11.5428
▁भैरहवा	-11.5428
▁यौनसम्पर्क	-11.5428
▁श्रद्धा	-11.5428
▁पिसाब	-11.5428
▁परिक्रमण	-11.5428
▁अगस्त	-11.5429
▁समतल	-11.5429
▁बुँदा	-11.5429
▁१९९८	-11.543
▁विचित्र	-11.543
▁एकतामा	-11.5431
▁घटाउनुहोस्	-11.5431
▁ड्रग्स	-11.5431
्रेट	-11.5432
▁उद्देश्यहरू	-11.5432
▁खुलेका	-11.5432
▁कारकहरू	-11.5433
▁सोध्नुभयो	-11.5433
▁झुटो	-11.5434
▁पर्यटकीय	-11.5434
▁अश	-11.544
▁सङ्केतक	-11.544
▁सिकेकी	-11.5441
▁बढिरहेका	-11.5441
णपत्र	-11.5441
▁रहनुपर्छ	-11.5443
▁पठाइयो	-11.5443
▁%1	-11.5443
▁खाँ	-11.5451
▁1)	-11.5451
▁प्रवेशद्वार	-11.5457
ियोस्	-11.5459
३५	-11.5459
▁आकारहरू	-11.5471
▁मुड	-11.5476
▁लय	-11.5478
▁जुटाउन	-11.5487
ानु	-11.5489
▁बिताउनु	-11.5492
▁रातभर	-11.5495
९०	-11.5495
▁नाता	-11.5496
▁सहकर्मी	-11.5496
▁फेल	-11.5498
पदार्थ	-11.5498
▁अस्त	-11.5499
▁घण्ट	-11.55
▁छान्नु	-11.55
▁शास्त्रीहरू	-11.5503
▁सकेपछि	-11.5503
समयमा	-11.5508
▁रूखको	-11.5513
▁मुटुको	-11.5519
▁उपलब्धी	-11.5526
▁हुँदैछन्	-11.5526
▁छँदा	-11.5531
▁कांग्रेसले	-11.5534
▁एलियाले	-11.5534
▁संभाव्य	-11.5538
धर्म	-11.5541
▁अपराधको	-11.5542
▁अपरेशन	-11.5547
▁असहाय	-11.5547
▁दूतावास	-11.5547
▁महासागर	-11.5547
▁कुर्सी	-11.5547
▁एमोरी	-11.5547
▁चिन्दछौ	-11.5547
▁विद्या	-11.5547
▁ढुंगा	-11.5547
▁सङ्घर्ष	-11.5547
▁भाँचि	-11.5547
▁महासचिव	-11.5547
▁कम्पोज	-11.5547
▁शिल्प	-11.5547
▁ताररहित	-11.5547
▁सम्पति	-11.5547
▁माइम	-11.5548
▁सलमान	-11.5548
▁दशैं	-11.5548
▁परियोजनाहरु	-11.5549
ैपर्छ	-11.555
▁अलग्ग	-11.555
▁बताउँछौं	-11.5551
▁देखाउँदै	-11.5551
▁कहीँ	-11.5552
▁बस्छिन्	-11.5553
▁उपचाररत	-11.5555
▁भिसा	-11.5555
▁लगाऊ	-11.5556
▁प्यारा	-11.5558
▁बढ्दैछ	-11.556
▁माग्न	-11.5563
▁अध	-11.5567
▁दुध	-11.5568
▁चारजना	-11.557
▁पतिले	-11.5573
▁लेखकहरु	-11.5574
्याङ	-11.5576
▁हँ	-11.5581
▁संस्थाका	-11.5585
▁स्टेट	-11.5586
▁मारिदिए	-11.5588
पान	-11.559
▁प्रश्नहरुको	-11.5592
ंद	-11.5596
▁काला	-11.5597
▁परिमाणमा	-11.5597
▁वस	-11.5598
ख्या	-11.56
▁श्रीमान्	-11.5601
▁अर्कामा	-11.5606
▁मनाए	-11.5613
शैली	-11.5613
▁हेरोद	-11.5615
▁विज्ञानले	-11.5617
▁ढंग	-11.5617
▁छोडी	-11.5617
▁नक्सामा	-11.5618
▁छोरीसँग	-11.5618
▁उठाइ	-11.562
▁उपभोक्ताहरू	-11.5621
५००	-11.5622
▁४४	-11.5622
▁मिश्रका	-11.5623
▁टेक्न	-11.5624
▁चित	-11.5627
▁वैज्ञानिकहरूले	-11.5628
रहन्छ	-11.563
▁यिनीहरूलाई	-11.5631
४४	-11.5632
▁जड	-11.5635
▁छाने	-11.564
▁संचालनमा	-11.5641
▁खेलाडीहरूको	-11.5642
▁साग	-11.5645
▁६२	-11.5646
न्याह	-11.5646
▁बाँच्नु	-11.5648
▁कार्यालयले	-11.5649
भक्त	-11.565
▁दोहोरि	-11.5652
▁घोर	-11.5656
हट	-11.5658
▁हुन्छौँ	-11.566
▁स्वास्थ	-11.5664
▁रथहरू	-11.5666
▁काउन्सिल	-11.5667
▁काल्पनिक	-11.5667
▁चेन्नई	-11.5667
▁दर्ुइ	-11.5667
▁नेगेटिभ	-11.5667
▁महसूस	-11.5667
▁शृङ्खला	-11.5667
▁सामर्थ्य	-11.5667
▁आहाज	-11.5667
▁उच्चारण	-11.5667
▁जन्तु	-11.5667
▁वचत	-11.5667
▁परिपाटी	-11.5668
▁गाढा	-11.5668
▁व्यक्तिहरुको	-11.5668
▁ब्यापार	-11.5669
▁टाँस्नुहोस्	-11.5669
▁राजस्थान	-11.5669
▁रहेनछ	-11.5669
▁अदृश्य	-11.5669
▁भयौ	-11.567
▁रोक्नु	-11.5672
▁नाति	-11.5672
▁पिण्ड	-11.5673
▁मेट्नुहुन्छ	-11.5674
▁सीमान्त	-11.5674
▁चलाइएको	-11.5675
▁बुन	-11.5678
▁क्रु	-11.5679
हरा	-11.5681
▁अहँ	-11.5681
▁दुख्ने	-11.5681
▁चाहन्नँ	-11.5682
▁पढेँ	-11.5684
▁लगत्तै	-11.5684
▁आइस	-11.569
▁गरीरहेको	-11.5691
▁सक्दैनौँ	-11.5694
▁बलिउड	-11.5697
▁कलाकारहरु	-11.5699
ग्ग	-11.57
▁लेखें	-11.57
▁परेकी	-11.5701
▁स्वयम	-11.5702
▁बोलाएँ	-11.5704
▁युवाहरुलाई	-11.5704
बुबा	-11.5707
▁केटाहरू	-11.5708
▁पापी	-11.5709
▁देखेपछि	-11.571
िसक्यो	-11.5712
▁तपाईकै	-11.5715
▁निभाउन	-11.5715
▁बच्ने	-11.5717
प्स	-11.5719
▁गतिविधिमा	-11.5725
न्थ्यो	-11.5729
▁प्रकाशमा	-11.5734
वाइ	-11.5734
▁बचाउँन	-11.5734
▁क्यानडामा	-11.5735
▁थालें	-11.5735
भेल	-11.5735
बमोजिम	-11.574
अर्कामा	-11.574
▁रोकिए	-11.5744
▁च्या	-11.5746
▁निकाल्नु	-11.5746
ोग	-11.5749
▁उपत्यकामा	-11.575
▁जिम	-11.5751
▁फलो	-11.5755
दिनेछु	-11.5755
▁चरम	-11.5758
▁टुक्राहरू	-11.576
▁ओटा	-11.5762
▁बुझाउने	-11.5764
▁स्थिरता	-11.5765
▁फेड	-11.5766
▁निकायले	-11.577
▁सम्ब	-11.5772
▁जादै	-11.5775
▁गरिदिने	-11.5778
▁बटुले	-11.5779
▁हाँगाहरू	-11.5786
▁समुदायले	-11.5788
▁खडेरी	-11.5789
▁एलर्जी	-11.5789
▁कृतज्ञ	-11.5789
▁झडप	-11.5789
▁त्रुटी	-11.5789
▁ब्याकइन्ड	-11.5789
▁विक्रेता	-11.5789
▁विघटन	-11.5789
▁ह्वाइट	-11.5789
▁सरोकार	-11.5789
▁शङ्का	-11.5789
▁संयन्त्र	-11.579
▁जुलाईमा	-11.579
▁लघु	-11.579
▁इन्डिया	-11.5791
▁प्रसङ्ग	-11.5791
▁धुलो	-11.5792
▁पञ्च	-11.5795
▁सां	-11.5795
▁पूर्णरूपमा	-11.5796
▁देह	-11.5796
▁फाइ	-11.5797
▁ल्यायो	-11.5798
▁बढाउँदै	-11.5799
▁रणनीतिक	-11.5799
▁भनिन्थ्यो	-11.5801
▁सुनेनन्	-11.5801
▁गाडि	-11.5802
▁ल्याउनेछु	-11.5804
▁क्याप	-11.5804
ड्र	-11.5808
▁भेटें	-11.5809
▁विद्यालयले	-11.5813
▁हेर्नुभयो	-11.5813
▁सकेट	-11.5818
▁अष्ट्रेलियामा	-11.5818
िदिन्छ	-11.5819
▁गर्दैछिन्	-11.582
▁मिश्री	-11.5821
नौँ	-11.5822
▁यश	-11.5824
▁ग्रन्थि	-11.5825
▁भागेका	-11.5826
▁जोडेर	-11.583
▁फर्	-11.5834
▁हारूनले	-11.5834
्रेस	-11.5835
▁वाइन	-11.5836
पस	-11.5838
ण्	-11.584
▁पार्	-11.5844
▁राजाहरूको	-11.5844
▁६९	-11.5849
▁मान्छन्	-11.5849
▁१२०	-11.5852
बिट	-11.5853
▁हाे	-11.586
▁कोठाहरू	-11.5864
लोक	-11.5865
▁उचाइमा	-11.5871
▁आधारहरू	-11.5871
सकिएको	-11.5874
▁किसानहरु	-11.5874
▁तल्ला	-11.5874
▁कोर्ट	-11.5885
बुल	-11.5886
▁फिरऊनलाई	-11.5894
▁अस्	-11.5896
▁जापानबाट	-11.5897
▁क्षेत्रहरुको	-11.59
▁खानले	-11.59
▁आप	-11.5902
▁निक	-11.5905
▁बासिन्दाहरू	-11.5911
▁उद्योगहरू	-11.5912
▁सन्तोष	-11.5912
▁अनौपचारिक	-11.5912
▁इन्स्टाग्राम	-11.5912
▁विद्वान	-11.5912
▁कान्छो	-11.5912
▁पत्राचार	-11.5912
▁सिधै	-11.5912
▁क्रिसमस	-11.5912
▁न्यानो	-11.5912
▁शकेम	-11.5913
▁सघन	-11.5913
▁आपत्ति	-11.5913
▁मार्गदर्शक	-11.5914
▁अनुकुल	-11.5914
▁प्लेसूची	-11.5914
▁मिशन	-11.5914
▁देशभित्र	-11.5915
▁सिर्फ	-11.5915
▁सित्र्चाइ	-11.5916
▁चाहान्छन्	-11.5916
▁बसी	-11.5917
▁राष्ट्रमा	-11.5917
▁चाहन्छिन्	-11.5919
▁साहित्यको	-11.5919
▁खालीस्थान	-11.5919
▁नदेऊ	-11.592
▁१९५०	-11.5921
▁अस्पष्टता	-11.5925
▁अचम्मित	-11.5927
▁अयोग्य	-11.5929
▁डाइरेक्टरीमा	-11.5932
▁घटेर	-11.5934
पाइ	-11.5937
लुक	-11.5939
गरे	-11.5939
▁चिनिन्छन्	-11.5941
▁हुुन	-11.5942
▁उतार	-11.5943
▁जातिका	-11.5948
्याम	-11.5949
▁बोर्डको	-11.5954
▁परमेश्वरसँग	-11.5958
▁बैंकबाट	-11.5959
▁मर्नै	-11.5961
▁सुत्ने	-11.5962
▁जापानले	-11.5964
ुङ	-11.5965
▁अन्धकारमा	-11.5971
▁निगरानीमा	-11.5971
उँछ	-11.598
▁बोकेको	-11.5984
वृत्त	-11.5985
तालिका	-11.5989
▁झि	-11.5989
अलग	-11.5995
▁फिल	-11.5997
▁८४	-11.5997
▁यसमध्ये	-11.5999
▁हितका	-11.5999
▁दुःखद	-11.6
▁प्रतिष्ठा	-11.6003
▁फूलको	-11.6003
▁समितिका	-11.6009
ग्रे	-11.6009
▁उपहारहरू	-11.6021
▁कक्षको	-11.6021
क्षय	-11.6023
▁बुल	-11.6023
▁भाइलाई	-11.6025
▁गर्दछौ	-11.6026
▁विश्‍व	-11.6027
▁लैजान्छ	-11.6031
▁सिकार	-11.6031
ञ्जेल	-11.6032
▁अन्त्यसम्म	-11.6033
▁पुगिन्	-11.6034
▁चाहदैन	-11.6036
▁फड्क	-11.6036
▁आकस्मिक	-11.6037
▁उत्तरदायित्व	-11.6037
▁गर्भावस्था	-11.6037
▁चुरोट	-11.6037
▁दस्तावेज	-11.6037
▁मेलबलि	-11.6037
▁युएई	-11.6037
▁तिम्री	-11.6037
▁पदाधिकारी	-11.6037
▁पठायो	-11.6037
▁पूर्वस्थितिमा	-11.6037
▁ईच्छा	-11.6037
▁क्वान्टा	-11.6037
▁अरामी	-11.6038
▁सन्तोषजनक	-11.6038
▁किलोवाट	-11.6038
▁सभामुख	-11.6038
▁चाहन्थिन्	-11.6038
▁फ्याक्स	-11.6039
▁विस्थापित	-11.604
▁सम्झनुहोस्	-11.604
राजा	-11.604
▁जंगलको	-11.604
▁कार्यशाला	-11.6041
▁सरुवा	-11.6041
▁मानेनन्	-11.6042
▁जतिबेला	-11.6042
▁लेख्दैछु	-11.6042
▁जमिनको	-11.6045
▁चिन्छन्	-11.6047
▁अर्की	-11.6048
▁परिमार्जित	-11.6048
▁आउनुहोस्	-11.6048
▁भूमिगत	-11.605
्भ	-11.605
▁क्वार	-11.6051
▁घटनाक्रम	-11.6052
▁सादा	-11.6054
▁सहरहरू	-11.6055
▁नियत	-11.6062
ग्री	-11.6062
▁देवताहरूलाई	-11.6063
▁तिनमा	-11.6068
▁सङ्	-11.6069
▁अब्राहामले	-11.6074
▁करोडौं	-11.6076
अर्कालाई	-11.6079
▁एलि	-11.608
क्रमण	-11.6092
▁चू	-11.6092
▁चेतनाको	-11.6097
स्ति	-11.6097
▁चिकित्सकले	-11.61
▁अवरोधहरू	-11.6104
▁लकडाउनको	-11.6105
▁ड्रप	-11.6108
▁६७	-11.6109
▁गरेनौं	-11.611
▁टीममा	-11.6111
▁चराहरू	-11.6112
ों	-11.6113
कसैले	-11.6115
टुक्रा	-11.6115
पेट	-11.6115
▁भावनाहरू	-11.6115
▁दाना	-11.6117
▁आइपुग	-11.6126
▁भ्रष्टाचारको	-11.6131
▁प्रयोजनको	-11.6133
▁गोठालाहरू	-11.6134
▁बिन्यामीनका	-11.6136
▁पाइन	-11.6144
दायक	-11.6147
ाँउछ	-11.616
एक्स	-11.616
गति	-11.6162
मञ्जूषा	-11.6163
▁राखिने	-11.6164
अन्तर्राष्टिँ्रय	-11.6164
▁अन्धो	-11.6164
▁डीपीआई	-11.6164
▁दाज्यु	-11.6164
▁पत्थर	-11.6164
▁पीठो	-11.6164
▁मेगाबाइट	-11.6164
▁शोधनान्तर	-11.6164
▁समुन्द्र	-11.6164
▁पोइन्ट	-11.6164
▁ब्रिटिस	-11.6164
▁बिजनेस	-11.6164
▁चाँही	-11.6165
▁आईफोन	-11.6165
▁मतदाता	-11.6165
▁झापा	-11.6166
▁भन्नुपर्दा	-11.6166
▁मर्नुभयो	-11.6168
▁विवरणिका	-11.6169
▁गुणात्मक	-11.6172
▁परिकार	-11.6172
▁राख्नेछ	-11.6172
▁जाँदैछौं	-11.6172
▁गर्थ्यो	-11.6175
▁पाइरहेका	-11.6176
मूल	-11.6176
बिना	-11.6179
▁च्याट	-11.618
घट	-11.618
▁गारो	-11.6181
▁समूहगत	-11.6183
▁गरायो	-11.6186
▁फ्री	-11.619
▁उपज	-11.6192
▁जव	-11.6195
▁रोइरहे	-11.6197
जन्य	-11.6199
िसकेपछि	-11.6205
ल्प	-11.6205
▁उसैलाई	-11.6206
▁बारी	-11.621
▁सन्तानलाई	-11.6218
▁युनिट	-11.622
▁समाचारहरू	-11.6224
▁एल्	-11.6224
▁मान्छेले	-11.623
▁मानिने	-11.623
▁एला	-11.6233
▁सदस्यहरूलाई	-11.6237
:-।	-11.6237
पोषण	-11.6242
▁प्रकरणमा	-11.6245
▁खेल्छ	-11.6246
▁घट्दै	-11.6246
प्रो	-11.6249
▁पार्टीहरू	-11.6249
स्टिक	-11.6253
▁मर्दै	-11.6255
▁अचम्ममा	-11.6258
▁बिन	-11.6259
▁कसम	-11.6274
▁बाहिरै	-11.6274
▁मिड	-11.6274
▁छोडेका	-11.6276
▁वेबसाइटहरू	-11.628
पद	-11.6282
▁सर्ने	-11.6286
▁पठाइन्छ	-11.6288
▁अप्रत्याशित	-11.6292
▁आप्रवासी	-11.6292
▁फेसबूक	-11.6292
▁राजीनामा	-11.6292
▁जनहरूप्रति	-11.6292
▁लाबान	-11.6292
▁कर्णाली	-11.6292
▁अभिप्राय	-11.6292
▁बङ्गाल	-11.6292
▁टेबुल	-11.6293
▁भोलिपल्ट	-11.6293
▁उज्ज	-11.6293
▁डरलाग्दा	-11.6293
▁बेतेल	-11.6294
▁टायर	-11.6294
टोन	-11.6295
▁१९९९	-11.6295
▁भत्कि	-11.6295
▁१९९५	-11.6296
▁पछ्याउँदै	-11.6296
▁पर्खिरहेका	-11.6296
▁प्रभुत्व	-11.6298
▁एर	-11.6299
▁लाईन	-11.6302
▁बढाइएको	-11.6303
▁जसद्वारा	-11.6304
▁केटो	-11.6304
▁सम्हाले	-11.6305
▁सफाई	-11.6305
▁तेरा	-11.6309
उन्ड	-11.6309
टेन	-11.6311
▁फ्लो	-11.6311
▁विवादित	-11.6314
▁कर्मचारीले	-11.6315
▁गरोस्	-11.6316
▁उहि	-11.6317
तिनीहरूले	-11.6319
▁लेख्नुपर्छ	-11.6321
स्तो	-11.6323
▁५७	-11.6324
▁नाग	-11.6327
▁लगायतका	-11.6329
▁बैठकले	-11.633
ब्रा	-11.6333
▁विभागका	-11.6333
▁आस	-11.6334
▁पछी	-11.6344
▁६४	-11.6344
९७	-11.6346
▁थालेपछि	-11.6349
▁कसका	-11.6351
▁गाउँमै	-11.6352
▁संघले	-11.6352
▁भेद	-11.6352
हुँदैन	-11.6353
▁चिनिन	-11.6356
टेल	-11.6359
वीर	-11.6364
ज्ञा	-11.6371
्कि	-11.6371
दर्शक	-11.6371
▁चयनकर्ता	-11.6375
धारी	-11.6375
▁संकटमा	-11.6375
▁चलचित्रहरूमा	-11.6375
▁अनुवादक	-11.6384
▁छापा	-11.6389
▁फर्काए	-11.6394
▁दिवसको	-11.64
▁स्तनको	-11.64
ण्ट	-11.6401
रहने	-11.641
▁तुल्याउनु	-11.6411
▁छाना	-11.6422
▁कुखुरा	-11.6422
▁बिद्यालय	-11.6422
▁भियतनाम	-11.6422
▁मीठो	-11.6422
▁रूपैयाँ	-11.6422
▁डाटावेस	-11.6422
▁स्थायित्व	-11.6422
▁राहेल	-11.6422
▁साहित्यमा	-11.6423
▁सुदृढीकरण	-11.6424
▁लिइरहेको	-11.6424
▁परिक्षा	-11.6424
▁उभिरहेका	-11.6424
▁७९	-11.6424
▁१९९७	-11.6426
▁रहेछु	-11.6427
▁घेरे	-11.6428
▁बोलाइएको	-11.6432
▁नदिनुहोस्	-11.6432
▁हप्ताअघि	-11.6435
▁प्लेट	-11.6435
▁प्रवाहित	-11.6435
▁यहूदीहरूलाई	-11.6437
क्सी	-11.6438
▁सडकहरू	-11.6439
िरहेछ	-11.644
▁पाउँछु	-11.6443
▁यन्त्रमा	-11.6445
▁क्षेत्रगत	-11.6448
▁युरो	-11.6449
▁पूर्वक	-11.6449
▁बनाउनेछ	-11.6453
▁लिनुभएको	-11.6455
▁अपनाइने	-11.6459
▁ट्रान्स	-11.6461
▁अनुयायीहरू	-11.6461
▁तस्वीरहरू	-11.6465
▁पूरानो	-11.6466
▁बजाउने	-11.6467
▁आर्य	-11.6467
▁हिंड्ने	-11.6475
▁ओलम्पिकमा	-11.6475
चरण	-11.6476
▁वाई	-11.6478
▁बनाइन्छ	-11.6479
▁निर्देशनहरू	-11.6479
▁८५	-11.648
▁स्थानहरुमा	-11.648
▁सन्तानकी	-11.6482
▁जानेछु	-11.6482
▁माछाहरू	-11.6482
म्बु	-11.6482
▁बिहार	-11.6491
▁चाही	-11.6499
▁चाहेर	-11.6501
▁तरवारले	-11.6502
▁समाजलाई	-11.6506
▁चलाएका	-11.6506
सक्नुहुन्छ	-11.6506
▁नम्बरहरू	-11.651
▁लिगमा	-11.6512
▁सक्नुहुने	-11.6514
▁इन्ट	-11.6516
▁बर्षपछि	-11.6518
▁लम्ब	-11.6518
▁देखिन्	-11.652
▁खेल्थे	-11.652
▁छिमेक	-11.6522
▁ट्वीटर	-11.6525
▁मानिसहरूमाथि	-11.6527
▁उहाँहरूसँग	-11.6535
▁स्वर्गको	-11.6543
▁जाँ	-11.6549
▁बढेका	-11.655
▁वु	-11.6553
▁जाँच्न	-11.6553
▁अनौंठो	-11.6554
▁ग्रीष्म	-11.6554
▁ड्राफ्ट	-11.6554
▁प्रतिष्ठित	-11.6554
▁फराकिलो	-11.6554
▁बित्तिकै	-11.6554
▁मजदूर	-11.6554
▁लेनदेन	-11.6554
▁स्नायु	-11.6554
▁करूब	-11.6554
▁कहिलै	-11.6554
▁भावुक	-11.6554
▁नदेखाउने	-11.6554
▁भेटवार्ता	-11.6555
▁प्रतिबिम्बित	-11.6555
िहाले	-11.6557
▁बुझ्दैनन्	-11.6558
▁बिलाम	-11.6558
▁ढाकेको	-11.6559
▁व्यवस्थापक	-11.6559
▁मार्क्स	-11.6562
▁उतै	-11.6563
▁प्रतिकार	-11.6564
▁लेवीहरूले	-11.6567
▁प्रदर्शनकारी	-11.6568
▁मस्को	-11.6571
▁येशूकहाँ	-11.6573
▁गुगलले	-11.6575
▁खानेपानीको	-11.6576
▁लिनुपर्ने	-11.6577
▁सोचें	-11.6578
▁काँसाको	-11.6579
▁बोक्ने	-11.6582
▁प्रतीकहरू	-11.6582
▁बस्दा	-11.6583
फुल	-11.6586
▁खराबी	-11.6588
त्रा	-11.6589
▁सजीव	-11.659
▁बजेसम्म	-11.6592
▁पिच	-11.6594
दिया	-11.6594
डाउन	-11.6596
▁साधना	-11.6601
▁असंख्य	-11.6605
▁स्त्रीहरूलाई	-11.6611
▁तिर्खा	-11.6612
▁ओहो	-11.6616
भेट	-11.662
▁मिलान	-11.6625
फोन	-11.6625
▁महिनाभित्र	-11.6627
९५	-11.6628
▁उहाँकहाँ	-11.6629
▁पहिल	-11.6631
▁पारियो	-11.6636
▁हृदयबाट	-11.6638
पहिले	-11.6638
▁अघिसम्म	-11.6638
▁क्रिकेटमा	-11.664
न्थे	-11.6642
▁अक्षरहरू	-11.6646
▁लेखिका	-11.6648
▁सङ्ख्याहरू	-11.666
▁रगतले	-11.6661
▁मोटो	-11.6663
▁खेलाडीहरूलाई	-11.6663
▁उत्पादनशील	-11.6669
▁आकाशहरू	-11.6669
▁जित्नु	-11.667
▁झिक्न	-11.6674
▁रिपोर्टिङ	-11.6675
▁कार्यकालका	-11.6675
▁मनश्शेका	-11.6677
▁बिल्कुल	-11.668
▁उल्ल	-11.6681
२००	-11.6682
▁गरिदैन	-11.6684
▁अनुच्छेद	-11.6687
▁असन्तुलन	-11.6687
▁पाखुरा	-11.6687
▁प्रतिसेयर	-11.6687
▁मलखाद	-11.6687
▁अजर्याह	-11.6687
▁अत्याधिक	-11.6687
▁असहज	-11.6687
▁गन्तब्य	-11.6687
▁गैरकानुनी	-11.6687
▁घृणित	-11.6687
▁विनम्र	-11.6687
▁संवैधानिक	-11.6687
▁ह्याण्डल	-11.6687
▁खेलकूद	-11.6687
▁खेलौना	-11.6687
डब्लु	-11.6687
▁भन्‍नुभयो	-11.6687
▁हिर्काए	-11.6687
▁स्क्रीन	-11.6687
▁ब्यवस्था	-11.6687
▁भूइँमा	-11.6687
▁समापन	-11.6687
▁न्यायकर्त्ता	-11.6687
▁ट्रिगर	-11.6688
▁बथान	-11.6688
▁राम्री	-11.6689
▁पर्दै	-11.6691
▁विद्यालयबाट	-11.6693
▁लडिरहेका	-11.6693
बाबा	-11.6696
▁बेस्ट	-11.6699
▁पढ्छन्	-11.67
▁बर्षसम्म	-11.67
्याम्प	-11.6701
▁बोका	-11.6703
▁माटोको	-11.6704
▁सान्	-11.6705
▁छुटेको	-11.6707
▁हारूनलाई	-11.6709
ेन्ज	-11.6709
▁चाल्न	-11.6711
▁राजाहरूलाई	-11.6714
▁लाग्दा	-11.6714
▁छाड्ने	-11.6715
्वी	-11.6725
▁अवधिभर	-11.6725
▁गिरी	-11.6729
▁प्रशासनलाई	-11.6729
▁बनाउनेछु	-11.6732
▁अन्त्यतिर	-11.6732
▁सेता	-11.6732
▁चढ्न	-11.6734
अर्काको	-11.6737
▁छोडिदिए	-11.6741
▁विवाहपछि	-11.6742
▁क्यारेक्टरहरू	-11.6743
▁सेप्टेम्बरमा	-11.6744
▁बिज	-11.6746
▁सक्	-11.6751
▁बनाउ	-11.6753
▁इन्ड	-11.6753
▁जीवितै	-11.6756
▁विद्यार्थीले	-11.6758
▁जोन्स	-11.6759
▁न्युज	-11.6767
सिप	-11.6768
▁हुनुपर्नेछ	-11.6771
▁अन्तर्वार्तामा	-11.6772
▁दिँदैन	-11.678
▁ट्वीटरमा	-11.6781
▁अमि	-11.6783
त्यसो	-11.6785
▁हृदयले	-11.6792
▁गुमाउने	-11.6792
▁रुसले	-11.6793
▁पछ्याइ	-11.6793
▁दलहरु	-11.6795
▁डराएको	-11.6796
▁निस्कन्छ	-11.6797
▁विश्वकपमा	-11.6801
▁हुनुहुने	-11.6803
▁भलाई	-11.6804
▁जान्दैन	-11.6805
▁काँड	-11.6809
यि	-11.6809
▁व्यवसायहरू	-11.6813
▁फर्केको	-11.6818
▁शत	-11.6819
▁गठबन्धन	-11.6822
▁धुम्रपान	-11.6822
▁पारिश्रमिक	-11.6822
▁लुम्बिनी	-11.6822
▁मिद्यान	-11.6822
▁अणु	-11.6822
▁र्वष	-11.6822
▁माइक्रो	-11.6822
▁नचाहे	-11.6823
▁उफ्र	-11.6823
▁स्विकार	-11.6823
▁प्रवर्धन	-11.6823
▁आइफोन	-11.6823
▁लौरो	-11.6824
▁चौडाई	-11.6825
▁वीउ	-11.6825
▁ढुक्क	-11.6825
▁काट्नुहोस्	-11.6826
▁दायरामा	-11.6826
▁२०३८	-11.6827
▁तपाइको	-11.6827
▁सिनेट	-11.6828
▁प्रस्तावहरू	-11.6828
▁विकृति	-11.683
▁आउला	-11.683
▁देख्छन्	-11.6831
अफ	-11.6832
▁बोर	-11.6834
▁मानसिकता	-11.6834
▁सार्ने	-11.6838
▁अश्	-11.6838
▁बन्छु	-11.6839
▁मिलाउने	-11.6839
▁मरिसकेका	-11.6839
▁पक्षहरु	-11.6842
▁पाँचजना	-11.6844
▁चित्रित	-11.6845
वाली	-11.6846
▁देवताको	-11.6846
▁बस्नुपर्छ	-11.6848
▁जुध	-11.6848
▁२५०	-11.6855
जल	-11.6856
▁हिड्न	-11.6857
▁बाइ	-11.6862
▁जान्छौं	-11.6862
हदद	-11.6865
▁वर्षयता	-11.6866
▁पेन्स	-11.6868
▁संस्थानको	-11.6868
मार्फत्	-11.6871
▁वर्षाले	-11.6874
▁फाईल	-11.6875
▁दूरीमा	-11.6877
▁सक्दैनौ	-11.6878
▁देशकै	-11.6884
▁चिनिने	-11.6887
ंध	-11.6889
▁बहिर	-11.689
▁साम्राज्य	-11.6901
▁उठ्छ	-11.6902
▁घुम्न	-11.6903
▁सव	-11.6905
▁हारूनका	-11.6906
्याउँछ	-11.691
उपयोग	-11.691
▁शाऊललाई	-11.6911
▁खोट	-11.6914
▁शीत	-11.6915
▁पछाडिबाट	-11.6921
▁मञ्च	-11.6924
देऊ	-11.6926
▁जन्मनु	-11.6929
घु	-11.693
▁स्टोरमा	-11.6931
▁मिल्न	-11.6934
▁फाँटहरू	-11.6935
▁खेल्दा	-11.694
▁आफैँलाई	-11.694
ुर्	-11.6942
▁बढाई	-11.6944
▁विचारहरु	-11.6949
▁खुव	-11.6949
▁अभिव्यक्त	-11.695
▁वढ	-11.6954
▁हिर्काउ	-11.6954
▁खोर	-11.6954
▁गित	-11.6957
▁डट	-11.6958
▁भन्दिन	-11.6958
▁मेलमिलाप	-11.6959
▁रजस्वला	-11.6959
▁चुहावट	-11.6959
▁नडराऊ	-11.6959
▁नवजात	-11.6959
▁मूल्याङ्न	-11.6959
▁सशस्त्र	-11.6959
▁हङकङ	-11.6959
▁मरुभूमि	-11.6959
▁मेस्सी	-11.6959
▁कन्टेनर	-11.6959
▁सुलभ	-11.6959
▁तिब्बत	-11.6959
▁सर्भेक्षण	-11.6959
▁आइपुगेका	-11.6959
▁अशक्त	-11.6959
▁अग्रणी	-11.696
▁विलियम	-11.696
▁१९९६	-11.6961
▁छानिएका	-11.6962
▁भरिपूर्ण	-11.6962
▁दिइसके	-11.6963
▁सक्नुपर्छ	-11.6964
▁दरिलो	-11.6965
िदियो	-11.6967
▁पारिदिनु	-11.6967
▁थुनि	-11.6969
▁बेचेको	-11.6969
▁बन्दुक	-11.6971
▁जीवनस्तर	-11.6971
भाई	-11.6971
▁जन्मिएकी	-11.6972
▁शैया	-11.6972
▁दशकौं	-11.6974
▁बेक	-11.6975
▁योजनाबद्ध	-11.6975
तिरै	-11.6977
▁अमर	-11.6978
▁उड्ने	-11.6982
▁मौसमी	-11.6983
▁आपत	-11.6985
▁ब्रे	-11.6985
▁पिलातसले	-11.6986
सरी	-11.6987
▁उल्टाउन	-11.6988
▁गतिविधिहरु	-11.699
▁बन्देज	-11.6992
▁लेखिरहेका	-11.6992
▁अबनेर	-11.6996
▁निष्	-11.7
▁१८०	-11.7001
▁उठेका	-11.7001
▁लकडाउनमा	-11.7004
▁गर्थें	-11.7006
साथी	-11.7006
▁मामिला	-11.7007
▁ल्याएँ	-11.7007
▁मालिकलाई	-11.701
▁लाग्दै	-11.701
▁जस्तैः	-11.7011
▁बाल्यकालको	-11.7011
▁येन	-11.7011
▁खुलाउन	-11.7017
▁हिउँद	-11.7019
▁नाटकमा	-11.702
▁उनिहरुलाई	-11.702
टिभ	-11.7021
▁व्यापारीहरू	-11.7021
▁पाठा	-11.7023
▁मार्गहरू	-11.7023
▁विषयहरुमा	-11.7026
▁देखेकै	-11.7026
▁वाहन	-11.7027
▁अधिराज्यको	-11.7028
▁सुधार्न	-11.703
बक्स	-11.7038
▁सम्झने	-11.7042
▁बस्नुपर्ने	-11.7043
पवित्र	-11.7046
राष्ट्र	-11.7047
दर्शन	-11.7047
लोकन	-11.7049
▁अघिनै	-11.7049
गर्न	-11.7052
▁पङ्क्तिहरू	-11.7062
▁प्रयोगकर्ताहरु	-11.7066
प्ले	-11.7067
टार	-11.707
▁तपाइले	-11.707
चालक	-11.708
▁खुल्ने	-11.7087
▁कू	-11.7088
▁फर्काई	-11.7088
कति	-11.709
िरह्यो	-11.709
वर्क	-11.709
▁तर्कहरू	-11.7095
▁सेन	-11.7096
▁विद्यार्थीहरूले	-11.7098
▁पेट्रोल	-11.7098
▁दृष्य	-11.7098
▁नक्शा	-11.7098
▁निष्कासन	-11.7098
▁फ्लोरिडा	-11.7098
▁विश्लेषक	-11.7098
▁श्रृजना	-11.7098
▁हेटौंडा	-11.7098
▁परस्पर	-11.7098
▁फुर्सद	-11.7098
▁वकील	-11.7098
▁डेलिभर	-11.7098
▁उत्थान	-11.7098
▁नभइ	-11.7098
कारण	-11.7099
▁तटस्थ	-11.7099
▁हावापानी	-11.7099
▁अनलाईन	-11.7099
▁हजुरआमा	-11.7099
▁तोक्न	-11.71
▁भन्‍ने	-11.71
▁विकृत	-11.71
▁१९९३	-11.71
▁लेखिरहेछु	-11.7101
▁त्यती	-11.7101
▁खुसि	-11.7102
▁जसअनुसार	-11.7104
▁गोल्ड	-11.7104
▁परदेश	-11.7105
▁८३	-11.7105
▁जेम्स	-11.7105
▁प्यासिफिक	-11.7105
णात्मक	-11.7106
▁भत्	-11.7107
▁वेदना	-11.7109
▁वैज्ञानिकहरू	-11.711
▁फिल्टरहरू	-11.7111
▁रातभरि	-11.7111
▁रहदै	-11.7112
▁कश्मीर	-11.7114
▁सकौं	-11.7116
▁बजेतिर	-11.7116
▁बस्नुभएको	-11.7117
▁प्रण	-11.712
▁पञ्चायतहरु	-11.7123
▁बेहोर	-11.7123
▁पाउनुभएको	-11.7125
▁पन्छ	-11.7127
रेन्स	-11.7128
▁सदस्यीय	-11.713
▁पाईन्छ	-11.7134
छैनौ	-11.7137
▁बीज	-11.7137
िरहेछु	-11.7139
ङ्‍ग	-11.714
▁ठाउ	-11.7142
लाइट	-11.7146
▁एकताको	-11.7146
▁अगस्टमा	-11.7147
▁दोहो	-11.7147
▁घरभित्रै	-11.7149
▁आजभन्दा	-11.7152
▁खी	-11.7152
▁नोक्सानी	-11.7153
▁उसै	-11.7161
▁कलमले	-11.7164
▁मोडलिङ	-11.7167
▁हान्न	-11.7168
भिन	-11.7169
ञ्	-11.7169
▁भर्ने	-11.7178
▁निकालेको	-11.7182
▁गुमाउनु	-11.7182
▁गार्	-11.7182
्याइएको	-11.7183
▁फाईलहरू	-11.7184
▁वाणी	-11.7184
▁मन्द	-11.7185
▁आतंकवाद	-11.7187
▁छान्न	-11.7188
▁सुरुङ	-11.7191
▁कोणबाट	-11.7191
▁किन्ने	-11.7191
▁भन्दैन	-11.7192
▁अधिकारीलाई	-11.7192
▁जीवनकै	-11.7197
बर्ष	-11.7198
▁पत्रहरू	-11.7201
▁२०३	-11.7202
▁आयाम	-11.7209
बुक	-11.7215
विन	-11.7217
▁क्रियाकलापमा	-11.7223
▁टेलि	-11.7231
ोना	-11.7232
▁उनीहरूसित	-11.7235
▁ओगट	-11.7237
▁गल्ली	-11.7239
▁जागरुक	-11.7239
▁महंगो	-11.7239
▁रित्तो	-11.7239
▁वुहान	-11.7239
▁वेबसाईट	-11.7239
▁शिर्षक	-11.7239
▁शीघ्र	-11.7239
▁सम्पत्ती	-11.7239
▁हडताल	-11.7239
▁परिच्छेद	-11.7239
▁पुष्टी	-11.7239
▁मृत्युदण्ड	-11.7239
▁उनीविरुद्ध	-11.7239
▁बंगाल	-11.7239
▁इन्डियन	-11.724
▁कम्बो	-11.724
▁गतहप्ता	-11.724
▁उपवास	-11.7242
▁स्याहार	-11.7242
▁झरे	-11.7242
▁अगुवाई	-11.7244
▁सकोस्	-11.7246
▁मनपर्दछ	-11.7246
र्सन	-11.7248
▁हरफ	-11.7251
▁खोज्दा	-11.7252
▁असमर्थित	-11.7252
▁लड्नु	-11.7252
▁सुन्नेछन्	-11.7252
▁दुखाई	-11.7253
▁रिप	-11.7257
▁एस्तर	-11.7257
▁एट	-11.7262
▁नेताहरुले	-11.7264
▁झनै	-11.7265
▁हेर्यो	-11.7266
िदिएँ	-11.7267
▁लग्यो	-11.727
▁रूपमै	-11.7271
२८	-11.7271
्शन	-11.7272
▁जान्नुहोस्	-11.7273
▁मिल्नेछ	-11.7273
▁पारा	-11.7274
▁जेलमै	-11.7276
▁दियौ	-11.7276
▁डच	-11.7277
▁तलामा	-11.7277
▁घरहरूमा	-11.728
▁लानु	-11.7281
गर्ने	-11.7283
▁कृषकहरु	-11.7286
▁ऊनी	-11.7291
▁भद्र	-11.7293
ाउँछौ	-11.7294
राख्न	-11.7296
▁लिनेछन्	-11.7296
▁टुङ्ग	-11.7296
▁मन्त्रालयका	-11.7301
▁सट	-11.7302
▁अझैसम्म	-11.7305
▁सकुन्	-11.7305
३३	-11.7314
▁९८	-11.7319
▁कम्पनीहरुले	-11.7321
▁पूजाहारीहरूलाई	-11.7322
प्रयोग	-11.7333
सिलो	-11.7333
स्रोत	-11.7334
▁बना	-11.7334
▁योआबले	-11.7339
▁डुबे	-11.7342
स्तरको	-11.7348
▁गइसके	-11.7348
▁अभियोगमा	-11.7349
४३	-11.7358
▁बाला	-11.736
एसडी	-11.7365
▁मिलन	-11.7373
▁आइपुग्न	-11.7374
िसकेकी	-11.7378
▁सुगन्ध	-11.7379
▁अन्तरालमा	-11.7379
▁सुट	-11.7382
▁भ्वाइसेज	-11.7382
▁अद्भूत	-11.7382
▁एक्सचेन्ज	-11.7382
▁कठीन	-11.7382
▁क्षितिज	-11.7382
▁गायिका	-11.7382
▁घनिष्ठ	-11.7382
▁बेतलेहेम	-11.7382
▁मोर्दकै	-11.7382
▁म्यूजिक	-11.7382
▁शाहरुख	-11.7382
▁समकक्ष	-11.7382
▁सर्वोत्तम	-11.7382
▁सुक्खा	-11.7382
▁सत्तरी	-11.7382
▁जमघट	-11.7382
▁साइबर	-11.7382
▁गइसक्नुभएको	-11.7383
▁कार्यान्वित	-11.7383
▁संयोग	-11.7384
▁नदेखिए	-11.7385
▁हाँगा	-11.7386
▁झस्क	-11.7386
▁सङ्ख्यात्मक	-11.7386
▁लगाइएका	-11.7387
▁प्लान्ट	-11.7388
▁देखाउँदछौं	-11.7389
▁पक्षबीच	-11.739
▁छिमेकीहरू	-11.7391
▁भत्ता	-11.7394
▁यहां	-11.7394
▁आर्क	-11.7398
▁क्यु	-11.7402
▁खानुपर्छ	-11.7402
▁अघिल्ला	-11.7403
▁बनाइयो	-11.7403
▁पारिरहेको	-11.7405
▁बनेकी	-11.7408
▁निम्त्याउन	-11.741
▁जन्माउन	-11.7412
▁लिएकी	-11.7413
▁हामि	-11.7418
▁टाढ	-11.7422
▁नरक	-11.7425
▁बिहानै	-11.7431
▁पायौ	-11.7431
▁तान्ने	-11.7432
हिं	-11.7433
▁प्रयोगशालामा	-11.7433
▁अन्तर्वार्ता	-11.7435
▁६८	-11.7437
▁लड्दै	-11.7437
▁उड्न	-11.744
▁तटमा	-11.7443
▁प्रकरण	-11.7443
▁मरेर	-11.7443
▁चाख	-11.7447
▁६१	-11.7451
▁जहा	-11.7456
▁पठाउ	-11.7457
▁लाउन	-11.7465
▁विस्	-11.7469
▁लगि	-11.747
तिमीहरूलाई	-11.7475
▁इरानी	-11.7475
▁तिर्ने	-11.7477
प्रणाली	-11.7478
चिन्ह	-11.7478
▁ग्राहकले	-11.7478
सिंह	-11.7478
राखेका	-11.748
▁७३	-11.748
▁चेत	-11.748
▁खिच्न	-11.748
विवाह	-11.7481
▁७४	-11.7482
▁दासहरू	-11.7492
बिक	-11.7493
▁ट्विट	-11.7496
▁दाता	-11.7504
▁ढाक्न	-11.7507
▁दुष्टता	-11.7508
खि	-11.7509
▁यूसुफलाई	-11.751
▁अंग्रेज	-11.7511
▁कार्ट	-11.7513
▁कार्यालयहरू	-11.7516
▁पिताहरु	-11.7516
▁वार्ड	-11.7517
▁लेवीहरूलाई	-11.7517
ावा	-11.7518
रूवा	-11.7522
यन्त्र	-11.7522
▁टिमका	-11.7524
▁लडाइ	-11.7526
▁अप्ठ्यारो	-11.7527
▁इंग्ल्यान्ड	-11.7527
▁उपसर्ग	-11.7527
▁कार्यक्षमता	-11.7527
▁जेनेरिक	-11.7527
▁भूमिसुधार	-11.7527
▁मोनिटर	-11.7527
▁स्पर्श	-11.7527
▁हार्दिक	-11.7527
▁हिस्टोग्राम	-11.7527
▁हेल्थ	-11.7527
▁नछोड	-11.7527
▁विकिपिडिया	-11.7527
▁सेन्सर	-11.7527
▁नगरिकन	-11.7527
▁उखान	-11.7527
▁प्रतिव्यक्ति	-11.7528
▁जीविका	-11.7528
▁अफसेट	-11.7529
▁परिसर	-11.753
▁मिलाउनुहोस्	-11.753
▁खेप	-11.7531
▁आइरहेछ	-11.7531
▁पिक	-11.7531
▁कर्मी	-11.7532
▁अगुवाइ	-11.7532
ुपर्थ्यो	-11.7533
▁डान्स	-11.7533
▁शर्तहरू	-11.7534
▁जिउ	-11.7534
▁बसाइँ	-11.7537
▁४००	-11.7539
▁गुणस्तरीय	-11.7539
▁सोधिएको	-11.754
▁एशियाली	-11.754
▁फर्काएर	-11.7541
४६	-11.7542
▁घट्यो	-11.7544
▁भलो	-11.7544
▁बिस	-11.7545
▁सुरक्षाकर्मी	-11.7549
▁सक्छिन्	-11.7552
▁पढ्नुभएको	-11.7555
▁सग	-11.7556
▁घरबार	-11.7557
▁जलेर	-11.7559
ाउँनेछन्	-11.7559
▁जान्छौ	-11.7566
▁पाठकहरु	-11.7567
ट्रिक	-11.757
▁पज	-11.757
▁पुर्खाहरूले	-11.7572
▁खाएका	-11.7573
▁फोहर	-11.7574
▁घमण्डी	-11.7575
▁हुल	-11.7575
गमन	-11.7578
▁बस्यो	-11.7579
▁केहीबेर	-11.7582
▁वयस्कहरू	-11.7588
राख	-11.7588
▁स्टा	-11.7591
▁सार्क	-11.7592
▁निस्के	-11.7593
▁दृश्यहरू	-11.7596
रियन	-11.7599
▁मारेका	-11.7605
▁मेनुबाट	-11.7608
मिस	-11.7609
▁कायमै	-11.7612
▁भइरह	-11.7614
६५	-11.7618
▁येहू	-11.762
अधिकार	-11.7623
▁झार्न	-11.7624
विरूद्ध	-11.7625
भिन्न	-11.7625
▁ब्रह्म	-11.7625
▁साथीसँग	-11.7625
▁व्यक्तिहरुले	-11.7626
फिल्ड	-11.7626
जहाँ	-11.7632
▁एसियामा	-11.7641
▁चिकित्सकहरु	-11.7642
▁धर्तीमा	-11.7642
▁प्रतिपक्ष	-11.7644
▁फोर	-11.7648
एमए	-11.7649
▁बच्चाहरूले	-11.7649
▁जातिहरूलाई	-11.7651
▁मुखिया	-11.7653
▁तथ्या	-11.7661
▁चाहान्छ	-11.7663
शान्ति	-11.7671
▁चुम्बक	-11.7672
▁अत्याचार	-11.7674
▁एघार	-11.7674
▁कच्ची	-11.7674
▁गर्भधारण	-11.7674
▁छात्रवृत्ति	-11.7674
▁ध्वनी	-11.7674
▁पोडकास्ट	-11.7674
▁बेग्लै	-11.7674
▁भद्राक्ष	-11.7674
▁मनोवैज्ञानिक	-11.7674
▁मालसामान	-11.7674
▁रेखाङ्कन	-11.7674
▁संभावित	-11.7674
▁चिह्न	-11.7674
▁रोबर्ट	-11.7674
▁युनिभर्सिटी	-11.7674
▁मसिनो	-11.7674
▁रिबेका	-11.7674
▁वीरगञ्ज	-11.7674
▁चिच्याए	-11.7674
▁लज्जा	-11.7674
▁बाछा	-11.7674
▁बनायाह	-11.7674
▁अन्तरक्रिया	-11.7674
▁वसन्त	-11.7674
▁अनुबन्ध	-11.7675
▁नदेखे	-11.7675
▁अवतार	-11.7675
▁तापमान	-11.7676
▁हुर्काउन	-11.7676
▁१९८३	-11.7677
▁लाभहरू	-11.7677
▁फारस	-11.7677
▁पुग्यौं	-11.7677
▁माटोमा	-11.7677
▁कसरि	-11.7677
▁बाँडिएको	-11.7678
▁पेपर	-11.7678
▁अधर्म	-11.7678
▁पठाउँछ	-11.768
▁भरपुर	-11.7682
▁उखु	-11.7684
▁कसैका	-11.7692
▁सातादेखि	-11.7693
▁९३	-11.7695
▁भित्तामा	-11.7697
▁गाऊ	-11.7698
▁लिड	-11.7698
▁बालिकालाई	-11.7705
▁विशेषज्ञहरू	-11.7707
▁प्रतिपक्षी	-11.7708
ट्रि	-11.7708
▁उच्चतम	-11.771
▁तरलता	-11.771
▁दमन	-11.7711
▁भगवानलाई	-11.7711
▁चलचित्रहरु	-11.7714
▁बहन	-11.7715
▁मिनेटपछि	-11.7716
▁इन्टरनेटबाट	-11.7716
▁हुनुअघि	-11.7718
▁खेलिसकेका	-11.7719
▁लेख्दा	-11.7719
गै	-11.7725
▁स्ट्या	-11.7727
▁यसबीचमा	-11.7729
▁म्याग्	-11.7731
▁फिलिपिन्स	-11.7731
▁यहूदिया	-11.7732
तपाईँले	-11.7732
▁दाल	-11.7733
▁मदन	-11.7737
▁सुनेँ	-11.7738
▁मूर्खता	-11.7741
मंत्र	-11.7747
पुर्खाहरूले	-11.775
▁थाके	-11.7755
▁बटुल	-11.7755
▁ब्रो	-11.7755
▁सपनाहरू	-11.7763
▁कुकीजको	-11.7764
▁डेल	-11.7765
▁फलहरू	-11.7765
▁जालमा	-11.7765
नीति	-11.7773
▁स्पिन	-11.7773
छेउ	-11.7778
▁चिप	-11.7781
▁समाजवाद	-11.7781
▁कलाकारहरू	-11.7782
आएको	-11.7782
▁पङ्	-11.7782
ाउँथ्यो	-11.7785
▁भइरहे	-11.7789
▁हीन	-11.7793
▁स्पेनी	-11.7794
▁विश्वसनीय	-11.7796
▁बालबालिकाले	-11.7797
▁सेटिङहरू	-11.7798
ह्य	-11.7799
▁छात्र	-11.78
▁मोटा	-11.7805
▁पढ्छ	-11.7815
▁जाउँ	-11.7819
▁६००	-11.7821
▁अहिल्यै	-11.7823
▁उत्प्रेरित	-11.7823
▁कन्ड्युट	-11.7823
▁गुणवत्ता	-11.7823
▁घुँडा	-11.7823
▁दार्शनिक	-11.7823
▁पखेटा	-11.7823
▁लिमिटेड	-11.7823
▁वैशाख	-11.7823
▁साच्चिकै	-11.7823
▁परिप्रेक्ष्यमा	-11.7823
▁सोझो	-11.7823
▁सङ्गठित	-11.7823
▁चाखलाग्दो	-11.7823
▁वीणा	-11.7823
▁राउन्ड	-11.7824
▁जनसाधारण	-11.7824
▁छेऊ	-11.7824
▁नियन्त्रक	-11.7824
▁असत्य	-11.7824
▁साम्बा	-11.7824
▁भाकल	-11.7825
▁अवधी	-11.7825
▁ओगटेको	-11.7826
▁बिताइरहेका	-11.7826
▁आवश्यकतानुसार	-11.7826
▁आइसकेका	-11.7827
▁बनाईएको	-11.7829
▁छोड्दै	-11.783
▁आआफ्नै	-11.783
▁सोंच	-11.7832
▁लीग	-11.7833
▁विपद	-11.7834
▁साइनिङ	-11.7835
▁आयोजनाअन्तर्गत	-11.7836
▁बोलिरहेका	-11.7836
▁सातौँँ	-11.7837
▁नयां	-11.7838
▁बनिरहेको	-11.7838
▁मैला	-11.7839
▁आईसी	-11.7841
▁हेर्छन्	-11.7842
▁वाह्य	-11.7843
▁मिलाए	-11.7845
▁गजल	-11.7846
▁हुँदछ	-11.7846
▁अवस्थाहरूमा	-11.785
▁वहाँले	-11.7851
ंडा	-11.7851
▁हस्त	-11.7853
▁पढाउनु	-11.7856
▁एमए	-11.7857
▁भेट्दा	-11.786
▁नज	-11.786
▁लिन्छु	-11.7863
▁आजकाल	-11.7869
▁द्रष्टव्यहरू	-11.7871
▁हिमालय	-11.7873
▁बसें	-11.7876
▁जलाए	-11.7879
नुसार	-11.7883
▁तीव्रता	-11.7889
▁क्लोन	-11.789
▁पाउँन	-11.7894
▁अङ्ग्रेजीमा	-11.7898
गृह	-11.7901
▁गरिदै	-11.7907
▁दिवा	-11.7907
▁दृष्टिमा	-11.7917
▁मानेका	-11.7923
▁कुकीजहरू	-11.7923
रोजगार	-11.7925
उत्पादन	-11.7925
पूर्वनिर्धारित	-11.7926
▁पोस्टर	-11.7926
▁प्लेटफर्ममा	-11.7927
▁फ्रि	-11.7929
एकजना	-11.793
नजिकै	-11.7931
▁यात्रुहरु	-11.7934
▁घात	-11.7936
शै	-11.7951
▁ठूल	-11.7957
कृति	-11.7959
▁चिकित्सकहरू	-11.7959
▁ओर्लि	-11.796
▁नराख	-11.7963
शीलता	-11.7965
▁तपाइहरु	-11.7966
▁भन्नै	-11.7967
ाँए	-11.7974
▁ईन्जिन	-11.7974
पर्ूण्ा	-11.7974
▁डिजाईन	-11.7974
▁द्रष्टब्य	-11.7974
▁नियमावली	-11.7974
▁बताउंछन्	-11.7974
▁बाबजुद	-11.7974
▁भीपीएन	-11.7974
▁मिठो	-11.7974
▁रोनाल्डो	-11.7974
▁शङ्कर	-11.7975
▁इजरेल	-11.7975
▁एङ्कर	-11.7975
▁शतप्रतिशत	-11.7975
▁बान्की	-11.7975
▁कम्मर	-11.7975
▁ठीकठाक	-11.7975
▁सम्राट	-11.7975
▁पेट्रोलियम	-11.7975
▁थोप्ला	-11.7975
▁बुहारी	-11.7975
▁परिदृश्य	-11.7975
▁मार्केटिंग	-11.7976
▁डण्डा	-11.7976
▁पठाइएका	-11.7976
▁पांच	-11.7976
▁घन	-11.7977
▁लूत	-11.7977
▁दैलो	-11.7981
▁औलो	-11.7982
▁गरिदैछ	-11.7986
▁राख्नुपर्ने	-11.7989
▁प्रिन्ट	-11.799
▁भेडाहरूले	-11.799
▁सुलेमानलाई	-11.7991
▁हेरौँ	-11.7991
्ध	-11.7992
▁दुर	-11.7992
र्ुपर्छ	-11.7992
▁डेरा	-11.7993
▁भाइबहिनी	-11.7995
▁समातेर	-11.7997
▁संकेतहरू	-11.7998
▁कण	-11.8
▁मार्यो	-11.8
▁मल्ल	-11.8007
▁अफगानिस्तानको	-11.8007
▁लिनुहुन्छ	-11.8008
▁सुन्नुहोस्	-11.8009
▁न्यायिक	-11.8009
▁अरे	-11.8009
▁मरिसकेको	-11.8016
:1	-11.8018
५५	-11.802
▁बचाउँनु	-11.802
▁लागेपछि	-11.8021
▁ढोकाहरू	-11.8027
▁अस्ति	-11.803
▁आवश्यकताअनुसार	-11.8038
▁ठहरिए	-11.8042
▁प्रायश्चितको	-11.8043
▁हेरोदले	-11.8044
▁हुँनेछ	-11.8047
▁उसमा	-11.8048
▁चुनौतीहरु	-11.805
जोड	-11.8053
▁सर्वे	-11.8054
▁काटे	-11.8054
▁व्यक्तिहरुलाई	-11.8054
▁लाग्दो	-11.8056
▁राजाहरूका	-11.807
९९	-11.8074
ंदैन	-11.8074
साइट	-11.8079
▁संक्रमणबाट	-11.808
▁देख्छ	-11.8089
▁नदीहरु	-11.809
▁बलिउडमा	-11.809
▁स्वर्गका	-11.8091
▁श्रीमतीसँग	-11.8093
कोबारेमा	-11.8093
▁फर्काइ	-11.8093
▁उत्प	-11.8093
▁सैनिकहरूले	-11.8096
▁पुस्तकचिनोहरू	-11.8098
▁नोकरलाई	-11.8099
▁बिते	-11.8111
राखेको	-11.8111
डिज	-11.8119
▁सबल	-11.812
▁असहमत	-11.8121
टाइल	-11.8128
▁अभूतपूर्व	-11.8128
▁उजागर	-11.8128
▁दुलही	-11.8128
▁नियन्त्रित	-11.8128
▁निराकरण	-11.8128
▁निश्चिन्त	-11.8128
▁मद्यपान	-11.8128
▁यहोयादा	-11.8128
▁रिजोल्युसन	-11.8128
▁लचिलो	-11.8128
▁सकुशल	-11.8128
▁समुचित	-11.8128
▁सादोक	-11.8128
▁सुनुवाइ	-11.8128
▁अमान्य	-11.8128
▁धुवाँ	-11.8128
▁बाइनरी	-11.8128
▁बिरालो	-11.8128
▁नटलस	-11.8128
▁बाँया	-11.8128
▁सकृय	-11.8128
▁भाइरल	-11.8128
ुहुंदैन	-11.8128
▁प्रतिभाशाली	-11.8129
▁मैत्री	-11.8129
▁अनलोड	-11.8129
▁दिऊन्	-11.8129
▁पसिना	-11.8129
▁तिनिहरु	-11.8129
▁दोहोर्याउनुहोस्	-11.8129
▁तारिफ	-11.8129
▁शिवराज	-11.8129
▁थाल्नुभयो	-11.813
▁तिनीसित	-11.813
▁वेल्स	-11.813
▁कूवा	-11.813
▁१९८५	-11.8131
▁ढाकिएको	-11.8133
▁सम्झन्छु	-11.8135
▁तिमीहरूमाथि	-11.8135
▁हार्ड	-11.8136
▁घुमिरहे	-11.8137
▁तितर	-11.8138
▁सोच्दछ	-11.814
▁युवकलाई	-11.814
▁श्यामश्वेत	-11.814
स्टोन	-11.8141
▁लज	-11.8142
▁२०४	-11.8142
▁पाइरहेको	-11.8143
▁साओ	-11.8149
▁विच	-11.8152
▁देखेनन्	-11.8153
न्डो	-11.8153
▁सोचेकै	-11.8154
ण्डी	-11.8155
▁भरी	-11.8155
▁जोगिन	-11.8159
▁ख्या	-11.8163
ांै	-11.8164
▁ब्रह्माण्डको	-11.8165
ार्ड	-11.8165
▁चिच्याउ	-11.8166
▁सुनिरहेको	-11.8167
▁तोड्न	-11.817
▁नहु	-11.8175
▁नहेर	-11.8175
▁त्यहीँबाट	-11.8175
▁बसेकी	-11.8176
▁बनाएकी	-11.8179
▁सेभ	-11.8184
▁कृषकहरुलाई	-11.8186
मोड	-11.8187
▁घट्ना	-11.8189
▁नोकरी	-11.8189
▁जिवनमा	-11.8191
▁विज्ञप्ति	-11.8193
▁इम्	-11.8194
▁किसानले	-11.8196
▁सुधारिएको	-11.8199
▁८८	-11.8204
▁डेक	-11.8205
▁बन्नेछ	-11.8211
हरेक	-11.8212
▁सुनिन्छ	-11.8216
▁पूज	-11.8216
ठे	-11.8217
पास	-11.8219
रेख	-11.8233
▁पर्खालहरू	-11.8234
▁केसहरू	-11.8234
साधन	-11.8243
▁अही	-11.8243
्याउँदै	-11.8244
▁बेलादेखि	-11.8248
राज्य	-11.8248
▁प्रान्तमा	-11.8249
्ाा	-11.8251
दानी	-11.8254
▁किनेको	-11.8256
▁झोल	-11.8265
▁उत्त	-11.827
लागे	-11.827
▁तुरून्त	-11.8277
▁असित्वमा	-11.8285
▁उल्लिखित	-11.8285
▁एकअर्काका	-11.8285
▁कदापि	-11.8285
▁किशोरावस्था	-11.8285
▁जताततै	-11.8285
▁ठेक्का	-11.8285
▁पाइथोन	-11.8285
▁पीजीपी	-11.8285
▁पूर्वानिर्धारित	-11.8285
▁पौष्टिक	-11.8285
▁भौगर्भिक	-11.8285
▁रोमाञ्चक	-11.8285
▁लेखाजोखा	-11.8285
▁डेटाबेस	-11.8285
▁गिबोन	-11.8285
▁कुमारी	-11.8285
▁रहिरहने	-11.8286
▁परराष्ट्र	-11.8286
▁१९८४	-11.8286
ेक्शन	-11.8286
▁र्फक	-11.8287
▁भैसकेका	-11.8287
▁लिँदै	-11.8287
▁१९८६	-11.8287
▁सुन्दरी	-11.8287
▁मृत्यू	-11.8287
▁१९८१	-11.8287
▁बताउँछिन्	-11.8288
▁सन्यास	-11.8288
▁बताउनुहोस्	-11.8289
▁व्याप्त	-11.829
▁शिमी	-11.829
▁घरैमा	-11.8291
▁लिब	-11.8291
▁भोगेका	-11.8292
▁अर्थमन्त्री	-11.8292
▁महानगर	-11.8293
▁व्याज	-11.8293
▁थलो	-11.8295
संस्था	-11.8296
▁कार्यविधि	-11.8296
▁७६	-11.8296
▁पढिरहेका	-11.8297
▁गर्नुहुँदैन	-11.8297
सरह	-11.8297
▁क्याप्सन	-11.8298
▁पाटा	-11.8298
लगायतका	-11.8299
▁वेग	-11.83
▁लगाइयो	-11.8301
गरि	-11.8302
▁खाऊ	-11.8302
▁उठ्यो	-11.8304
▁बाइट	-11.8305
▁एकअर्कासँग	-11.8305
▁मलेसियामा	-11.8305
▁आउनुपर्छ	-11.8308
▁गर्या	-11.8308
▁आउँदैछन्	-11.8312
परमेश्वरले	-11.8315
▁ओछ्यानमा	-11.8315
▁जन्माएको	-11.8316
▁मिलाप	-11.832
▁सम्झेर	-11.8322
▁अफिसर	-11.8323
▁ओली	-11.8324
▁मजाक	-11.8324
▁ज्ञ	-11.8325
▁ट्याबहरू	-11.8327
▁सारै	-11.8328
▁गुना	-11.8329
▁मिसिए	-11.8335
▁आड	-11.8335
▁अघिबाटै	-11.834
▁कुकर्म	-11.834
▁सुनिएको	-11.8341
▁भत्काइ	-11.8342
▁सम्हाल	-11.8345
▁तमिल	-11.8346
▁सोध्छ	-11.8346
मन्त्र	-11.8347
▁नैतिकता	-11.8349
▁पाँचौँ	-11.835
▁ठाउंमा	-11.8351
▁सुप	-11.8351
▁तलतिर	-11.8353
▁प्रतिशतसम्म	-11.8354
▁थे	-11.836
▁फर्किएर	-11.8362
▁राष्ट्रहरु	-11.8373
लागी	-11.8384
▁कित्ता	-11.8385
▁एसावले	-11.8386
▁खोज्छ	-11.8389
▁प्रवक्ता	-11.8389
▁आउछ	-11.8389
▁एकछिन	-11.8393
बायाँ	-11.8396
▁पं	-11.8403
▁लक्ष	-11.8406
▁प्रतिमाहरू	-11.8406
▁प्रवेशद्वारमा	-11.8407
▁मर्म	-11.8408
नारायण	-11.8412
▁गरिदिन्छ	-11.8412
▁पेन्ट	-11.8413
▁उत्रिए	-11.8415
इज	-11.8415
▁जानेर	-11.8416
▁पुस	-11.8416
▁पूर्णता	-11.8419
▁बैंकहरुले	-11.8423
▁जनाउँछ	-11.8424
▁खण्डन	-11.8426
▁सोचेर	-11.8435
▁बिस्तार	-11.8436
▁छाड्नु	-11.8438
▁देखाउछ	-11.8443
▁आरोहण	-11.8443
▁आश्वस्त	-11.8443
▁इश्माएल	-11.8443
▁डिभिजन	-11.8443
▁निजामती	-11.8443
▁परिमार्जक	-11.8443
▁प्रतिवद्धता	-11.8443
▁यरीहो	-11.8443
▁१९७३	-11.8443
▁अभाज्य	-11.8443
▁आक्रोश	-11.8443
▁आतङ्क	-11.8443
▁सर्जक	-11.8443
▁फूट	-11.8443
▁सुम्पनुभएको	-11.8444
▁थुपार	-11.8444
▁वर्गीकृत	-11.8445
▁ब्याङ्क	-11.8445
▁मध्यरात	-11.8445
▁कोर्नुहुन्छ	-11.8446
▁अन्तरिम	-11.8447
▁पाउलो	-11.8448
▁पहिरो	-11.8449
▁बताउनुभएको	-11.845
▁निहित	-11.845
▁सकिएपछि	-11.845
▁आयकर	-11.8451
▁सुची	-11.8451
▁जोखिमपूर्ण	-11.8454
▁थोपा	-11.8454
▁भाइहरु	-11.8454
▁अचल	-11.8454
▁टाइम्स	-11.8455
▁प्रतिवर्ष	-11.8456
▁थाल्छन्	-11.8458
▁तिनकी	-11.8458
▁छुटेका	-11.8459
▁बनायौ	-11.8461
▁सोच्नुहोस्	-11.8463
▁लाखौँ	-11.8464
▁बटनहरू	-11.8464
▁पारिन्छ	-11.8464
▁स्वदेशमा	-11.8467
▁चल्यो	-11.8468
▁दलाल	-11.8469
▁काली	-11.847
▁पेन	-11.8472
▁बजाउन	-11.8475
▁विषयहरूमा	-11.8475
▁बनाइदिए	-11.8476
▁विजेताहरू	-11.8479
▁भाइरसबाट	-11.848
▁जानुभएको	-11.848
▁उनैले	-11.848
▁लगाइन्छ	-11.8481
▁चोकमा	-11.8481
▁मानेर	-11.8482
▁लिइन्	-11.8485
▁प्रशंसकहरू	-11.8485
▁जातीय	-11.8488
▁सुनेकी	-11.8489
▁पठाएँ	-11.849
▁छिरे	-11.8493
ज्या	-11.8496
▁लागेकी	-11.8496
▁गीतकार	-11.8496
▁विशेषताहरु	-11.85
▁ढिला	-11.8501
▁देखिन्थे	-11.8501
▁८६	-11.8507
▁वैज्ञानिकहरुले	-11.851
्याउनु	-11.8512
▁फेरिएको	-11.8512
▁खेलाडीहरुले	-11.8514
▁चिप्ल	-11.8518
▁थिएनौँ	-11.852
▁निस्केका	-11.8521
▁ज्याक	-11.8522
▁राज्यहरूमा	-11.8523
▁जागा	-11.8523
६४	-11.8524
▁वहा	-11.8525
▁स्थिती	-11.8526
▁अभिभावकहरू	-11.8526
▁मार्नेछ	-11.8538
▁१०००	-11.8538
▁लेखहरु	-11.8538
▁फिलिपिन्समा	-11.8542
▁रोकिने	-11.8554
▁बसिरहन	-11.8556
वाणी	-11.8559
▁कुवा	-11.856
▁सजीवहरू	-11.856
▁आँख	-11.8564
▁बू	-11.8572
▁साकार	-11.8575
▁शास्त्री	-11.8578
▁भइरहेछ	-11.8583
▁अस्थिर	-11.8585
ाउँछौं	-11.859
▁थिएटरमा	-11.8593
ट्टी	-11.8593
▁बजाए	-11.8598
▁ब्रस	-11.8603
▁धितो	-11.8604
▁क्ष्ँेत्र	-11.8605
▁तपाँइ	-11.8605
शमशेर	-11.8605
▁अभिग्रहण	-11.8605
▁पहिचायक	-11.8605
▁बङ्गलादेश	-11.8605
▁रेस्टुरेन्ट	-11.8605
▁लोकतान्त्रिक	-11.8605
▁विचाराधीन	-11.8605
▁शंकास्पद	-11.8605
▁शृंखला	-11.8605
▁सदरमुकाम	-11.8605
▁आफनै	-11.8605
▁जङ्धल	-11.8605
▁प्रत्यायोजन	-11.8605
▁सुनौलो	-11.8605
▁राक्षस	-11.8605
▁अरामका	-11.8605
▁मंगलवार	-11.8605
▁छानबिन	-11.8605
▁निराशाजनक	-11.8605
▁टाँग	-11.8605
▁असोज	-11.8605
▁थप्ने	-11.8605
▁ब्याजदर	-11.8605
▁इसाई	-11.8606
▁तामार	-11.8608
▁लाग्यौं	-11.8608
▁जान्दथे	-11.8609
▁बुझ्छु	-11.8609
▁विवश	-11.861
▁मुख्यालय	-11.8612
▁असहमति	-11.8612
▁हँु	-11.8613
▁मौनता	-11.8614
▁सम्वाद	-11.8614
▁गाडियो	-11.8614
▁तेस्	-11.8615
▁दिनुभएन	-11.8615
▁सङ	-11.8615
▁होसियार	-11.8616
▁हेरिरहे	-11.8616
▁नाटकीय	-11.8617
▁पुर्‍याइने	-11.8617
▁पायौं	-11.8619
▁खोज्छन्	-11.8619
उप	-11.8621
▁चलाउँदै	-11.8623
कूल	-11.8624
▁मेरालागि	-11.8626
▁हेरेँ	-11.8627
▁पुग्छन्	-11.8628
▁गतिशीलता	-11.8631
सिल	-11.8634
▁सिन्	-11.8636
▁बढदै	-11.8636
▁उनिहरू	-11.8641
▁फ्लोर	-11.8641
▁चाहिए	-11.8643
▁चाँ	-11.8643
▁बनाउनुहुन्छ	-11.8645
▁फैलियो	-11.8655
सुरु	-11.8657
▁अस्पतालहरुमा	-11.866
▁जादु	-11.8662
▁आयातित	-11.8662
▁मुलुकहरू	-11.8664
▁थरी	-11.8665
▁हेर्नुपर्ने	-11.867
▁धान्न	-11.8672
▁टुक्र	-11.8673
▁दिलाउने	-11.8674
▁खोजेर	-11.8675
डोर	-11.8676
▁स्क्र	-11.8678
▁बेट	-11.8679
▁योशियाहले	-11.868
▁परमात्माको	-11.8686
▁वेस्ट	-11.869
▁चढाउँछ	-11.869
पिता	-11.8692
बोन	-11.8692
३४	-11.8696
▁जेट	-11.8703
▁लागेँ	-11.8706
▁समेट्न	-11.8708
दृश्य	-11.8716
व्यवस्था	-11.8716
जनता	-11.8718
पाँच	-11.872
▁थिय	-11.872
▁बाँधे	-11.8723
▁भिन्नताहरू	-11.8724
▁बार्	-11.8734
▁लिनेछ	-11.8741
▁चोटी	-11.8744
▁खोलिने	-11.8752
▁गान	-11.8755
▁लिदै	-11.8758
▁बौर	-11.876
▁काठमाडौ	-11.8764
▁छैठौ	-11.8764
▁बिहीबार	-11.8769
▁सङ्धठन	-11.8769
▁अमेजन	-11.8769
▁उज्जियाह	-11.8769
▁टेक्सास	-11.8769
▁दूषित	-11.8769
▁शिफ्ट	-11.8769
डब्ल्यू	-11.8769
▁साबुन	-11.8769
▁अल्पकालीन	-11.8769
▁ढाड	-11.8769
▁मार्टिन	-11.877
▁संस्थाहरुलाई	-11.877
▁नाबाल	-11.877
▁ठप्प	-11.877
▁नआउ	-11.877
▁पीडादायी	-11.8771
▁शीलो	-11.8771
▁बिश्व	-11.8772
▁दर्जनौं	-11.8772
▁पखाल	-11.8773
▁उपभोग्य	-11.8775
लिङ्क	-11.8775
▁यिनको	-11.8776
▁पर्नेछन्	-11.8778
▁साक्षरता	-11.8778
ायिक	-11.878
▁कमिट	-11.8781
िनुपर्छ	-11.8781
▁क्यू	-11.8782
▁तोडा	-11.8783
▁स्याउ	-11.8783
▁जुआ	-11.8785
▁कार्यदल	-11.8785
विश्व	-11.8787
▁नपरेको	-11.8789
▁पदार्थहरू	-11.879
▁सच्याउने	-11.879
▁चार्ट	-11.8791
िरहन	-11.8795
▁घन्ट	-11.8802
▁जिउनु	-11.8803
▁मृत्युदर	-11.8804
▁राख्दैन	-11.8807
▁साधनहरू	-11.881
▁जससँग	-11.8824
▁अदालतबाट	-11.8825
▁क्यान्सरबाट	-11.8826
▁गरिँदैन	-11.8829
चीन	-11.8829
दिन्छ	-11.8833
▁अधिराज्यभर	-11.8833
▁मध्यस्थ	-11.8834
▁गराएर	-11.8835
▁नील	-11.8839
▁खन्न	-11.8843
▁बेथ	-11.8844
दत्त	-11.8847
▁प्ल	-11.8849
▁खेल्यौं	-11.8853
वारे	-11.8853
▁हप्तासम्म	-11.8856
ोइड	-11.8866
▁हाल्ने	-11.8867
▁गाला	-11.8868
▁सीता	-11.8878
▁कतार	-11.8883
▁देख्छौ	-11.8886
डाइरेक्टरी	-11.8886
परिवर्तन	-11.8887
अर्को	-11.8887
▁नलाग	-11.8889
द्रा	-11.8895
तिमीहरुले	-11.8898
ाउँनेछ	-11.8901
▁टार	-11.8913
▁कन्फिग	-11.8917
▁तारिखमा	-11.892
यसकारण	-11.892
▁साउन	-11.8926
▁नोकरले	-11.8928
▁निद्राबाट	-11.8928
▁पिउ	-11.8934
▁आघात	-11.8935
▁आणविक	-11.8935
▁एकआपसमा	-11.8935
▁कर्पोरेट	-11.8935
▁नियामक	-11.8935
▁प्रासंगिक	-11.8935
▁भुकम्प	-11.8935
▁यहोयाकीम	-11.8935
▁लबानोन	-11.8935
▁श्रृङ्खला	-11.8935
▁ग्यालरी	-11.8935
▁गाविस	-11.8935
▁निमार्ण	-11.8935
▁साँस्कृतिक	-11.8935
▁सुहाउँदो	-11.8935
▁अनुपस्थित	-11.8935
▁पक्की	-11.8936
▁चुक्ता	-11.8936
▁स्ट्रिट	-11.8936
▁धुनुहोस्	-11.8937
▁विन्डोज	-11.8937
▁बजाउनुहोस्	-11.8938
▁मेनुपट्टी	-11.8938
▁लोगो	-11.8938
▁जनजाति	-11.8939
▁हराइरहेका	-11.8939
▁सींङ	-11.8939
▁तिथि	-11.8939
▁कालेब	-11.8939
▁इलाम	-11.894
▁इनार	-11.894
▁आक्रमणकारी	-11.8942
▁पाटन	-11.8943
▁नवौं	-11.8944
▁८९	-11.8944
▁हामान	-11.8945
▁सक्नेसम्मको	-11.8946
▁विशेषगरी	-11.8946
ाउँदछन्	-11.8946
▁प्रसारित	-11.8947
▁प्रेमचाहिँ	-11.8947
▁बताइदिए	-11.8947
▁हटाइयो	-11.8949
▁आआफ्नो	-11.895
बडी	-11.895
पनी	-11.8951
▁सोच्नुपर्छ	-11.8951
ाउँने	-11.8954
▁पीसी	-11.8957
▁बुझाए	-11.8958
▁हूँ	-11.8959
▁मरेपछि	-11.8961
▁सोचेभन्दा	-11.8961
▁काण्ड	-11.8962
▁चालिने	-11.8963
▁कसो	-11.8965
▁राख्नुभएको	-11.8965
▁छोडिएको	-11.8969
▁बालकहरु	-11.8971
▁८२	-11.8971
▁बायाँतिर	-11.8971
▁निकालि	-11.8978
▁बोकेका	-11.8981
▁बनाइने	-11.8988
▁माँग	-11.8989
इस्राएल	-11.8991
▁वर्ड	-11.8992
▁कमाएको	-11.8992
▁बाहिरिए	-11.8993
इरहेका	-11.8995
▁भोकै	-11.8995
▁बाइबलले	-11.8996
भिल	-11.8996
▁कोरियाले	-11.9006
▁लाउने	-11.9008
▁सहकर्मीहरू	-11.9008
क्सि	-11.9009
▁मेटिने	-11.902
▁सताए	-11.9021
▁रहिछ	-11.9025
▁देखायो	-11.9029
▁बिर्स	-11.9034
वपूर्ण	-11.9036
▁अनेकौ	-11.9037
थें	-11.9044
िइसकेको	-11.9052
▁कराए	-11.9055
फ्रेम	-11.9056
▁प्रकाशक	-11.9065
▁पत्या	-11.9082
▁आधारहरु	-11.9087
▁स्पा	-11.9095
मोत	-11.9099
▁पदहरू	-11.9101
▁गणेश	-11.9101
▁गाँस	-11.9104
▁घुलमिल	-11.9105
▁निकुञ्ज	-11.9105
▁संलग्र	-11.9105
▁हार्मोन	-11.9105
▁हेरविचार	-11.9105
▁हैदराबाद	-11.9105
▁पत्तो	-11.9105
▁परिवहन	-11.9105
▁खुम्च	-11.9105
▁प्रतियोगी	-11.9105
▁खिन्न	-11.9105
▁भक्तजनहरू	-11.9105
▁पुर्यायो	-11.9105
▁खमीर	-11.9105
िरहन्छन्	-11.9105
▁लाजरस	-11.9105
▁व्याजदर	-11.9105
▁हटाई	-11.9105
▁रोजगारदाता	-11.9105
▁स्किमा	-11.9105
▁जनस्वास्थ्य	-11.9106
▁सिद्धार्थ	-11.9106
▁गुजार	-11.9107
▁मार्था	-11.9107
▁ड्रग	-11.9108
▁लेखिनँ	-11.9111
▁आँप	-11.9113
▁नगरेसम्म	-11.9114
▁भन्दिनँ	-11.9115
▁त्रैमासिक	-11.9115
▁कार्यसूची	-11.9116
▁बौरी	-11.9117
▁मेट्ने	-11.9117
▁ल्याउँदै	-11.9118
▁गुहार	-11.9119
ालु	-11.912
▁विरामी	-11.912
▁पढेकी	-11.9121
▁अब्राहामलाई	-11.9122
▁पकाउने	-11.9123
▁सर्न	-11.9123
स्केप	-11.9125
▁सुन्छु	-11.9127
▁टुर	-11.9128
▁इँट	-11.9129
▁जान्दैनौ	-11.913
▁तिमि	-11.9133
▁२०९	-11.9134
▁जाँच्नुहोस्	-11.9136
▁कार्ल	-11.9137
▁खस्क	-11.9138
▁डाँक	-11.9142
▁रिक्त	-11.9146
▁अपूर्ण	-11.9146
▁देखाइने	-11.9148
▁भेटिएका	-11.9149
▁टिप्न	-11.9149
▁अपनाइ	-11.9153
▁पीर	-11.9153
▁सम्झिए	-11.9154
युद्ध	-11.9159
▁देखिनँ	-11.9169
▁भइरहन्छ	-11.9171
▁पद्म	-11.9184
▁भारतबीच	-11.9186
▁क्रियाकलापहरू	-11.9187
बाली	-11.9192
१ः	-11.9194
▁च्याप	-11.9195
▁चाहा	-11.9196
राख्नु	-11.9201
▁ढले	-11.9202
▁रहिरहन्छ	-11.9207
▁सङ्ग	-11.9208
▁जाती	-11.9211
हरी	-11.9212
सुर	-11.9213
जेन	-11.9214
▁पत्रकारहरू	-11.9218
▁मनभित्र	-11.9222
▁जेठ	-11.9223
▁क्षणहरू	-11.9225
▁चमत्कारहरू	-11.9226
▁बिरामीहरू	-11.9227
▁उसित	-11.9228
पत्नी	-11.9228
यहूदा	-11.9228
▁मेटा	-11.9233
▁नसकिए	-11.9239
बुवा	-11.9247
▁डग	-11.9253
▁यर्मियाले	-11.9255
▁गराउँदछ	-11.926
▁सुहाउ	-11.9263
▁फक	-11.9265
ब्द	-11.9267
▁फोल्ड	-11.9267
इएको	-11.9268
▁महिनाहरूमा	-11.9269
न्छौं	-11.927
▁ओह	-11.927
शाली	-11.9276
▁एसईओ	-11.9277
▁चिट्ठी	-11.9277
▁जडीबुटी	-11.9277
▁ठेकेदार	-11.9277
▁निर्ण्र्ाा	-11.9277
▁पन्ध्र	-11.9277
▁पूर्वानुमान	-11.9277
▁प्रशिक्षित	-11.9277
▁फोक्सो	-11.9277
▁बोअज	-11.9277
▁भट्टराई	-11.9277
▁शहीद	-11.9277
▁सिफ्ट	-11.9277
▁सिमलत्तरुल	-11.9277
एफओभी	-11.9277
▁अहमद	-11.9277
▁अन्तरवार्ता	-11.9278
▁हाम्री	-11.9278
▁ब्ल्याक	-11.9278
▁माधव	-11.9278
▁ठुला	-11.9278
▁मौरा	-11.9278
▁पठाई	-11.9278
▁थाम	-11.9279
▁छायाँकन	-11.9279
▁उपग्रह	-11.9279
▁श्रमशक्ति	-11.9279
▁बुढी	-11.9279
▁कुल्च	-11.9279
▁पूर्णरूपले	-11.928
▁मैलै	-11.9281
▁ब्राण्ड	-11.9281
▁सुचारु	-11.9281
▁हर्ष	-11.9282
▁हरायो	-11.9283
▁लगआउट	-11.9283
▁तोकेको	-11.9283
▁डराउँथे	-11.9284
▁कोरियाली	-11.9286
▁कही	-11.9286
▁काव्य	-11.9287
▁बुझेनन्	-11.9287
▁सङ्लग्नता	-11.9289
▁मोआबका	-11.9289
▁चिन्दिन	-11.929
▁सोच्दछन्	-11.929
▁राख्छौं	-11.9292
र्‍यो	-11.9292
▁गराउनुपर्छ	-11.9295
▁सतर्कता	-11.9296
▁सकि	-11.9296
▁बन्नुपर्छ	-11.9297
▁समाचारपत्र	-11.9297
▁खोजिएको	-11.9303
▁पराल	-11.9307
▁कल्पनासम्म	-11.9307
▁क्रिस	-11.931
▁बग्ने	-11.9311
▁खाट	-11.9312
▁जहाँसम्म	-11.9317
▁विहिन	-11.9319
▁क्लि	-11.9319
▁हाँसे	-11.9319
▁परेपछि	-11.9322
▁खेल्छु	-11.9325
▁जलेको	-11.9326
▁मिनेटसम्म	-11.9331
▁सम्हाल्न	-11.9333
▁अधिराज्यमा	-11.9334
▁प्रवक्ताले	-11.9337
▁कमारी	-11.9369
▁टाँस्न	-11.937
▁मोहर	-11.937
▁नमूनाहरू	-11.9371
▁कष्टहरू	-11.9371
▁क्ले	-11.9375
▁यिनी	-11.9375
▁नपाए	-11.9377
▁९४	-11.9378
▁रोकिएका	-11.938
रूपले	-11.9381
लोड	-11.9393
▁नागरिकहरु	-11.9397
▁सुकै	-11.9401
▁कर्महरू	-11.9401
▁पाता	-11.9402
यर्मिया	-11.9403
अमेरिका	-11.9403
▁चम्किलो	-11.9408
▁इलेक्ट्र	-11.9409
विद्यालय	-11.9417
▁शक्तिद्वारा	-11.9419
▁समर्थ	-11.942
▁बदलिन	-11.942
▁ओछ्यान	-11.9421
▁झर्न	-11.9423
▁पलिश्तीहरूले	-11.9424
▁सप्	-11.9426
▁सड	-11.9427
▁कृषकहरू	-11.9438
विच	-11.9449
चन्द्र	-11.9452
▁शंकर	-11.9452
▁अवतरण	-11.9453
▁आकांक्षा	-11.9453
▁आवागमन	-11.9453
▁क्यानभास	-11.9453
▁चाइनिज	-11.9453
▁छोटकरी	-11.9453
▁जबरजस्ती	-11.9453
▁डीभीडी	-11.9453
▁तपाँई	-11.9453
▁निलम्बित	-11.9453
▁प्रक्षेपित	-11.9453
▁बहुँविध	-11.9453
▁भयंकर	-11.9453
▁षडयन्त्र	-11.9453
▁जनचेतना	-11.9453
▁पंचायत	-11.9453
▁परन्तु	-11.9453
▁फिंज	-11.9453
▁मिथक	-11.9453
▁कथित	-11.9453
▁गिलास	-11.9453
▁जीवनयापन	-11.9453
▁सदोम	-11.9453
▁मनसाय	-11.9453
▁खानपिन	-11.9453
▁आदानप्रदान	-11.9453
▁आइटम	-11.9453
▁उन्मुख	-11.9453
▁राउटर	-11.9453
▁जफत	-11.9453
▁दाखबारी	-11.9453
▁पुनर्स्थापना	-11.9453
[...]
